<blank>
<s>
</s>
'
▁,
▁de
▁et
,
▁.
▁la
s
.
▁le
▁les
▁qui
▁vous
-
▁à
▁que
▁l
▁«
▁d
▁
▁pas
▁ne
▁en
▁qu
▁des
▁a
▁est
▁Il
▁dans
▁pour
▁ce
▁un
▁Et
▁il
est
▁:
▁n
▁lui
▁»
▁leur
▁du
▁nous
:
▁Allah
▁ils
▁dit
▁une
il
▁se
▁s
▁Seigneur
▁ceux
▁je
▁par
▁Nous
▁sur
;
ils
▁au
▁Dieu
▁avec
▁sont
a
e
Allah
▁[
▁mais
▁Mais
▁?
t
▁comme
▁donc
▁Jésus
▁(
▁eux
!
▁fait
▁son
».
nt
▁ont
un
▁tu
▁si
]
▁c
▁C
▁été
▁sa
▁aux
▁celui
▁leurs
▁plus
▁Car
ont
▁terre
▁car
▁bien
vous
fin
?
▁y
▁Je
ent
▁votre
▁avons
▁tout
▁gens
▁jour
▁tous
▁aussi
▁Le
▁t
èrent
)
▁ou
▁moi
ai
▁choses
▁ses
en
▁ni
▁Lui
▁mon
▁sera
▁alors
▁quand
▁était
ez
▁m
es
▁ton
▁cela
▁te
ant
▁où
▁vérité
▁vos
on
▁toute
ons
▁me
▁Si
▁même
▁contre
é
▁avait
▁!
▁suis
▁vers
à
▁parmi
▁toi
▁vie
▁soit
▁ainsi
aient
une
▁Les
▁notre
▁deux
y
ait
▁elle
▁j
▁avez
▁A
▁sans
▁ces
ce
▁homme
le
là
▁châtiment
▁peuple
▁Ne
▁dirent
▁hommes
▁certes
d
▁foi
▁faire
Il
▁là
r
▁étaient
▁Christ
▁seront
▁parole
▁ciel
it
homme
▁Que
▁fils
▁être
▁En
▁dis
▁après
▁Dis
▁jusqu
▁devant
▁Puis
▁part
entre
▁disant
▁autres
▁êtes
▁mort
▁Ceux
eux
▁cieux
▁donné
er
▁Vous
cette
tu
?»
▁rien
▁grand
▁Tu
même
▁Père
▁monde
▁La
▁fut
▁L
▁non
ment
▁selon
▁on
elle
▁Ce
▁Celui
▁point
▁S
▁croient
▁O
▁Or
▁toutes
▁disciples
▁grâce
au
z
Christ
Esprit
▁entre
▁avant
▁pourquoi
▁maison
▁frères
▁croyants
▁Alors
▁descendre
▁avoir
les
▁femme
▁enfants
▁cause
▁nom
▁-
▁encore
▁chose
▁Comme
▁No
▁autre
▁Livre
▁ma
▁personne
▁ta
▁Moïse
▁loi
▁beaucoup
▁veut
▁parce
▁P
▁chemin
▁Lorsqu
nous
ci
mêmes
▁J
▁grande
▁puis
▁sommes
▁œuvres
▁quiconque
as
O
▁Fil
de
▁Sa
près
▁peut
▁N
iez
▁père
▁propre
▁cru
▁Son
▁jamais
▁temps
▁mal
avons
▁Quan
▁disent
Nous
▁bonne
▁répondit
▁miséricorde
▁faites
▁Juifs
▁mes
▁avaient
▁fois
être
Voici
▁quelqu
▁gloire
▁foule
▁nombre
▁aura
▁frère
▁jours
▁Qu
▁péché
▁f
▁nos
▁cœur
▁envoyé
▁Miséricordieux
▁corps
▁seul
▁venu
▁nuit
▁vient
▁effet
irent
▁lorsque
▁morts
▁fais
▁injustes
▁yeux
▁aucun
▁ville
▁Tout
▁elles
la
▁chair
▁sujet
▁cœurs
▁dehors
▁main
▁vu
▁Paul
▁quelque
i
▁serviteurs
▁vraiment
toi
▁donne
▁es
▁maintenant
▁D
autres
quel
autre
était
▁sous
▁dire
▁De
▁Coran
▁récompense
▁Pierre
avez
▁mécréants
moi
).
▁mains
!»
▁écrit
▁Jérusalem
▁soyez
▁droit
▁paroles
eau
▁bon
▁Après
▁mère
▁uns
▁mer
▁Jour
▁voix
▁lieu
▁femmes
▁ayant
▁Jean
▁font
l
▁reçu
.»
rès
▁Ainsi
▁feu
ne
▁envers
▁Messager
▁créé
▁guide
▁puissance
▁lumière
▁versets
▁Se
▁lorsqu
▁auront
▁aucune
▁bonnes
▁Un
▁témoignage
▁sortir
▁seulement
▁Ou
▁péchés
▁chaque
▁chez
▁nouveau
▁justice
▁venir
].
▁ai
▁chacun
▁comment
▁pendant
▁demeure
▁serez
▁voilà
▁sang
▁Voilà
delà
▁peu
▁voici
▁sept
elles
▁temple
),
▁as
Israël
▁serviteur
▁entendu
▁esprit
▁Certes
tre
▁voir
▁mensonge
...
▁certainement
▁rend
n
▁paix
▁Elle
▁prophètes
▁messager
▁ici
▁soient
▁fit
▁partie
▁quoi
▁vint
▁connaît
▁eut
▁déjà
▁trois
▁biens
▁Saint
je
▁étant
▁pieds
],
▁tes
▁signes
▁prêtre
▁Pourquoi
quelle
îmes
▁va
▁fera
▁sorti
▁Feu
▁savez
▁Quiconque
▁dira
▁pharisien
ation
▁peur
▁révélé
Je
▁nouvelle
x
▁sait
▁roi
▁place
▁T
▁prit
▁sais
rent
leur
▁porte
▁Qui
Enfer
▁Royaume
▁Pardonneur
▁mieux
▁cet
▁diront
andis
âmes
▁Par
▁promesse
▁pouvoir
▁vit
▁maître
▁pris
▁assis
▁plutôt
▁Mon
▁prophète
▁pays
ions
▁religion
▁pieux
▁mauvais
ement
▁preuves
▁Nouvelle
▁Sage
ient
▁Abraham
avoir
▁rendu
▁appelé
▁Marie
▁Puissant
▁messagers
▁don
vinrent
▁M
▁meilleur
▁divinité
▁toujours
▁jugement
▁garde
▁crainte
▁droite
ux
▁quelques
▁savoir
▁trouvé
in
▁nation
▁livre
▁Omniscient
▁anges
ès
▁premier
▁connaissance
»
▁enfant
▁signe
▁quelle
▁milieu
▁Anges
▁Pharaon
▁sois
▁sort
▁voie
▁douze
▁éternellement
▁parler
▁celle
▁Bon
hui
▁pardon
ion
▁mis
▁saints
▁manger
▁soleil
▁païens
▁voyant
▁viendra
ra
▁sentier
▁alla
▁On
u
▁heure
▁joie
▁commandement
amour
▁E
▁anciens
▁sorte
és
▁âme
A
▁appartient
▁bouche
que
▁tête
▁Salât
▁ensuite
▁entrer
▁dites
▁Simon
▁cependant
▁preuve
ront
▁pain
▁veux
▁digne
▁Moi
▁Une
▁royaume
▁ténèbres
▁croyez
▁sagesse
▁savent
▁colère
▁plupart
▁volonté
▁David
▁vais
▁trait
▁entra
▁juste
▁p
▁Résurrection
▁confiance
dessus
▁fure
▁mit
▁venue
▁douloureux
▁mécru
assemblée
ée
▁mourir
bas
▁fasse
▁doit
▁donna
▁siècle
▁sauf
▁craignez
»,
▁famille
▁eu
▁pères
▁voulu
▁donner
▁synagogue
▁croit
▁ceci
▁trouve
▁avions
▁petit
▁trône
▁création
▁Toi
us
▁demanda
▁re
▁Tous
▁semblable
▁rendre
▁quatre
▁fin
▁parle
▁Est
▁Très
▁proche
▁vois
aimé
▁force
▁leva
▁forte
▁fruits
▁mille
h
▁soumis
▁nourriture
▁fruit
▁Galilée
C
▁dernier
▁actions
or
▁vrai
▁présente
▁témoins
▁vivant
▁mari
▁disaient
▁auparavant
abord
▁savons
▁Diable
▁Paradis
▁entend
▁ressuscité
▁apôtres
▁vêtements
▁préparé
▁plein
▁faut
▁malheur
▁scribes
▁Joseph
▁moment
▁juge
▁sinon
▁doute
▁depuis
esprit
▁devenu
lui
▁Maître
▁sabbat
▁plusieurs
▁B
▁trouv
▁donnera
▁pierre
▁tant
ici
▁manière
▁première
▁besoin
▁témoin
▁disait
▁Oui
Si
eur
Abraham
▁tort
▁rappel
▁éternelle
▁compte
▁associés
▁demeurer
▁vis
▁appelle
▁dos
▁Mes
▁personnes
▁Non
Seigneur
▁résurrection
▁debout
▁demande
▁nul
▁loin
eurent
▁créés
venant
▁appris
▁salut
▁terme
▁véridiques
▁bête
▁montagnes
▁fidèle
▁ans
▁Ensuite
▁bientôt
▁près
▁tué
▁langue
▁bienfaits
▁faveur
▁prière
avait
▁périr
▁moins
▁vin
▁mange
▁prison
▁désert
▁vienne
▁barque
▁face
▁Noé
▁coupe
▁démons
▁fur
▁ange
et
▁quant
▁Au
▁vent
▁meilleure
▁Connaisseur
▁appelés
▁haut
uns
▁trouver
▁chefs
▁autorité
pour
▁connu
▁demand
▁ancêtres
▁retour
▁faux
Le
▁voient
▁voit
▁entendre
▁montagne
▁Ma
ujour
re
▁reste
▁secours
▁aussitôt
▁Malheur
▁mensonges
▁fille
▁pardonne
êtes
▁quel
aime
▁aime
▁œuvre
▁permission
▁troisième
▁piété
▁contraire
▁prendre
▁boire
▁atteint
aux
▁dix
▁cité
▁derrière
ussitôt
▁groupe
▁prie
▁tel
▁visage
▁celles
▁belle
enfant
▁aurait
Ne
▁)
▁mécréance
▁habitants
▁grâces
▁Cependant
▁infidèles
▁apporté
is
▁vue
▁mesure
▁trouva
ou
▁accompli
▁cherche
▁F
▁connais
ù
▁matin
▁cinq
▁pur
▁divinités
▁oreilles
▁faisons
dans
▁seule
▁interdit
▁communauté
▁nommé
▁descendu
▁certains
Ses
▁connaître
▁menteurs
▁descend
â
▁acquis
▁combat
▁Amen
▁César
▁mois
▁livré
▁sacrificateurs
▁arriva
▁circoncis
▁envoya
▁parabole
▁menteur
▁nulle
ange
▁saint
▁pervers
▁Quel
Muhammad
orgueil
▁reçoit
▁raison
▁hypocrites
▁parlé
▁service
▁reconnaissants
▁partir
▁serons
▁Cela
ette
▁Tel
▁Ta
▁repentir
ie
▁brebis
▁ruisseaux
▁croyons
▁Jacob
▁pu
▁établi
▁accomplissent
▁criminels
▁promis
▁passé
après
ayez
▁ait
▁côté
▁chef
▁lune
▁permis
étais
où
argent
▁rencontre
▁annonce
▁suffit
▁salaire
▁autour
▁amour
▁science
Heure
▁virent
▁co
univers
▁esclaves
▁énorme
▁égard
▁laisse
▁diable
▁avertisseur
▁maisons
▁Juda
▁Toute
▁Jacques
▁Prophète
▁Omnipotent
▁voyez
▁Jardins
▁fixé
▁annoncé
▁propos
▁soir
▁parents
▁ordre
▁envoyés
▁jardins
▁épouses
▁ennemi
▁venus
▁présent
▁viennent
▁louange
▁bienfait
▁ennemis
▁donnée
▁mauvaise
▁message
▁croire
▁parfaitement
▁descendance
▁Satan
▁jugé
▁étions
▁pauvres
▁marche
▁révélation
▁serait
▁arrivé
ur
▁mauvaises
tte
▁Philippe
▁âmes
▁élevé
ité
urent
▁repos
▁ordonna
▁traité
ine
▁grands
▁facile
▁jeté
▁Leur
▁allait
▁clairement
▁voulez
▁perdants
▁Maintenant
▁étiez
▁Pour
▁faisaient
▁façon
▁miracles
▁portes
▁pécheurs
▁fête
▁goûter
▁génération
▁faite
and
▁prêt
▁suivi
▁Peu
▁quarante
▁table
étaient
▁crains
▁capable
▁membre
▁parlait
▁assemblées
▁ferons
Ce
▁donnez
▁travail
▁guidés
te
▁libre
approch
▁pleine
▁eau
yant
▁béni
▁produit
▁demander
▁conseil
ate
▁vivants
doivent
m
▁refuge
▁répondirent
▁pouvez
▁peuvent
▁punition
▁Craignez
▁Allez
▁étoiles
appartient
▁égarés
▁dé
▁dur
▁accordé
▁alliés
▁convenable
▁Messagers
▁honte
heure
▁pains
▁second
▁commencement
▁combien
▁obéissez
▁commis
Vous
Soyez
▁fort
▁dois
ayant
▁Pil
eront
▁appela
Votre
▁agréable
▁malade
▁visages
▁voyage
▁langues
▁servir
▁conscience
▁apparu
▁associateurs
▁ensemble
▁guerre
▁soldats
ordre
Est
▁Nul
eth
▁pardonné
rez
▁jouissance
eurs
▁injuste
▁aimé
▁poussière
▁village
▁suivre
▁certitude
▁faim
▁perte
▁forme
▁détournent
▁bienfaisants
▁premiers
▁saisit
▁rempli
▁prodiges
▁cherchent
achant
▁dons
▁né
▁entier
▁prescrit
▁Hérod
▁évident
▁croyant
▁monta
▁vivre
▁délai
▁moyen
▁mettre
▁pire
▁fer
▁pierres
▁cent
▁petits
▁cri
▁commandements
▁prix
▁magie
▁arrivèrent
▁recevoir
œuvre
▁ramenés
approcha
▁demandent
Omniscient
▁ordonné
▁af
▁ferai
▁aveugles
▁désir
avaient
▁ô
▁crucifié
entendi
▁disciple
▁cherch
▁voile
▁évidente
▁craint
▁accorde
▁met
▁montrer
▁Va
▁semblables
▁sauver
▁passer
▁unique
dire
Qu
▁pitié
▁mystère
▁mariage
▁tombeau
▁tomber
▁voulait
▁suivent
des
▁nombreux
▁tuer
lesquels
▁Prenez
▁cherchez
lendemain
▁séjour
faisant
▁con
▁Grand
▁présen
▁attribué
▁Enfant
▁appel
▁Des
udée
▁vêtement
▁pluie
▁touche
jour
▁Heureu
]:
prenez
▁Zakât
▁persévérance
du
▁justes
sachez
▁bord
▁étranger
▁charge
▁certain
▁maladie
espérance
▁rois
urs
▁concerne
▁tribu
▁malades
▁vigne
▁égarement
▁devait
▁demeures
▁secret
▁Telle
▁générations
▁protecteur
▁rappelle
▁filles
▁principa
▁démon
▁in
▁environ
▁placé
▁jeune
▁Lot
▁allèrent
▁mangez
▁ruse
▁puisque
▁faibles
ïe
▁parfait
▁égare
▁compagnon
▁lettre
▁jeta
ersonne
▁dessus
▁ferme
▁sauvé
▁porter
▁Barnab
▁croix
▁patience
▁tentation
▁longtemps
▁bonté
▁notables
▁Salomon
▁glorifié
▁crurent
):
tenait
▁gauche
▁élus
▁idoles
▁richesses
aie
▁autant
▁pratique
autorité
intelligence
▁sauvés
▁œil
ulent
▁prier
▁aller
▁pri
▁veuve
hors
▁baptisé
▁donnerai
▁champ
▁v
▁pense
▁tomba
▁resta
▁vain
riez
▁lampe
▁navire
▁céleste
▁multitude
▁assigné
▁verront
▁commandé
▁engagement
▁glorifie
▁oiseaux
▁djinns
qui
▁villes
▁nuée
▁verras
auront
vint
étenteur
▁jette
me
late
▁rester
ure
▁morte
▁puissant
▁laissé
▁action
▁Dan
▁désire
▁pouvai
avec
▁retourn
▁conduit
▁exemple
▁Grec
▁Macédo
▁égaux
▁sécurité
▁compagnie
▁rétribution
▁corruption
▁voulons
▁région
Et
▁racont
▁R
▁faisiez
suivirent
▁Regarde
f
▁rendez
▁bâton
▁V
hommes
▁adorez
▁envoie
▁juger
Tu
endant
▁alliance
▁aveugle
tion
▁rapport
▁manque
Qui
▁aurions
▁jeunes
appelle
▁entr
S
▁telle
vient
se
▁outre
▁explicite
▁trésor
ns
▁espérance
▁allié
▁faible
▁proches
▁éprouver
▁ve
▁déclaré
▁commande
▁difficile
▁victoire
▁sauvâmes
▁vécu
▁croyaient
Venez
▁suivez
▁fût
rons
▁assurément
▁ré
▁direction
▁donnons
▁jeter
▁prennent
aveugle
avais
▁sortes
▁poitrines
▁sages
▁doué
▁Gloire
▁cas
▁serments
rai
▁pria
▁guéri
▁amis
▁Cet
honneur
▁peine
▁entendent
Écriture
▁Écriture
▁bas
▁accord
ier
▁pécheur
▁source
▁riche
▁sacrifice
thée
mment
▁caché
▁sache
▁coup
▁montre
▁tués
▁malédiction
▁Clairvoyant
▁souffrance
▁gouverneur
▁souvent
▁craignent
▁route
▁connaissez
▁serv
▁bons
Même
▁têtes
▁Timo
▁ouvert
▁meurtre
▁gardé
avant
▁arbre
vez
▁laissez
▁trouveras
▁lesquel
▁avertis
▁Isaac
Égypte
▁repas
ter
interrogent
▁baptisés
▁Là
▁compagnons
Voilà
▁serai
▁pr
▁prend
aucune
▁Éli
▁Vo
▁pré
▁cités
▁serment
▁mont
▁ressuscités
▁affaire
▁chercher
▁noms
▁puisse
▁baptême
▁dernière
▁doctrine
▁Trône
▁Saluez
▁trente
▁terrible
▁fermement
▁méfaits
Aad
▁verrez
▁monter
▁pleinement
▁berger
▁saurez
▁cour
tiennent
▁invoquent
▁affligés
▁viendront
En
arbre
▁vingt
▁chercha
an
▁disons
ais
▁rappelez
▁chasse
▁peux
▁adultère
▁sacrée
▁vêtu
▁semé
étant
Que
adorer
par
▁traite
▁Quelle
▁vents
arfaitement
ève
ans
▁sœur
oyons
▁esclave
▁souffle
▁tomb
▁décidé
▁vont
▁grain
▁Es
▁enseigné
▁poids
▁royauté
▁centurion
▁Vérité
▁charité
▁désordre
▁Nazar
▁tremblement
▁Frère
▁discours
▁bruit
▁destination
▁Pi
o
té
▁nombreuse
assit
▁Quoi
▁actes
▁sauront
▁croyantes
▁pourtant
▁Fais
▁prophétie
▁garder
▁liens
▁passions
▁troupeau
▁arrive
eaucoup
▁seraient
▁sert
autel
▁existe
▁pa
▁Adam
able
Moïse
▁maîtres
▁Audient
Moi
▁tourne
▁lève
age
▁lit
▁resté
▁Bien
ouvrit
▁g
▁touché
▁prières
▁oublié
▁pauvre
▁humain
▁servi
▁pensée
▁sainte
▁envoy
▁châtie
Islam
ieux
▁marcher
▁Sauveur
▁détresse
▁garçon
▁destruction
▁trompette
▁soif
▁pacte
▁allons
▁Créateur
▁sème
▁jeûne
▁rassemblés
▁éprouvé
▁e
▁faiblesse
▁endurants
▁demandé
▁invoquez
égare
▁mangent
▁haute
▁arrivera
L
▁convoitises
N
▁dispute
▁couronne
appel
▁possédé
▁Ésa
▁suppli
▁partit
▁parla
▁montré
▁passe
ierez
▁crée
époux
▁répond
égarement
épreuve
▁do
▁paraboles
▁impur
▁entré
▁fou
▁annoncer
▁salue
▁prompt
▁Juif
▁plaisir
▁march
▁conforme
▁maudit
Mon
▁spirituel
▁rest
ssez
▁jure
▁saisir
▁but
▁pren
No
▁ventre
▁laiss
▁regarda
▁bestiaux
▁bénédiction
▁coutume
▁Parole
▁comprennent
▁diverses
▁fumée
▁habite
oche
▁naissance
▁autrefois
▁tiers
▁remplis
▁venait
▁enlevé
auraient
▁pensez
▁poissons
âme
▁implor
▁savaient
▁pl
▁six
▁vision
▁couché
E
▁parfum
entrer
▁riches
▁fautes
▁sacrifices
▁savait
▁prends
sur
▁champs
▁Rappel
▁monté
▁moyens
oreille
ignominie
▁épée
Pourquoi
incombe
interprétation
intention
▁commet
épée
▁auraient
▁Al
▁vase
▁retourner
▁insensé
▁épouse
▁secoureur
▁perdu
▁devez
▁prêch
▁jardin
▁mères
▁miracle
▁derniers
▁prochain
▁purifié
▁commun
▁purifie
vain
▁Thamûd
▁Thora
▁succès
▁cheveux
▁enseigne
▁obtenu
▁détruire
▁fondement
▁manteau
▁travaill
▁allez
▁dépensent
▁Quelques
▁voyons
▁dû
▁rétribué
▁vôtres
▁vieux
▁promesses
▁repentan
▁Esprit
aü
ément
▁pensées
▁parti
▁années
▁sein
el
▁aurez
▁cesse
▁Y
otre
▁pousser
▁crois
▁observe
▁choisi
▁pourront
accord
▁engendr
▁récit
▁sûr
▁pou
ât
▁r
▁apôtre
▁richesse
▁année
▁récite
gneau
al
▁endroit
▁Pas
▁meurt
▁É
▁H
▁guider
▁frappe
▁fardeau
argile
▁Fournaise
▁soixante
▁figuier
▁sixième
▁mutuellement
▁décret
▁beau
▁mangé
vènement
▁Rabb
▁possible
▁sexuelle
effectivement
▁jetèrent
▁immense
▁surtout
▁trébucher
▁tour
▁partout
▁viv
▁marchent
▁voies
▁aimez
▁ami
▁suivit
▁tombée
▁saisis
▁vaines
accomplir
Viens
▁suite
▁livrer
!...
▁seuls
▁nouvelles
ère
ir
▁sources
▁écris
▁parvenu
▁regard
▁vend
▁tombe
▁poussé
▁travers
▁clair
▁ordres
▁diables
▁révélée
▁devons
▁cou
▁Re
La
ensuite
▁vraie
Audient
image
▁su
▁réunis
▁aimer
▁lié
▁bêtes
ombien
▁To
▁ingrat
Sois
▁arrivée
▁détourne
aller
né
▁étend
cité
▁guérir
▁ordonne
▁vaut
▁I
▁mérite
À
▁fournaise
▁protection
Univers
▁bébé
▁chevaux
▁chute
▁défaut
▁souffert
▁trop
▁titre
▁revenir
▁arriver
▁désigné
▁entière
▁longue
▁secourir
I
▁tunique
▁droiture
▁talent
Mangez
▁ressuscite
enfl
▁espèce
▁agit
▁bois
▁inventé
▁Homme
▁Laisse
▁rocher
leurs
);
▁Zacharie
▁lésés
▁hâter
▁valeur
▁enseignement
▁réjoui
▁Faites
▁suit
▁guérit
▁Prends
▁pourrait
▁armées
▁sauve
▁Anti
acle
▁rendent
▁lutt
▁détourner
▁devenir
▁réjouis
▁trouvent
▁retira
▁Sau
▁conclu
▁auxquel
▁humains
▁sœurs
▁toit
iers
ance
osquée
viennent
▁confié
▁retourne
▁complot
▁désobéi
aucun
avance
aube
▁connaiss
Certes
▁petite
égard
engagement
exception
▁chargé
▁guérie
aurions
▁éternel
▁égaré
▁regarder
▁turpitude
qu
aurais
▁attend
▁poitrine
▁racine
aiment
▁nature
▁juges
▁lutte
▁Cap
yons
œil
▁reconnu
c
▁pied
▁po
Inconnaissable
▁méchanceté
▁tradition
▁subsistance
▁jalousie
▁blâmable
▁désobéissance
▁Aucun
▁semence
▁prosternèrent
▁fardeaux
obéissance
▁contenu
▁souffrir
▁ouvertement
▁publicain
▁except
▁nourrir
▁commettent
▁sommeil
▁Dama
▁jugez
▁orphelins
esse
▁enseignant
▁portant
▁palmiers
▁secourus
▁invité
▁saviez
▁chaînes
▁retourna
▁utile
▁ignorants
▁Jonas
▁blé
▁chien
▁entende
▁Ces
▁lors
▁exhortation
▁avantage
▁héritiers
▁rendi
▁Jud
▁demain
▁Aaron
▁reni
donnâmes
▁état
▁affection
▁obéi
▁affaires
▁remis
▁eaux
▁recherche
▁témoign
eût
▁présenter
▁brûler
▁couvre
▁agi
Par
écria
▁condamné
▁assujetti
▁cria
▁poser
aurait
Malheur
iniquité
▁supporter
Adam
▁laisser
▁pardonnera
os
▁rendra
accomplisse
sait
▁souverain
▁véridique
▁règle
▁convoitise
▁question
▁accordera
▁exposé
▁voleur
▁annoncée
▁manifeste
▁coule
▁Quelqu
▁pleur
▁manqu
▁dépense
▁souffre
▁tard
▁pure
▁repent
▁réjouir
▁demandes
▁protège
▁tenai
if
▁ressuscitera
▁stratagème
▁folie
▁culte
▁croître
▁voulions
▁oui
▁morceaux
▁tromperie
▁noces
▁mourut
▁prosterner
▁pouvons
▁reçoivent
▁connaissons
▁commandant
▁conseiller
▁gagner
▁Béni
▁davantage
▁descendants
▁injustement
▁apporte
▁fu
▁bout
▁feuilles
▁sage
▁envoyâmes
▁allé
da
▁parlez
▁tiens
▁sourds
▁guidée
▁conform
▁répandu
▁priez
▁rangs
▁signifie
▁revêtu
▁malin
▁appartiennent
▁devienne
▁vivra
▁parfaite
]?
▁conduite
aura
▁échapper
▁justifiés
▁meilleurs
▁Parfait
ach
▁questions
accomplit
▁Vers
▁commença
▁arrière
▁Seul
▁implore
▁romp
entendez
▁frappé
▁occasion
▁vien
▁servante
▁trésors
▁profond
▁suiv
▁vil
▁donnent
aire
▁frappa
▁masse
▁recev
▁dirai
▁trouvera
dain
▁obstru
▁Bar
▁perdre
▁révélations
▁offrir
▁entrent
▁donnés
erez
▁goût
▁pens
▁gard
▁rejeté
▁hériter
héritage
abondance
▁égarer
▁dedans
▁recevra
ît
▁périsse
▁coq
▁porté
▁prisonnier
▁secrète
▁licite
▁maris
▁grave
▁justifié
don
▁tuez
▁vou
▁respect
▁apporter
▁patient
▁demandera
▁genou
▁vive
▁moisson
▁considère
▁récolte
▁balance
arche
▁brigand
▁Grâce
▁avilissant
▁bouillante
▁postérité
▁tonnerre
▁révèle
▁règne
▁Mîm
▁début
▁condition
▁compassion
▁tristesse
▁informera
▁croyiez
▁vertueux
▁comprenez
▁double
▁hardi
▁croiront
▁protéger
▁disparaître
▁butin
▁recevez
▁filet
▁Jugement
▁cachent
▁entièrement
▁Donne
▁dépensé
▁dîmes
▁sûrement
▁répondu
▁cachez
▁prosternés
▁dirons
▁endormis
▁tenté
▁témoignent
▁chaleur
▁Mont
▁branches
▁mots
▁parlant
];
▁pardonner
▁gêne
comme
▁transgresseurs
▁durant
▁pièces
▁gardiens
▁tenez
▁Voyez
igne
▁restent
▁âge
▁partirent
▁partis
▁calomnie
▁incirconcis
▁Adorez
▁adven
▁voulut
▁Vraiment
▁regarde
▁Réjouiss
▁quitta
▁entrés
▁sou
▁éloigne
▁épreuve
▁or
▁regards
▁peuples
haque
▁héritage
▁Maison
▁disputer
▁revi
nne
▁nu
▁toucha
▁Ro
▁prophétis
aviez
▁étonné
▁veille
▁cents
ts
ard
herbe
Goûtez
asseoir
Paix
énorme
adultère
alliance
▁intelligence
avions
▁fa
▁frapper
▁extrême
oire
▁jugera
▁levé
▁cachée
▁lu
▁pouss
▁guidé
▁Veille
▁blasphème
▁sépulcre
▁serpent
▁accomplis
▁abond
▁reconnaissant
achiez
▁muet
▁pareille
▁vues
▁raisonn
▁exclusive
▁pro
▁frapp
▁passion
▁vas
▁verra
▁souci
▁Rétribution
▁célèbre
▁période
▁répulsion
▁sperme
▁territoire
▁vantardise
importe
▁famine
abîme
▁pèche
▁irréprochable
▁souvenir
▁puits
▁caverne
▁répit
▁honorable
ut
▁fondation
▁boiteux
▁meurtrier
▁prosternent
▁désobéissant
Jamais
▁chambre
▁indigents
▁raisonnent
▁répondre
▁repentent
▁train
di
▁comprendre
▁ardente
enfants
▁injustice
▁porcs
▁glorifient
▁transgression
▁prostituée
Les
▁méchants
▁cherchai
▁gré
▁sanctifié
▁Cri
▁enseigner
▁huit
▁sceau
▁épines
▁faute
▁meurent
▁semble
▁voudrai
▁lever
▁port
▁Vois
▁neuf
▁ouvre
énitu
▁prêche
▁foules
entendre
ncore
▁maudits
Mais
▁bais
▁nuire
tenant
▁soin
▁prêché
son
▁cours
▁soi
cation
azare
▁confess
▁enseignements
▁accueilli
lent
▁abondance
▁lettres
▁achevé
J
▁désirs
âm
▁amena
▁parcour
▁aide
ombre
▁évidentes
aurai
ées
g
▁aurais
▁recevr
tout
▁veau
▁connue
▁dépend
▁Messie
Rappelle
occasion
▁Pa
▁distingue
▁vaincr
▁aimera
▁marché
▁souillure
▁femelle
▁support
▁vierge
▁magicien
iser
▁vôtre
▁poisson
▁menace
anie
écart
afflige
▁noble
écri
▁mécréant
▁rencontrer
▁violent
▁court
▁commerce
▁lépreux
▁ministère
▁nécessaire
▁rigueur
▁orgueilleux
▁incapable
▁miséricordieux
▁violence
▁vallée
▁condamnation
▁douceur
▁Donc
▁complètement
officier
▁silence
▁genre
▁souvenez
▁goutte
▁deuxième
▁libert
▁réfléchissent
▁décrété
▁tombeaux
▁Béth
▁argent
▁émigré
▁bouches
▁beaux
▁combattre
attente
▁ressemblent
▁détournez
▁sandales
▁seigneur
▁Tyr
▁viendrai
gripp
▁libéré
▁répondent
▁Ismaël
▁arabe
▁accepté
▁attention
▁larmes
▁perles
▁course
▁front
▁compter
▁impies
▁rassasié
▁pensent
am
▁emporté
▁équité
▁animaux
▁couples
▁nuages
▁autrement
▁disiez
▁vaches
▁ouvrier
▁sens
tes
▁appeler
▁portent
▁choisis
▁corne
▁laissa
▁erreur
vis
▁subir
ix
espèrent
▁Louange
▁denier
▁dispersé
▁bâti
▁écoute
rions
▁formé
▁arbres
ire
▁certaine
▁douleur
duc
ables
ces
▁o
▁divorce
▁annonça
▁chasser
▁rejette
ition
▁témoigne
▁principau
Lui
ssé
▁sac
exemple
mère
▁arrivés
eut
enseignement
▁mour
▁couru
▁demeur
▁long
▁lavé
▁serais
ouvrir
▁di
Al
sse
ille
▁glorifier
▁réduit
▁arriv
▁aim
histoire
▁sain
espère
endurance
Louange
Isaac
impôts
▁enseigna
▁fil
▁besoins
ue
▁blanc
▁triste
entend
▁flamme
▁rebelle
▁sincère
ser
▁mâle
▁parlera
▁sacrificateur
▁avais
▁comblé
▁faisai
ène
écouter
▁exhorte
arque
▁saura
▁jeûner
▁Te
)!
▁répand
▁jaillir
▁possède
▁purifier
▁puisqu
▁ordonn
▁suivai
▁pénétr
)».
▁toucher
▁péri
Éternel
▁Babylone
▁Zébédée
▁conçu
▁généreuse
▁impossible
▁testament
Evangile
▁abondamment
▁moitié
▁perdition
▁roseau
▁fléaux
▁tapis
▁tribunal
▁réussissent
▁redoutable
▁réponse
▁semaine
▁septième
▁instruit
▁buvez
▁échappé
▁journée
▁Silas
▁combattent
▁durable
▁agissent
▁avancé
▁tromper
▁relâcher
▁capacité
▁innocent
▁tenir
▁cheval
▁courant
▁haine
▁future
▁commencé
▁créer
▁blanche
▁informé
▁stupéfaits
▁semer
▁merveilles
▁voyais
▁adoraient
▁rassemblera
éens
▁gain
▁fortifié
▁Laissez
▁portez
▁blasphém
▁demandez
▁avertissements
▁dirige
èse
▁repentis
▁tombés
▁jurent
▁récités
assuran
▁cherché
▁livres
▁all
▁humilité
▁blancs
▁bras
plaire
▁données
▁panier
▁monte
▁envie
▁âne
▁écrire
▁guérison
▁Parm
▁accomplie
▁vol
▁empêcher
▁compris
▁prince
▁fassi
▁deuil
▁repousser
▁sortent
▁prêcher
▁tenu
▁venues
efforce
▁adorer
▁cris
onne
▁tribus
ul
▁dette
ateur
▁ven
▁image
été
▁rassembl
▁marier
▁prise
abri
▁jetés
▁réunir
▁transgresser
▁levant
▁forts
▁louanges
▁amené
▁exacte
▁délivre
▁vaisseau
▁jeu
▁moqu
ureté
pratiquent
▁querelle
era
▁rançon
impudi
vant
▁profit
▁pieuse
▁G
▁guéris
èle
▁dieux
Pierre
▁montra
▁Tit
impureté
chant
tient
quatre
Hérod
immoralité
Gloire
Vraiment
affection
injustice
▁marcha
erreur
dix
ouïe
agneau
▁bel
▁particip
entendent
▁enseign
huile
▁confesse
▁vaine
▁empêche
▁hâte
▁tira
éleva
▁expose
▁inattentif
▁visible
▁vaincu
ami
▁prodige
▁dîme
▁salu
▁fond
▁annonciateur
▁excellent
▁craignai
▁compté
▁placer
▁atteigne
▁espoir
▁prononcé
▁sobre
▁traversé
étendit
▁ardent
▁recouvr
▁associé
▁convien
▁prépar
▁reproche
▁défense
▁élu
oppement
▁Melchi
Sodome
incrédulité
▁Indulgent
▁Iscariot
▁Thomas
▁bétail
▁détriment
▁neuvième
▁rébellion
▁sanctuaire
▁Trompe
▁quatrième
▁Samaritain
▁muraille
▁tempête
▁rapidement
▁blessure
▁presque
▁révélâmes
▁Samari
▁Femme
▁produire
▁Envoie
▁fonction
▁tranchant
▁largement
▁sainteté
▁distance
▁sauvage
▁voisin
▁orgueil
▁précieuse
▁enduré
▁cinquante
▁perversité
▁récompensons
▁conversation
▁viande
▁pureté
▁craindre
▁acquittez
▁extrémités
▁peaux
▁réjouissez
▁recherch
▁Romain
▁réjouissent
▁solide
▁vivons
▁ossements
▁rémission
▁commettre
▁châtiera
▁malgré
▁Pourtant
▁repentez
▁demeuré
▁déposé
▁faisions
▁payer
▁interrogés
▁mettez
▁entendront
▁mangeaient
▁persuadé
▁André
arrière
▁froid
▁Suis
▁stérile
▁écoutez
▁tranquille
▁armes
▁rappellent
▁supplice
▁associent
▁ça
▁portera
▁humiliés
▁mène
▁tombent
▁avertisses
▁trouveront
▁parvenue
oir
▁quitté
▁grandeur
▁détournés
▁amener
▁intérêt
▁Croyez
▁fassent
▁pouv
▁échange
vec
▁oubli
he
▁adorent
▁ignorance
▁prié
émanant
vocation
▁convoqua
▁dépens
▁vo
▁propose
▁Du
▁angoisse
▁robe
▁sol
▁affliction
assembl
▁invente
▁impurs
▁embelli
▁sanctifi
▁parl
▁partage
écoute
▁charnel
▁passant
▁Ni
▁détruis
▁devaient
▁coups
ûmes
▁souillé
▁iniquité
ssent
ole
▁Sur
vers
k
▁apport
▁déchir
▁boue
▁supporte
▁bouc
uriez
▁appri
▁enseignai
▁portée
▁souhait
▁sauvera
▁bu
▁apparten
▁mentionne
ante
»!
ennemi
▁ombre
▁redoute
▁rue
▁délivrer
ern
▁égal
▁revienne
▁contraint
▁avertisseurs
▁raconta
▁échanger
iront
▁taille
▁troupe
issant
▁honneur
▁témoigner
▁incombe
▁dépenser
▁bénis
▁faveurs
▁crie
▁cacher
▁présenté
▁entendue
hait
▁livrera
Pharaon
étonnement
auparavant
▁coupes
j
agit
▁transgress
affliction
vons
mettent
île
▁moissonne
rappelez
)?
Oui
▁réduire
▁supplia
rie
▁mettra
▁poussa
pre
▁ten
▁revien
▁dessein
▁enceinte
▁difficulté
▁doigt
▁privé
▁division
▁transgresse
▁salutation
▁Levant
▁trompe
▁publique
▁détourné
▁soumise
autant
▁idole
▁utilité
▁chagrin
▁soudain
▁glorifi
▁déterminé
▁remplie
▁tombera
▁conjecture
▁prenne
▁morceau
▁bateau
▁chameau
▁Associateurs
▁Bédouins
▁Compatissant
▁Madyan
▁enjoint
▁magistrat
▁noyâmes
▁offert
▁chamelle
▁Fouta
▁profane
▁Écoutez
▁bonheur
▁partialité
▁servitude
▁transmettre
▁foudre
▁mahr
Salâm
▁ceinture
▁immédiatement
▁restreint
▁pauvreté
ivraie
▁juré
▁Sagesse
▁tente
▁punir
▁combattez
▁mangèrent
▁fermier
▁vécurent
ve
▁commettez
▁avertir
▁voyaient
▁profité
▁verre
▁perdra
harn
▁arrêté
▁Beths
▁écouté
▁voul
▁pleurant
▁sach
▁vainqueurs
▁véritable
▁convaincus
▁libérer
▁possèdent
▁craignant
▁couvrir
▁Apollo
▁lance
accomplissement
▁inscrit
ner
▁nourrit
▁limites
phe
▁Chrétiens
▁Chacun
▁plat
▁concernant
▁ferez
▁vagues
▁démenti
▁rouge
▁jetez
▁traces
▁gardez
▁gri
▁considéré
▁désobéit
▁Apporte
▁vendu
▁communi
▁attendez
▁priant
▁réfléchir
▁humbles
▁disposé
▁Musulmans
oppé
▁maîtrise
▁souille
▁pourraient
▁délices
▁obéissent
▁campagne
▁penser
oulent
▁parures
▁détruits
▁enlever
abba
▁seriez
▁divisés
▁change
▁consol
lon
▁troupes
▁observer
▁fuir
▁pareils
▁réforme
▁écoutent
chez
▁dispense
▁comblés
▁Qua
▁magiciens
▁décide
▁prena
▁pourras
▁boit
▁baptiser
▁accordée
▁craign
accus
eilleur
▁atteste
▁détien
▁spirituelle
▁ingrats
▁transmis
▁sel
▁pleurs
▁entrez
▁abonde
▁ajoute
▁laissent
▁secoureurs
liviers
▁Sont
▁voy
eu
▁reprocher
▁engendre
▁apporta
▁pécher
▁pourrez
▁devoir
▁b
▁ressemble
▁imposé
▁rappeler
▁chant
▁châtier
▁souffler
▁distinct
ût
arthe
▁péril
▁garant
▁tint
arrêt
▁fix
▁tuent
▁oint
▁départ
▁troublé
version
ef
Asi
▁jurer
▁sacré
ha
▁battu
▁parent
▁offre
▁redonne
▁traiter
▁mets
viendront
▁perd
▁aie
▁coul
▁ca
▁côtés
▁hât
▁conduisi
▁divisé
▁dévorer
▁étais
▁ch
,)
lement
▁communautés
agon
ourez
▁princip
▁réservé
▁devenue
▁forge
▁soumet
▁belles
▁changer
étoile
squels
▁agir
▁crut
▁bo
▁criai
▁Me
autrui
▁pleure
Puissant
▁moquai
▁relâch
▁repousse
oppression
▁songe
Entrez
agrément
angoisse
Aaron
Y
▁donn
écrire
▁comptes
pied
▁plai
▁Cor
▁détruit
intérieur
▁cache
▁pareil
Non
▁tire
arrêter
▁interroge
▁parure
▁paralytique
▁Caï
em
▁Bo
▁gardien
▁discut
▁boisson
arrive
ccueillant
▁vite
▁commence
achez
▁fleuve
▁scribe
éprouver
▁jo
▁soldat
▁affligé
▁lourde
▁séduit
▁rêve
▁âgé
▁vache
aide
▁combattu
▁assur
▁abandonné
▁caus
▁invoque
▁tuèrent
▁livra
▁désavoue
ar
▁marque
air
annoncer
▁enlève
▁descendi
▁suivant
▁Reste
▁saine
écris
yeux
lusieurs
venaient
▁Glorifie
▁Mecque
▁faucille
▁protégé
▁siège
▁fièvre
▁inquiétez
▁raillerie
▁colombe
▁piège
▁sérieux
▁sentence
▁situation
▁réconciliation
▁domination
▁revivre
▁motif
▁Fort
▁cantique
▁soumission
▁croirons
▁riz
▁reprendre
▁défendre
▁étonnez
▁ab
▁sévère
▁souviennent
▁fussent
▁changement
▁associez
▁rassemblement
onsidérez
▁détaillé
Baptiste
scription
▁révéla
▁réussiront
▁Syrie
▁satisfait
▁paille
▁courage
▁rassemblerons
▁parenté
▁moindre
▁exhortez
▁nord
▁tournant
▁écoulé
▁attendait
▁Sâlih
▁récipient
▁Souvenez
▁paradis
▁construit
▁décision
▁onze
▁regardaient
▁pardonnez
▁couvrira
▁rive
▁nuits
▁mur
▁travaillent
▁restez
▁anciennes
mption
▁malheureux
▁fortune
▁triompher
▁adorateurs
▁vi
▁persévérer
▁porteront
▁prête
▁infirmité
▁désormais
▁pratiqu
▁destiné
▁bénie
▁nier
▁docteurs
égarer
lier
▁argument
▁Poi
▁jouir
▁trou
▁rapprocher
▁luxe
▁sud
▁désirent
▁dise
▁trahir
▁couvert
▁remplir
▁appelait
trèrent
▁veu
▁cessent
▁divisions
▁apprenne
▁décor
▁renvoya
▁visibles
▁intercession
▁habits
connaissant
▁corrompu
bern
▁mâles
▁mina
emmen
▁sable
▁menaces
▁ailes
inrent
▁lutter
É
▁Voy
▁prisonniers
▁Parc
▁épreuves
▁assise
▁gardent
▁tirer
▁verge
▁envoyer
▁voleurs
▁agrément
▁saison
tournent
▁rage
▁couche
▁ressusciter
▁raconter
▁répudie
▁an
▁asservi
▁mélange
▁entreront
▁plaisirs
mi
▁servira
▁préparer
▁atteindra
▁auras
oux
▁enjolivé
▁mettrai
seront
ch
aires
▁désiré
▁profiter
▁annonç
▁engagements
▁lait
]».
▁sûre
▁vignes
enverrai
T
▁captiv
▁Bé
▁protecteurs
▁fermes
▁tache
▁imitat
aisance
cho
▁ramené
▁loup
▁mourra
▁trans
▁Éph
sa
▁confi
▁appellera
▁voué
▁prêcha
▁habit
▁réjouiss
▁Commen
Acha
▁attribue
▁couper
▁parcouru
▁interdis
▁nourri
▁construis
uge
Certains
▁accompliss
▁efface
▁ruine
▁intention
aussi
▁reconnaiss
▁renonce
épouse
▁four
▁ser
▁tourné
▁Di
annonce
raient
hypr
▁commenc
▁char
iens
▁murmur
ES
▁servant
sion
▁accueille
▁passa
▁quitter
▁édifié
▁pousse
û
▁rang
▁renier
accroître
▁oublier
nts
▁enverra
Hélas
▁comble
Joseph
▁sortira
▁clé
Ah
atteint
aurez
envoie
Haut
envoyer
atteindre
midi
vingt
▁brille
Adorez
incirconcis
▁Rom
étions
▁Galiléen
guidés
Cela
égarent
ls
appela
▁médit
▁réveill
▁ancien
hé
rait
▁étendue
▁joug
▁plante
▁lin
▁clan
▁pièce
▁nuage
▁délice
▁pourvu
▁connaisse
▁soutien
▁absent
▁honoré
▁écarté
▁délivré
▁abondante
écarter
▁fleur
▁criminel
▁jeûn
ras
ésormais
▁parts
▁passage
im
▁Marc
▁invocation
▁armée
▁coin
▁tourner
▁claire
isme
▁banni
▁élève
ième
▁récité
▁complète
▁Dominateur
▁chandelier
▁cinquième
▁débiteur
▁dépourvu
▁maturité
▁pénètre
▁responsable
▁résultat
▁sacerdo
▁sincérité
▁soufre
▁Corinth
▁Soumis
▁flanc
▁Bethlé
▁sciemment
▁Endure
▁Cilicie
▁coalisés
▁cultivateur
▁pleuvoir
▁misérable
▁attribution
▁huitième
▁colline
▁prétention
▁juive
avilissement
▁Sourate
▁purification
▁palais
▁imputé
▁comportement
▁vieillesse
▁procuré
▁fuite
▁séduire
▁divulguez
▁préparation
▁œuvraient
ébul
nani
▁fendre
▁asile
▁mendiant
▁calme
▁douce
▁prosternant
▁introduit
▁jeunesse
▁résister
▁retient
▁répondront
▁ému
▁frais
opposent
▁suivront
▁durée
▁hauteur
▁Ayez
▁pleurez
▁Demeure
▁pèlerinage
▁Demandez
▁lèvres
▁bi
▁moutons
▁châtiés
▁fureur
▁Donnez
▁observé
▁brûleront
▁regardez
▁refusé
▁acheté
▁néant
▁accusé
obtenir
▁obéissants
approcher
▁acte
Quan
▁agrée
▁roc
▁instruction
▁descendait
▁ressuscitent
▁recherchent
▁figure
▁quiétude
▁inflige
▁avancer
▁participer
▁touchera
▁dirigeant
▁Lys
▁Allons
▁ordonnance
▁emmené
▁accusations
▁Cieux
▁précédés
▁vaincre
▁mortel
▁confirmer
Attendez
▁outranciers
▁Demande
▁regardent
▁invisible
▁atteindre
▁acheter
▁jambes
▁favorisés
▁coupables
▁expulser
▁crient
▁endurci
▁associe
▁espère
▁sachent
▁délier
▁aliments
▁dépos
▁anéantir
▁raconté
▁ador
▁scellés
▁lapider
▁récompensé
▁vanter
▁raconte
▁mentir
▁camp
▁confirma
▁trancher
▁rêves
vèrent
▁couler
▁condamner
▁Mag
▁voler
▁crime
▁livr
▁menti
▁amère
▁subsiste
▁pi
▁dés
▁coupé
▁Tro
▁indigne
▁hypocrisie
▁vierges
▁vante
▁Apportez
non
▁retrouver
inclinent
irai
▁abandonner
▁cont
▁revêt
▁attendent
▁réciter
▁licites
▁placent
▁brisé
▁relâche
▁revenu
éclair
▁Entrez
viens
▁établis
▁é
▁réservée
▁rassembler
▁reçue
▁versa
▁essay
▁sors
hèse
▁immoralité
▁ventres
▁récits
▁vivante
ssement
▁imposer
▁embrasse
▁li
▁dép
▁perplexe
tant
▁noir
▁datte
▁comparaîtr
▁entrera
▁lits
ves
▁arrach
quer
▁regret
appelez
▁intérieure
▁saisi
▁plan
▁plaça
esquels
aïd
Éli
▁offense
▁permettre
▁profère
▁ba
]!
▁médi
venus
▁établir
▁travaille
▁arde
▁refuse
▁acquitt
▁apprendre
▁exécut
enfuir
▁évidents
▁ajoutera
obéis
Sa
▁compt
▁Crucifie
▁interprétation
adore
▁procure
▁rendrai
ilité
▁rassembla
▁nié
▁mot
▁puiss
▁briller
▁cha
▁révéler
Ma
ique
▁gé
▁form
évi
enfui
▁mûr
▁vide
▁interdits
▁passés
interrog
▁régn
[
rain
▁fus
ins
▁expliqu
▁regardai
▁Ga
▁rapporte
bel
▁profonde
éloigne
▁écouter
▁tr
▁prononce
▁lapid
▁sacrifiée
béissez
ro
▁empêch
▁chante
▁so
ible
▁hauts
▁endurcis
▁écrite
▁résiste
oubli
▁pos
▁sanctifie
▁décidera
Celui
héritier
nce
▁to
▁demi
ô
▁tourment
▁promise
▁graine
étr
▁averti
moins
ailleurs
ram
▁posé
▁présenta
Unique
▁Asi
▁laver
hypocrisie
accusation
offrande
Apportez
ignorance
élève
adorez
attendent
affaire
▁naturel
▁attaché
▁divers
élèver
▁compr
▁purs
ma
▁Ét
▁viol
▁reniera
U
▁confie
▁légère
▁solennel
▁grosse
▁familles
▁méprise
asservis
ias
▁largesse
▁préféré
▁conséquence
▁créature
▁Jardin
▁scellé
▁persécuté
▁transgresseur
▁mention
▁élev
▁changé
▁secte
▁sonna
▁humble
▁aliment
▁Cherch
dedans
▁assigne
▁rappelé
▁fermé
attend
▁mêlé
▁offr
▁menaça
▁Ange
Au
▁presse
enseigner
▁fouet
mes
▁reçoive
▁trouble
▁Jér
▁Pardonne
▁Laodicée
▁Souverain
▁cadavre
▁corrupteurs
▁générosité
▁malhonnête
▁navigu
▁opportun
▁propriété
▁préalable
▁rivalité
▁éphémère
▁modèle
▁Honore
▁Nathan
▁cristal
▁gueule
▁atome
▁langage
▁lointain
allégresse
▁divans
▁cupidité
▁réussissiez
▁Baptiseur
▁noyau
▁accoudés
échappatoire
▁minuit
▁souveraineté
▁zélé
▁Bientôt
▁différence
▁Sabbat
▁accouché
▁majest
▁incorruptible
▁continuellement
▁Face
▁supplication
▁brûle
▁Cana
▁Gardez
▁déshonneur
▁détourna
▁médecin
▁confusion
▁malice
▁paître
▁étrangère
▁prétendiez
▁torrent
▁Cyr
▁beauté
étang
▁soupir
▁comprenaient
▁ramener
▁exposons
▁colonne
aël
▁magnifique
drin
▁fermeté
▁dépôt
▁succéder
▁festin
▁désespèrent
▁retenez
▁raisonniez
▁suffira
▁rejeter
▁retarder
▁reconnurent
▁Écri
▁santé
thène
▁reçois
▁inutile
▁millier
▁permanent
▁souper
▁desséchée
▁construire
▁miel
▁ajouter
▁surface
▁plaît
▁principauté
▁différentes
▁pêcheur
▁désireront
▁discute
▁portait
▁endurent
▁Hûd
▁stade
▁Rendez
▁congé
▁Sinon
eussent
▁interrompu
▁mentionné
▁supportez
▁apparaître
▁prétend
▁travailler
▁transcend
▁moquent
▁rivières
▁malfaiteurs
▁voiture
▁approuvé
▁accordons
▁édifier
▁tournez
▁refus
▁vipère
▁retirer
▁attendons
▁discerner
▁sublime
▁dommage
▁avertissement
▁saluer
▁avertit
▁méritent
▁miens
▁raffermir
▁rapprochés
▁parlaient
▁renient
amenèrent
▁projet
▁heureux
▁marchez
▁absence
▁temporaire
▁avares
▁oublie
▁éclairer
ses
erons
▁mosquées
▁bandes
▁tomberont
▁équivalent
▁public
▁couleurs
▁aille
▁présentèrent
▁Jos
▁savants
▁venger
▁gorge
▁Muhammad
▁illicites
▁prescriptions
▁équitables
▁objets
▁h
▁Gabriel
▁offrande
▁reposer
▁race
suscité
ler
▁Dites
▁adversaires
▁repentant
éloigner
▁cher
▁persécutions
▁guidera
▁man
▁rendons
▁accorder
▁éleva
▁tendre
▁aider
▁renvoyé
▁odeur
▁tourmenté
▁saurait
▁mission
▁rencontrent
▁précipité
interroger
▁Repent
▁tourments
nés
▁délivrés
▁déposa
mpara
▁condamne
▁plantes
▁revêtir
▁réconforté
▁dément
▁chanta
▁direz
▁étoile
ensevelir
tez
▁instant
▁Aux
▁tentes
▁comptent
▁troublés
▁doutent
▁salutations
▁baissa
▁récolter
▁ramène
▁inattentifs
▁vole
▁divine
erie
▁exhort
invoquer
▁venez
ndre
▁conduis
▁commune
veniez
exhorte
▁sincères
▁leçon
▁augmente
Râ
▁plume
▁réserve
▁secoué
▁hébr
▁midi
▁secrètes
▁promet
▁persévér
▁cendre
▁siens
▁exposés
▁dresser
▁passez
▁arc
interroge
▁règles
▁passera
▁As
▁étroite
▁réprimanda
▁mesurer
ations
▁sem
▁épargner
▁montr
▁rendues
▁clairs
▁boirai
▁mondes
▁éloigné
▁flageller
▁arracher
▁ouïe
▁idolâtre
▁ru
▁partager
▁Jo
▁loua
▁contrainte
▁endurance
▁suppos
▁trahiss
contre
▁haï
▁excit
▁précipit
▁appelez
▁entraîne
entends
▁écriv
sent
▁linge
▁perpétu
▁passent
▁brûlée
bo
▁naturelle
▁Paix
▁oreille
▁Ho
▁continu
▁abandonn
ite
▁porc
▁rejetée
▁contes
▁pluies
▁crucifier
▁agité
▁br
▁accomplir
taient
▁invoqu
▁exterminé
▁dite
▁chance
▁béniss
▁impos
nna
père
▁invoqua
obéit
▁prophétise
]?»
▁san
ccomplissez
▁méprisé
ants
donnait
▁commencer
sans
▁trouvée
alité
▁accepte
▁pourra
▁époux
ge
▁fermer
▁approchai
ifs
ium
lo
▁puissante
▁achet
▁tribun
▁persist
ni
▁mo
élevez
▁vendre
▁quitte
tous
habite
▁ac
use
fois
associer
▁posa
▁All
▁excuse
▁retombe
▁régner
oint
▁convi
envoy
▁Avan
▁stricte
▁subi
▁dissimul
éri
lé
▁secour
▁commettra
mon
▁permi
▁position
M
▁effacer
disant
▁adressa
mba
▁Ép
bba
vos
▁failli
▁susciter
▁chassa
▁montrera
▁tourna
▁Sam
▁persécut
▁tromp
▁mor
▁tombé
pe
approche
'[
▁risque
▁évit
ments
▁baptise
excuser
▁nourris
▁méchant
Ceux
▁renvoy
accompagn
▁précéder
▁nient
habitude
aigre
▁posséd
association
état
▁terreur
▁poursuit
Ordre
inimitié
▁perfection
ieds
mis
▁repenti
▁convoit
effroi
▁bâtiss
▁agiss
opprobre
Satan
▁exige
▁Néa
Amenez
existe
intercession
objet
Croyez
humilité
intérêt
environ
▁secou
Anges
âge
▁épouser
épit
▁ramèner
▁issu
neuf
endroit
▁défend
adorent
▁agréé
▁possédai
▁ébranlé
▁espér
▁visite
échapper
▁doutes
▁boira
▁sanction
▁Couchant
▁gratuite
▁préservé
▁enseveli
▁Nazaréen
▁marchandise
enant
▁élément
▁incrédule
accompl
▁jambe
▁persécution
▁docteur
▁coupable
▁djinn
▁fi
▁profondeur
▁mers
▁voyageur
▁empêché
établir
▁complet
▁déçu
▁branche
▁vert
▁endurant
▁sourd
▁adversaire
venez
▁lancé
gie
▁ignorant
▁retard
▁inter
▁Ch
▁couple
▁favorisé
▁pensé
▁chassé
▁opposé
▁obéir
nd
▁proclam
▁danger
▁tab
ja
▁disparu
▁allumé
inq
▁Nico
▁impie
oyer
▁comparer
▁fass
▁patie
▁sollicit
ssiez
▁fraîche
▁prédicat
improviste
▁Chuayb
▁Hypocrite
▁Médine
▁Protecteur
▁bavard
▁bracelet
▁camarade
▁cataclysme
▁clarté
▁combustible
▁efficac
▁harmonieusement
▁impérissable
▁mercenaire
▁méthode
▁quelconque
▁scorpion
▁successeurs
▁végétation
▁Annonce
▁buisson
▁hasard
▁séducteur
▁vertueuses
▁Hâmân
▁Hébreu
▁pâturage
▁pénible
▁mémoire
▁résidence
immortali
▁réputation
▁grenier
Eden
impuissance
▁conflit
▁Mecquois
▁Prisc
▁Galatie
▁vieillard
▁originaire
▁besogneux
▁retraite
▁fracas
▁captif
▁chasteté
▁vengeance
▁totalement
▁divergeaient
▁interpréter
▁facilité
▁Vivant
▁fraude
▁discorde
▁irrité
▁résolution
▁Reconnaissant
▁épargné
▁séparation
▁disponible
▁Juge
▁calomniateur
▁Jusqu
▁dixième
▁prédication
phyl
▁Thessalonique
▁raisonnable
▁proclamer
▁construction
▁renvoie
▁mourrez
▁valet
intercède
▁chameaux
▁apparaîtra
obscurité
▁plage
▁glorieux
▁Sîn
▁détiennent
▁récitation
▁exalté
▁voudront
▁nourrissez
▁rétribuons
▁œuvré
▁divulguent
▁attendre
tier
▁fosse
▁sentiment
▁profér
▁misère
▁revenez
▁refait
▁craindrez
▁adorons
▁confus
▁invoqué
▁soumettez
▁Cherchez
▁terrifié
culté
▁mienne
▁bagages
▁constant
▁fournit
▁consoler
▁quatorze
▁sauterelles
▁concert
▁sentiers
▁rappellera
▁finale
▁transportés
▁coucher
▁répudier
▁assidu
▁ressent
▁reine
▁moquer
▁disputez
▁terrain
▁librement
▁vînt
▁soulève
▁subiront
▁glorifiant
▁profite
▁Sinaï
▁suffisant
▁Révélation
▁Rien
▁lois
▁oblige
▁collecteur
▁croirez
▁simplement
▁assignent
▁surveillant
▁repens
vait
sez
▁cordes
▁expulsés
▁abreuvés
▁talons
▁usé
▁boirez
▁adopté
▁rechercher
▁lourd
▁Dé
▁agissez
▁refusent
▁œuvrez
▁Ka
▁Chu
unir
▁désirons
▁crié
▁retiré
ger
▁habitation
▁marchand
▁protègent
▁arriveront
▁dépouillé
▁aimerait
▁tourmente
▁engagés
▁noyés
▁hôtes
▁chastes
ssons
▁prêter
▁réconcilié
▁visiteur
▁ju
▁emporter
▁cherchiez
▁participant
ud
▁désirez
▁obscurci
▁extrait
▁épis
▁allions
▁surgir
Es
▁comparable
▁accompagné
▁voulais
▁rencontré
iller
▁efforts
▁attristés
▁cupide
▁exhorté
p
▁proclamé
▁doté
▁détruites
▁conserver
▁Serviteur
▁écartent
▁repoussé
▁prononcée
▁aperçu
▁sers
erions
▁flots
▁Ty
▁Alexandr
leine
▁confirmé
▁musulmans
▁verts
▁excès
▁Iblis
▁Suivez
▁retourné
▁choisit
▁enseignera
▁ra
▁diraient
▁Montre
▁parvient
endurcisse
▁chassés
▁incrédules
▁éléments
▁empêchés
Certainement
▁purifiées
▁supporté
▁hier
▁troubles
▁vogue
▁persuad
▁labour
▁sectes
▁héritier
▁créatures
▁gratuit
▁intercesseurs
▁eunuque
▁persécutés
▁disais
▁généalogie
▁adoration
▁lecture
▁Ass
▁tourn
▁cuir
▁confiant
▁adoré
▁visiter
enveloppa
▁écartés
▁engendré
▁disposer
Arist
▁dominer
▁mangea
ph
▁prosterne
heureuse
▁fleuves
▁continuer
enaient
aba
▁abus
liés
▁ouvertes
▁Dém
▁élevée
▁paysan
▁remplacer
▁doigts
▁difficultés
▁plateau
▁conjectures
▁égar
▁confier
▁préserve
▁écoutai
▁comptés
▁dévor
Va
▁Mi
▁voudra
▁ép
▁sén
▁croyante
▁sacrés
▁soie
issez
▁souven
▁consolé
▁femelles
rirent
▁«[
▁lier
▁nôtre
▁gér
▁observa
▁Fé
▁Haut
▁muets
observe
▁augmenter
▁précise
▁étrange
ak
▁louer
élever
▁ro
née
Puis
▁blâme
▁avertisse
▁chargés
▁lion
▁dieu
hiver
ius
▁dépouill
▁appr
ourage
offrir
int
▁regardé
▁perdus
ortez
tienne
viez
▁haïr
euse
▁répandi
▁rejet
▁Ah
impudique
▁taise
▁divisée
▁circuler
iel
ri
▁marchan
▁grains
▁venge
▁rétabli
um
▁tâche
mé
at
▁appren
▁asseoir
osité
▁scelle
▁créées
attach
▁affermi
▁rendue
▁fondé
▁batt
Hérodia
provenant
▁devin
che
▁al
hier
▁tombes
▁rétribuera
▁enveloppé
▁trace
▁Jose
espoir
▁base
rète
ron
▁pires
▁confirm
▁aurai
▁exception
▁soumett
▁détruira
▁troqu
▁souffl
chique
▁lot
▁veiller
tournèrent
▁penses
▁refusa
▁glorifierai
▁agneau
▁dévore
▁persiste
paraîtra
▁interrogea
▁imposa
▁Comm
▁répondra
▁exact
vions
▁chemins
▁agréables
▁appartena
attachera
▁ouvrir
▁accroît
q
▁égale
▁dépasse
▁parties
▁Tar
▁clou
lez
▁abaissé
▁dél
▁buv
▁produis
▁redout
allait
▁détach
▁Ko
▁pay
▁laissera
▁important
▁grince
▁brûl
exhorter
▁rem
icité
oppose
▁élevés
▁souffr
▁chass
action
amener
▁croira
▁brûlé
ex
▁hor
impose
▁gaspill
▁préfère
▁lèvera
▁permet
▁redonner
▁déclar
acte
▁Salut
donnèrent
▁...
▁rencontr
▁joui
▁pleurai
bou
▁adressé
connaissiez
▁renie
▁concour
▁mette
ise
eille
core
▁puiser
▁considér
▁sortie
Ces
ab
ble
▁trahi
▁sauvée
▁désobéir
parmi
amenez
▁endure
▁ois
▁Pens
invoque
▁Bi
entendra
ort
▁laine
▁rassemble
▁Pense
toire
ka
▁convoqu
▁manquer
▁haïs
▁accept
▁couvr
▁prescrite
faire
▁renvers
▁fatigue
▁tienne
be
▁préci
bien
accuser
▁Com
origine
Seul
testable
Quel
▁pardonn
▁affermis
si
gue
▁crach
▁rep
▁convoite
▁choisir
▁déclare
▁gr
impôt
oi
▁remont
alternance
anciens
gramme
dirent
▁mendi
▁éman
encens
▁permett
Sors
agrée
ence
éhen
amena
▁sec
excellence
instruire
ordonne
amitié
impiété
avertisseur
assez
per
F
annonç
▁trouverai
instant
evé
appartiennent
orphelin
exhortation
▁récompenses
Voyez
Une
avertissement
enlever
▁saisira
▁réconfort
▁Prépare
associé
appeler
observer
▁multiplie
▁tranche
Prostern
extérieur
enfuire
▁abondant
▁gros
écoutent
▁entendi
enfla
générations
voir
▁tue
elon
entendaient
▁guid
▁individu
envie
▁amène
▁appar
▁écrivi
cieux
attends
▁crucifi
▁joign
▁culture
iste
dème
▁précipiter
▁équitable
▁surveill
▁prescription
▁terrestre
▁chaîne
▁illicite
▁monture
▁accablé
▁atteinte
▁voula
▁mariée
▁séparé
▁Rac
▁outrancier
▁calcul
joindre
▁cacha
▁loue
Rappel
▁multiplié
abatt
▁vieille
▁fermée
▁fixa
▁rassemblée
nda
xception
▁infidèle
▁restée
▁Pro
ule
▁cach
entreront
▁tracé
▁excellente
▁déserte
▁subsister
implorer
▁baisser
▁ivrogne
▁Adore
Antéchrist
`
horizon
▁Gomorr
▁ROI
▁Sublime
▁attentivement
▁breuvage
▁calebasse
▁compensation
▁corbeille
▁débarrass
▁estomac
▁explication
▁généreux
▁insuffl
▁lèpre
▁menaçons
▁parcimonie
▁proconsul
▁province
▁préjudice
▁réprobation
▁superposés
▁Ousmane
▁Tamûd
▁activité
▁bienséance
▁cuivre
▁débauche
▁exemplaire
▁glouton
▁gîte
▁obstacle
▁suprême
▁Décision
▁Matthieu
▁toupet
▁caravane
▁aromat
▁dîner
Almam
▁horreur
▁miettes
▁choix
▁inébranlable
▁Combattez
▁contact
ostentation
▁conviction
▁régler
▁diligence
▁ressemblance
▁sévérité
▁précipitamment
▁farine
▁nivelée
▁valable
▁communication
Alphée
▁précède
▁périssable
▁métal
▁berceau
▁psaume
▁jadis
▁décrivent
▁requête
▁Capable
▁frontière
▁aboli
▁déclin
Descendez
▁croyance
▁troublant
▁Enlève
▁entrailles
▁reconnaissance
▁négoce
Italie
▁sarment
▁conduire
▁barrière
aïb
▁largeur
▁Job
aï
▁averse
▁Répondez
▁saveur
▁enterrer
▁bourse
▁fabriqué
▁reculer
▁perverti
▁circoncir
▁discernement
▁renom
▁portique
▁racheter
▁vanité
▁commettaient
▁aumône
▁existait
▁disparaissent
▁frange
▁reconnaîtront
▁loger
▁célébrer
▁dorment
▁contrat
▁Accomplissez
▁battre
▁reviendront
▁plainte
▁neige
▁prosternation
▁moquerie
▁os
▁luxure
▁flûte
▁grêle
▁communiqué
▁remuer
▁paralysé
▁comprendront
▁inventaient
▁proclamation
▁lisez
▁croiraient
acquitter
▁émigrent
▁rompre
▁exécuté
adoption
▁labourer
▁connaisseur
▁dévoué
▁vaste
émerveillent
▁veuille
▁fourmi
▁mérité
▁reprenez
▁discuté
▁modest
▁méditent
▁houris
▁Crois
▁clefs
▁éloignez
▁réussite
▁Phil
▁profitable
▁fléchi
▁redoutez
▁convenu
▁crieront
▁bride
▁dressées
▁dispersent
▁souffrez
esquive
▁discuter
▁blâmé
▁cerne
▁parachève
▁greffé
▁Êt
▁apportaient
▁abrégé
▁carcan
▁briser
▁vivaient
▁Lyd
▁dirigea
▁amant
▁avare
▁témoignons
▁rare
▁légitime
▁Icon
▁avocat
▁jouer
▁Artém
▁émissaire
▁satisfaction
▁amusement
▁empressement
▁Anciens
▁laisserons
▁adhérence
▁récitons
▁chaud
▁défenseur
▁incroyant
▁nager
▁nourrice
▁disparut
▁brillante
▁mentent
▁fallu
▁souviens
▁trouviez
▁foyers
▁opprimés
▁Envoyés
▁chèvres
▁cruche
▁matrices
▁achète
enfoncer
▁retournerez
▁phase
▁suspend
▁embrassé
▁herbes
▁fâché
▁olivier
▁pompe
▁cesseront
▁coupa
▁forgé
▁ass
▁entouré
▁cachiez
▁considèrent
▁recommandé
▁poursuivis
▁accueillir
▁retournerons
▁obéiss
▁également
▁creux
▁accoucher
▁approche
enjamin
▁pattes
▁tremp
▁inconnus
▁Elie
appuyer
▁courir
enseignements
▁désolé
▁écarte
▁éclairs
▁acquiert
▁Accorde
▁apparence
▁gagné
▁artisan
▁enveloppe
▁recommander
▁retenti
▁réalisée
▁piller
▁prêtez
ûm
▁Pen
incliner
henn
▁échouer
▁traîtres
▁bœufs
▁provisions
▁contrées
▁trompés
▁caval
▁anéantis
▁racheté
▁aimons
▁demandons
▁dirigé
▁naître
▁jeûnent
▁criant
▁mi
phage
▁séparés
cède
ore
▁oiseau
▁invention
▁abomination
▁ouverte
▁aspect
appellent
▁sanctifiée
▁emportèrent
▁vieilles
De
▁copie
▁arraché
▁périront
▁présentez
▁obéis
▁marchandises
▁objet
▁enchante
▁édifice
▁oppos
▁profondeurs
▁insulte
▁terminé
▁retournés
▁transformer
▁affliger
▁permets
On
▁capital
▁pourrais
▁mangerez
▁largesses
▁conséquences
▁croît
▁avarice
▁exclusiv
▁montent
▁absents
▁poste
▁quart
▁offensé
▁rude
▁occupé
inquiè
▁dessous
éloign
▁servit
▁descendent
car
▁épine
honore
▁séduits
▁joueur
ièrent
venait
impos
▁auto
auf
▁abandonnés
achemine
Im
▁ramasser
▁paie
entrez
D
▁trouvai
▁publiques
▁pleurer
apporter
▁œuvrent
▁enceintes
▁savant
▁Entre
huit
▁rende
▁enveloppa
▁aidé
▁reconnaisse
▁vaincus
▁Caïn
▁emmen
▁permises
indign
▁préserver
agréent
èdes
▁persécuter
▁tombai
assied
▁jou
▁entendaient
▁promen
▁nobles
▁Am
▁réclamer
▁approché
ous
▁tap
▁mens
...?
mènera
▁pe
▁supérieur
Trois
▁sépulcres
▁serpents
▁blasphèmes
▁déposer
▁conf
▁recommand
▁disciplin
mettait
▁amenèrent
▁bénies
▁fane
▁gémiss
▁inclin
sement
▁péch
▁Mama
▁abaisse
▁brou
▁donnerait
▁oppression
▁vari
▁croy
▁allai
introduis
▁encouru
ris
▁rétribuer
▁île
assigne
▁cola
▁emporta
▁tôt
▁réussir
▁plu
sser
▁prient
▁régime
▁harpe
nos
ive
ân
▁honor
▁prophétiser
dis
▁crier
erbe
▁murmure
add
▁assemblée
tait
▁descende
▁triomphe
▁figue
▁recevron
▁guident
arrivera
▁adopt
▁sépare
▁histoire
▁prendra
▁tradui
▁voyai
▁distribu
▁souten
imé
oé
▁confia
▁séparer
▁Prépar
▁adore
▁convaincr
▁jura
▁prononc
▁amen
▁extrêm
ime
▁Goûtez
▁explicites
▁Rappelle
▁marie
▁strict
glise
dou
alism
prenaient
▁aisé
▁renversa
▁serre
▁extérieure
▁content
imer
▁ruses
▁légende
▁rompu
▁adresse
ecture
▁tranché
▁tô
▁vaudra
ccès
▁secrets
▁cous
▁ren
mposition
▁z
▁dev
▁placés
▁tarde
▁ex
▁témoigna
▁grade
▁déferl
Orient
▁compri
▁déli
▁ha
▁encourag
▁reconnaîtra
▁fend
phas
▁Sil
▁av
mathé
!».
▁bâtir
▁transport
▁Sor
isent
ellement
▁com
▁Luc
étonna
hériter
▁abattu
veillez
▁flot
▁Celle
▁voiles
▁suive
▁Co
▁gar
▁respecte
▁-.
çant
attache
▁Dû
▁retrouvé
sant
▁incite
pensez
▁préparée
▁fini
▁conserve
▁enfin
Jette
aspe
▁pai
▁changera
no
▁peste
aimer
▁maudir
tie
tourneront
▁écarter
▁tra
▁insist
▁pér
▁mettron
▁réuniss
▁comm
▁revin
écarte
mplissez
▁bâtisse
▁souhaiter
onsieur
▁Dét
▁ga
ienne
▁dout
▁levez
▁exerce
opérati
table
▁réelle
▁dr
▁enrichis
lle
▁oblig
urant
▁voyager
▁pensai
ction
▁arrache
uel
▁traita
▁tremble
▁réfléchiss
implorent
▁décid
▁devanc
ière
venir
ass
▁prém
▁rétribue
▁joue
anges
▁saisisse
saient
pas
▁creus
▁profitera
▁dure
▁réfléchi
▁recouvre
nez
▁guérissa
▁mépris
▁pensa
avis
▁imposée
nie
▁circonci
pprochez
apport
imés
der
enseigne
▁réussi
▁supérieure
▁gis
▁baptis
▁desquel
▁pèse
associe
▁ho
▁connus
▁reven
▁continue
exhortant
▁poursuiv
étude
▁avance
envoyé
▁placée
isés
▁qualifi
changerai
▁Grande
▁ob
▁Sara
empêche
droit
▁suivrai
do
tisme
▁repouss
odeur
ac
quels
▁moments
▁administr
▁stup
▁lire
▁simpl
▁suscitera
étend
▁Élis
Tout
Son
▁récompensera
Anti
▁invent
effet
▁réjouira
▁édifi
rthe
istes
orient
ran
issaient
...»
Ainsi
▁restera
▁fortifi
accompagner
▁cr
▁Attend
▁provoqu
envers
▁gra
▁Sal
▁consent
▁devra
▁disperse
Frappe
ot
▁récolt
encre
▁traits
▁déchaîn
Comme
▁atteign
allon
hospitalité
alentour
▁Ja
▁tenter
▁estime
offre
entretenai
Pour
Tenez
▁Ju
atteigne
Fais
Allez
apprendre
▁touch
Jetez
Invoquez
argument
agisse
champ
avarice
croît
atteste
Prends
adoration
eunuque
olivier
deux
femmes
animaux
▁bou
obéissent
équité
Quoi
▁aveugl
apportera
invocation
éternel
▁antérieur
▁insoucian
dit
Pas
▁mé
années
▁rassemblé
▁participe
idoles
▁précédé
alliés
augmenter
▁appelles
Me
destiné
▁paraît
▁Cha
▁Cé
▁per
▁porteur
Parc
usage
aimez
▁poète
▁prépare
élus
▁papa
▁relève
▁cessa
abaisse
rais
▁obligation
▁nudité
▁désespéré
▁bœuf
audrait
▁intelligent
▁Mal
▁ensorcelé
▁bless
▁musulman
▁attristé
▁traître
▁contrée
▁palmier
▁provision
▁plaine
▁établie
▁interroger
▁mar
▁recommanda
▁secouru
▁écar
▁humilié
émie
▁intercesseur
▁perle
ciel
▁mosquée
▁perverse
▁bande
▁ancienne
olat
▁maltraite
▁étonnant
▁couleur
▁recueill
în
▁brillant
▁prescri
▁résolu
▁destinée
▁confirme
racinés
▁gardera
umière
▁enflé
▁Tâ
▁lésé
rabb
▁réalis
▁boive
hab
poli
▁Ba
▁pleura
Des
stawâ
nké
héritiers
▁grec
▁reviendra
▁tyran
▁révolt
▁célébr
▁reviendrai
▁obscur
▁popula
▁cheveu
▁Occupe
Azize
Egypte
Iblîs
Invisible
allégeance
iguë
▁Barthélemy
▁Discernement
▁Foûta
▁Suprême
▁Thyatir
▁Yahya
▁Zélote
▁abominable
▁agressivité
▁aguets
▁brocart
▁citoyen
▁concitoyen
▁contradiction
▁corruptible
▁dénombré
▁estropié
▁falaise
▁glacial
▁graduellement
▁hésitants
▁infligé
▁inférieur
▁inséparable
▁intègres
▁majorité
▁menstruation
▁monstrueuse
▁nocturne
▁nécessiteux
▁nécessité
▁ouragan
▁prosélyte
▁prédécesseurs
▁quotidien
▁rachat
▁refoulés
▁renforç
▁rivage
▁sottise
▁soupçon
▁stabilité
▁tolérable
▁courroux
▁divertissement
▁délégation
▁embryon
▁fatigué
▁proverbe
▁précédemment
▁quadrup
▁usuraire
inscrire
▁dissension
▁domestique
▁honnête
▁manioc
▁militaire
▁tortuosité
appesantis
▁rectitude
▁tranquillisent
▁consigné
▁répète
▁légumes
▁patriarche
▁privations
▁Tâghût
▁frivolité
▁intercéder
▁lassitude
▁progrès
▁séduction
▁contract
▁exclusif
archange
▁dénué
▁indigène
▁appuyé
▁calamité
▁jumelle
▁vestige
▁coussin
▁vigilants
▁céréale
▁extorqueur
▁tranquillité
▁couteau
▁distraction
▁déroute
▁marmite
▁sauvegarde
▁damné
▁taureaux
▁rachète
▁miroir
▁religieux
▁Salmon
▁négligence
▁poignée
▁dévotion
▁arrogants
▁violemment
▁diminution
▁institué
Assurément
▁bureau
exauçâmes
▁volontairement
▁renforcé
▁aigle
▁bronche
▁vouloir
Éphésien
▁retenir
▁Mettez
▁tortueux
▁reprends
▁fornication
▁courroucé
▁instrument
▁désaccord
▁caractère
▁capitaine
▁impatience
▁poison
▁réalité
▁étudié
▁renommée
▁talion
▁attaqués
▁guise
▁errant
▁paresseux
▁manifestée
▁Renvoie
▁manifestation
▁dévier
▁éprouve
▁fautifs
▁outrage
▁conviendra
eaux
hénicie
▁juriste
▁charbon
▁matière
▁Zab
▁tissu
▁fendra
UI
▁Sâd
▁volont
▁bienheureux
▁dépassé
▁indifférent
▁œuvriez
▁crâne
▁détourniez
▁mangiez
▁renard
▁révélons
▁bassin
▁fraternelle
▁souveniez
▁sourit
▁Yâ
▁trahison
▁divergèrent
▁doublé
▁cloche
▁examiner
▁fournir
▁induit
▁reconnaîtrez
▁déshonorez
▁rangés
▁agitation
▁Vrai
▁engloutir
▁réjouissance
▁réconcilier
▁terminer
▁Pardonnez
▁large
▁enveloppera
▁mécroit
▁lourdeur
▁renverser
▁suspens
▁doucement
étri
▁maudissent
▁rappellerez
▁fuyez
▁attachez
▁répandre
▁disputaient
▁quantité
▁marchions
▁tutelle
ceaux
▁longueur
▁compagne
▁ignorent
▁haïssent
▁dormaient
▁bienfaiteurs
▁enfonc
▁redressa
▁battant
▁lentement
▁apprenez
sseyez
▁assistant
▁divergent
▁permettez
▁réveiller
▁arbitr
▁menaçait
▁couverture
▁tison
administration
▁possédez
etits
▁répéter
▁mouillé
▁avisé
▁comparerai
▁dominent
▁insolent
▁brin
▁conscien
▁boivent
▁tremblant
▁bovins
▁regardiez
▁soumettre
assistance
vé
▁raisins
▁salée
ub
▁divergences
▁plaisent
▁proie
▁produisent
▁Faux
▁gentil
▁exalte
▁Dj
▁mourrons
▁repris
▁Coré
▁embrasser
▁moquèrent
▁cuve
▁rencontrèrent
▁refusez
▁éclater
▁minim
▁tourmenter
▁souhaitez
▁nettoie
▁plaçons
▁She
entouraient
▁singes
▁avide
▁supplier
▁refuser
▁serré
▁recouvert
▁fondu
▁endormi
▁spect
lément
▁constance
▁détournant
▁déployé
invoquions
▁tiendront
▁aiguille
▁hyène
▁ressusciterai
▁Rends
▁inéluctable
▁responsabilité
▁évidence
▁entretien
▁balancer
▁effort
▁trompé
▁acquièrent
▁aiguillon
▁Arrivé
▁craintif
▁amassez
▁fui
▁multipliées
▁Mets
▁goûtez
▁ân
tèrent
▁adoriez
▁quinze
▁effacé
gulaire
▁méprisent
▁permettra
▁considérez
▁réjouiront
▁bleu
▁rassuré
▁murmurent
▁pression
enfance
▁tabou
▁disputés
▁glorifiez
▁façonné
▁percé
▁enchaîné
▁parvenir
▁participent
ancre
▁bienfaisant
▁soutient
▁regarderont
ciens
▁proue
▁hu
▁planté
▁rites
▁indigné
▁attesté
▁sexuels
▁toilette
▁approch
▁fendu
▁soutenu
▁éteindre
▁console
▁marqués
humiliant
▁habille
▁discussions
▁gémissements
rage
ude
▁animé
agir
▁écrive
▁éclat
guère
▁exauce
▁mouche
amb
▁moqués
▁détest
RE
▁hostilité
▁émeute
▁grasse
▁égoïste
▁oncle
▁Mattha
Onési
▁mener
▁renouvelle
autorisation
▁enflés
▁explique
▁désobéis
▁soulage
▁nudités
▁convoquer
▁désespérés
▁ensorcelés
▁antérieurs
▁dévoré
▁déterminée
▁ferma
vent
▁effrayés
▁Z
▁défendu
▁intens
▁folle
▁Tim
▁meure
▁blessé
▁Bala
▁rire
▁poule
▁disputeur
▁quoique
exclusi
▁jaune
▁persuasi
▁persécutes
▁montures
▁Gad
angle
onction
nier
▁accablés
▁terrestres
exercer
▁asperge
▁oliviers
▁époque
▁appliqu
emmener
▁proféré
▁existence
▁partagé
âcher
▁ordonner
▁citer
▁dissiper
▁causer
▁merveille
▁mode
▁récitent
ices
▁rassemblées
▁obtiendr
▁réprimand
étention
ré
▁gouverner
▁appliqué
admir
▁ravis
▁imposteurs
▁fl
jouissez
parent
▁traîner
▁fermées
▁recul
▁aumônes
▁agréés
▁voyageurs
▁observez
Retournez
▁courent
exemples
▁joindre
▁endur
dition
attribue
▁basse
mm
endaient
▁guérissai
ta
▁éloignés
▁nomme
▁Nom
▁encouragé
▁préférés
▁forgeron
appar
▁attachés
▁Invoquez
▁croie
▁léser
▁jougs
▁exaucée
▁déploy
▁brisés
aider
Arch
▁honorés
▁pourvus
▁étendues
▁attribuées
interdis
▁haie
▁installer
▁arguments
ze
épousez
▁interdites
▁accusation
▁déchirée
effacera
▁ombres
▁enregistr
taillé
▁trépas
▁volé
▁mangeront
▁jauni
itude
▁Accepte
▁voisine
▁privés
▁persév
▁réveillé
▁étage
obstin
▁desseins
▁élever
▁utilités
▁verset
▁blasphémé
▁quitt
▁montant
▁ira
▁néglige
▁maternelle
▁tournerai
▁opprobre
oindre
▁consulte
▁annonciateurs
▁peau
▁associer
atteindrez
▁essayer
▁ancre
écouteront
▁exig
▁déc
▁faibliss
▁flammes
▁fournisse
Ari
▁éviter
▁approcha
▁rebelles
▁apparue
▁Sors
▁sonner
Quelle
▁cracher
▁souhaite
▁Unique
▁souillures
▁verser
▁tueront
oc
lles
▁recueilli
▁cré
▁combatt
▁patients
▁perdue
▁Juste
▁simple
▁arrêt
▁injustices
interrogeant
▁Amenez
▁portion
▁vivron
▁entrée
▁assign
▁peupla
▁permise
▁verrai
▁combl
veillant
▁précédera
obscurcir
atoires
sie
▁enlèvera
▁contest
▁réuni
▁bond
joignent
ification
igner
▁discuta
▁loge
▁risqu
▁passée
▁trompeur
ères
observ
▁informer
▁assigner
▁tribut
▁racines
▁turpitudes
myr
▁convoiter
aillent
▁murs
▁conten
▁heurte
ête
rit
▁geste
▁heureuse
▁exposer
▁autrui
▁traîn
▁étonnement
▁planta
▁assombris
▁déplacer
▁jugerai
▁regardera
oués
nommé
▁atteigni
▁gras
▁ti
erne
ente
▁March
▁viole
armi
▁feron
iras
▁servie
tiré
!]
▁acquér
▁command
lus
▁égarent
▁Ali
rant
▁ôt
▁rassasi
oter
▁maintenu
▁consomm
oublie
▁invoquer
siste
▁maux
▁touchés
▁ouvr
▁forg
▁salué
▁pension
▁cadeau
▁éternels
oulin
appellera
ba
périssent
cher
▁insensée
▁précéd
actions
▁déclarer
lette
▁substitu
▁prospér
demeurent
yez
▁achève
ig
▁favorise
▁»;
▁édifiée
▁réduite
talité
▁considéra
appelles
acceptera
erai
▁partag
▁écart
▁culbut
▁Abi
▁Mâ
én
▁maudiss
▁repose
▁cachés
▁séduise
▁justifie
▁fausse
tif
lein
▁commander
▁annonc
rs
▁édifie
▁fortifia
lu
osa
accusateur
connaissaient
▁souche
facilement
achève
▁mécontent
empar
▁mépriser
▁environn
épouser
ek
▁chantera
aille
▁att
▁observ
▁remi
▁quittera
▁craigne
isation
▁provoquer
▁déclara
▁trébuch
▁décider
▁unis
étonnai
▁endurer
séde
P
▁héro
▁paraiss
▁troublée
▁soulev
▁aîné
▁crucifiés
ivinité
▁grinc
▁traverser
▁ôter
ania
▁Ra
ibéri
rissante
▁ramenée
ath
▁anéanti
▁exemples
Alph
▁absten
ousse
ements
lq
bi
▁récidive
▁épais
▁remarqu
▁craindra
▁fréquent
▁étude
▁constat
▁aimai
rdeur
ï
▁étonnée
▁respecter
▁produits
▁tuera
▁réparti
ssaient
lation
uses
appa
▁conseils
ouvrira
▁fréquente
▁dénonce
▁penche
cture
▁réponds
Jésus
▁désigna
▁puni
▁éprouv
▁ins
envoya
▁appartenai
écoule
uf
▁utilise
ham
attacher
▁vus
▁réaliser
▁correct
isait
pha
tenez
▁retomber
sera
▁toile
▁curi
vit
▁ri
▁traversa
▁restai
▁abri
isant
▁lament
xer
▁permette
▁informe
ose
ttes
got
iche
▁convers
rées
▁imit
puis
▁liée
▁coll
clin
ué
▁Lu
isser
▁raisonnai
olive
▁So
▁fléchir
▁Jé
oivent
▁poussée
▁contienne
▁Ha
Dé
▁scandal
isible
celui
accepte
▁romain
▁apporterai
▁sub
éclaire
celle
▁bat
▁conven
Mes
ga
quête
▁hy
attaque
▁acquitte
▁prosterna
urer
▁issue
intégr
▁tendu
Ar
▁charnelle
omme
▁réalise
▁périra
▁Détourne
▁situé
▁An
ah
iro
▁rafraîchi
uste
comparaître
▁cl
▁gagna
▁épi
▁lev
▁vêtue
nom
▁enfl
▁Boa
▁assaill
▁sépara
▁men
▁frappera
ète
▁guida
▁reproch
▁voulai
oublier
mina
▁remise
▁condamn
▁brillera
ui
▁précipita
R
▁Tou
▁fall
écheresse
▁comprend
âf
▁Ami
▁parles
va
▁retire
niers
▁surpasse
▁Eli
pensons
▁pose
alors
▁répudi
rier
▁harp
▁plac
élu
▁raisonner
▁déf
▁gagn
▁mécroie
aurons
▁glorifia
▁séduis
▁répandra
ens
▁punis
▁déborde
▁raisonne
scine
▁tir
contribu
▁préparera
ic
▁mett
rsion
ept
▁enfui
acquitte
▁douter
Croiron
▁fixe
ad
▁marié
▁facilite
asse
▁lac
▁pardonnes
▁disperser
▁détruise
▁Approche
▁idée
ature
▁autel
ü
▁voilé
ainsi
châtiment
▁nui
▁implorer
▁chang
quit
▁plaisant
▁prév
cela
cie
ssions
▁Just
▁gen
▁lamenter
▁hér
▁impudi
▁lavée
▁préfér
gner
▁habité
▁Géné
▁adresser
manderez
devant
éprouva
rice
▁pressai
étiez
usez
Tuez
Re
▁couronn
▁continuai
▁malheurs
▁accompagn
▁Ru
▁Ré
frère
▁Génér
éloigna
▁apparent
▁no
Livre
▁exult
▁honore
accomplira
▁allum
▁grav
taire
▁amas
▁bru
▁enlev
▁nourritures
dieux
▁rebâti
entrée
▁considérai
endre
▁contredire
égal
▁Bér
▁reti
récompense
▁enf
▁confessera
▁prop
ador
Coran
attacha
encore
Vou
▁ordonnée
Q
▁trembler
enflamme
aumône
Messager
fille
▁garda
nique
▁moque
▁nourriss
▁ver
accueil
▁Mana
▁Pr
▁ge
éga
avantage
her
pée
▁DE
pagne
appui
face
▁roule
armée
▁dénigr
embrasse
▁enroule
▁sentir
installa
éteint
servez
▁domine
▁chanter
esclave
]»
échappe
▁désol
achever
épi
élection
▁ajout
▁sauta
▁trava
▁foin
Ange
▁suivra
habiller
▁établisse
eindre
extrême
écriture
amertume
immolation
expiation
étonner
offense
entretenir
insurrection
Nul
Craignez
▁charg
inévitable
▁indique
ceux
Égyptien
Prenez
érer
ouvrier
oblige
côte
idolâtrie
audace
Appelez
oiseaux
▁ravi
acheter
Apporte
assombri
hôte
impur
étranger
Faites
Dites
inconnu
existence
immense
Telle
Jonas
abomination
Demande
emportèrent
invisible
▁invite
Suivez
Iblis
Gabriel
invoquez
dessous
épines
infirmité
▁franchi
excès
effort
époque
donner
Laissez
aspect
obtiendr
▁orgueilleuse
observez
endurer
endormi
enlève
oiseau
attendez
▁inspire
écar
▁remplace
impie
«
▁bran
aperçu
Musulmans
▁englouti
▁essuy
▁amass
accomplissent
éprouvez
aïe
science
▁précipite
▁thésauris
échanger
▁serve
entour
avaler
comparables
épousera
▁Sim
▁corr
▁cuirasse
▁Regard
▁présentera
▁respectueuse
▁Za
▁veill
tali
appelait
▁chrétien
▁propriétaire
▁flèche
▁génisse
▁q
▁discussion
▁installé
▁glorifiera
▁hautain
▁gémissement
envoyés
▁obéissant
▁chaste
▁lapidé
▁raffermi
▁stupéfait
▁engagé
▁attenda
▁marqué
▁vague
▁maltrait
▁anti
▁futilité
▁interrogé
issons
▁prosterné
▁assassin
▁noyé
▁indiqu
▁trempe
▁remplisse
▁bienfaisan
▁limite
▁emprisonn
▁échou
▁Ay
▁inf
▁menton
nthe
▁destin
▁moqué
▁tord
▁feuille
▁Israélite
▁renversée
abet
▁uni
▁effrayé
▁consola
▁collecte
▁imposteur
obéir
▁rapproché
▁adorateur
▁somm
ème
▁infini
adress
▁retenu
▁prouvé
▁Claud
▁inspiré
▁éclatant
attrister
▁ivres
▁saisiss
▁Pri
▁brûlant
▁décrét
▁permanen
ulon
ste
etirez
▁rig
▁dérange
▁comprenne
▁van
dab
▁glori
▁perdr
adora
▁cerner
▁appartiendr
lusion
ale
culaire
▁dicte
▁Thessaloni
tingu
▁Craign
▁Salue
onomie
▁fléau
fidélité
▁raille
▁pèlerin
énédiction
È
▁rouspét
Aréopag
Qadr
Qarnayn
Umra
Wajh
alphabet
article
coreligionnaires
immensité
çà
▁Goliath
▁Insensé
▁Interroge
▁Mattath
▁Plutôt
▁Recevez
▁Stéphanas
▁Sâmirî
▁alterner
▁caillou
▁cheptel
▁châteaux
▁conciliation
▁constellations
▁célibataire
▁diarrhée
▁déjeuner
▁démangeaison
▁dévergondée
▁fantôme
▁firmament
▁fragile
▁fragment
▁féminin
▁féroce
▁gibier
▁guirlandes
▁hébraïque
▁inaltérable
▁infirme
▁ingrédient
▁irrévocable
▁judaïs
▁linceul
▁maniganc
▁muezzin
▁noyade
▁néfaste
▁perçu
▁pluriel
▁privilège
▁problème
▁proximité
▁présomptueux
▁pénurie
▁rakât
▁rancune
▁religieuse
▁remboursé
▁représailles
▁réciproque
▁réflexion
▁schisme
▁secrétaire
▁sevrage
▁singulier
▁stimule
▁successifs
▁supériorité
▁symbole
▁système
▁sépulture
▁sérénité
▁théâtre
▁tourbillon
▁verdure
▁victorieux
▁vigueur
▁ébahis
▁érudit
▁Dernier
▁Guinée
▁explose
▁halète
▁insensible
▁malléable
▁prononça
▁véracité
Hénoc
empereur
▁absolument
▁courroie
▁dérision
▁entêté
▁fiancé
▁homosexuel
▁illuminé
▁victime
adversité
▁débris
▁dédaigne
▁embauch
Qayy
▁fraternité
▁refermer
▁souples
▁succession
araignée
▁fonio
▁forêt
▁hérésie
▁fourberie
▁impuissants
▁Maudit
▁pourriture
▁tempérant
▁enclos
▁majeur
▁absolue
▁défunt
▁lièvre
▁puberté
▁Gallio
▁Herm
▁grenad
▁charpentier
▁pélérinage
cycl
uxiliaire
▁prévaloir
▁douane
▁répétition
▁piquet
▁stature
▁énoncé
archie
▁médisance
▁séisme
▁bougie
▁chanceuse
▁éblouissant
▁Récite
logie
▁possession
▁réglé
▁concevoir
▁poing
▁pressoir
▁métier
humanité
▁lavage
▁contribution
▁excessive
▁réchauff
▁terroris
▁charrett
▁couvée
▁papier
▁impoli
▁délicieux
▁scept
▁démarche
▁révolution
loca
▁Prophétise
Siyâm
▁aigui
▁observateur
écrouler
▁Niniv
▁contempl
▁superf
▁réparer
Déverse
▁caresser
▁fenêtre
▁épaule
▁kilo
▁croissance
▁soustraire
▁restitue
▁inquiet
▁partenaire
▁pesée
▁infidélité
▁piétiner
▁raillés
▁satisfaire
▁prospérité
▁soutenir
amuser
▁combattants
▁résistance
▁disqualifié
▁injure
▁engloutisse
▁ornés
▁gaspillage
▁délibérément
▁dominateur
▁habillé
▁hache
oignit
▁camion
▁profession
exprimer
▁présage
▁tribulation
▁étudier
onner
▁confirmateur
▁supréma
▁épouvantés
▁gang
▁Hell
▁rebellé
▁bouclier
▁abattre
hivernage
▁fornicateur
▁anneau
▁Gol
▁cailles
▁inex
▁dévasté
▁immolé
▁divulguiez
▁tronc
▁divination
▁voisinage
▁vœux
▁tresser
▁lanière
▁dénombrer
▁renforcer
▁reviendrons
▁télé
▁variété
▁dénouement
▁balafon
dûment
▁taquine
▁inévitablement
▁sûreté
écroula
assimil
conjuga
▁larme
▁compreniez
Remets
▁mêlez
▁acceptation
▁cacheté
▁échelle
▁Libérez
▁Envoyez
asseyai
▁méritant
▁recommandation
▁émerveillé
▁concorde
▁mirage
▁phon
événement
▁rattraper
▁dilige
▁traînés
▁éclairés
▁paternelles
▁expert
▁enflammé
▁associaient
▁Juli
▁exerça
▁bouillie
▁désiste
▁rangée
▁corrige
▁provient
▁grimp
▁cousin
Fi
▁illuminantes
▁balay
▁anéantisse
▁confondre
▁Appelle
▁fraîcheur
▁diviser
▁fornicat
▁illégalement
▁dignité
▁mortelle
▁détruisîmes
▁naquit
▁clairvoyance
▁essuyer
humilient
▁patron
assari
▁brutale
▁fraction
▁allégé
▁attribuons
▁séparément
▁divergez
▁comparent
▁relation
▁nourrissons
▁consommé
▁niveau
▁médisant
▁contraindre
▁remue
▁communiquer
▁styl
▁Doux
▁fusion
▁pêcher
occuper
▁suiveurs
▁retiens
▁bienvenue
▁pilier
ibla
▁dénigrer
▁grecque
▁raser
▁infligez
▁exultant
▁avéré
▁modifier
▁catastrophe
▁disposez
▁suffisent
▁perfide
▁expression
▁troublez
▁écorch
▁détachement
orgueillissaient
▁flatteur
▁menthe
▁mouiller
▁battaient
▁guidiez
▁transporter
éducation
▁calculer
orge
normalement
▁Nah
▁apercev
▁mailles
Chercherai
▁sévèrement
▁Tert
▁banque
▁concertez
▁échappent
▁ramenant
arabe
▁cesseras
▁consulter
▁retirez
▁serviette
▁Tiens
ivrognerie
▁prétendez
▁réprimander
▁triomphant
▁adressez
▁espérez
▁laissâmes
▁revoir
▁détachée
▁contredisent
▁mensongère
▁découvert
attestation
▁tresses
▁excusez
▁Mich
▁infructueuse
▁prosternez
▁constitué
▁trompeuse
▁courtisan
▁renvoyer
▁rejoints
▁sauveur
▁vengerons
▁mai
▁endurez
▁détournèrent
▁divorcée
▁interrogation
▁acharné
▁obéissantes
▁raillent
▁utilisé
directement
▁semblant
▁blâmer
▁soulagé
▁quoiqu
▁reconnaître
▁germe
▁combattrez
▁disputèrent
▁cherchions
▁vœu
▁transgressaient
▁reviendraient
▁troubler
▁remettre
▁Eve
▁créateurs
▁fissures
▁remords
▁menacés
▁réunion
ribus
▁emparés
▁nourrissent
▁foudroyés
▁Miséricorde
▁tablettes
▁blasphémateur
▁décidez
▁diriez
▁mélangé
percevoir
▁plaise
▁casque
▁irré
▁bannir
▁renoncer
▁étranglé
▁vautour
▁soumettent
▁foulée
▁transform
ucée
éloignant
▁enquête
élevage
▁accru
▁buveur
▁châtierons
▁Nicola
▁chagriné
▁Mari
▁examin
▁touchée
▁vertu
Eu
▁murmurer
▁destruct
▁voguent
▁voleront
▁chaleureux
▁moissonner
immoler
▁remplaç
cadence
▁difficilement
▁décent
▁corbeau
▁Comptes
▁récompenserons
▁négligé
▁régneront
appuie
allonger
▁idiot
▁reposiez
▁chemise
mult
▁ulcère
▁libertins
▁sourdes
▁ébranlées
▁aride
lons
▁moissonné
▁chauss
▁préparez
épouses
▁propreté
▁comploté
▁proposée
▁diriger
▁reins
▁1
▁amassera
▁océan
▁animal
▁échéance
ouverture
▁avidité
▁applaudisse
▁ambition
▁Implore
▁innombrable
▁intermédiaire
▁éléphant
▁griot
▁crépuscule
▁agréablement
▁sorcier
▁intendant
▁détruite
▁Saisissez
▁révolte
▁plaisanterie
▁convenablement
▁occup
▁effrayer
▁égalité
rag
▁angoissé
▁interne
▁grogne
▁décapité
▁étendus
▁conservé
▁perdent
▁subsistera
▁secourent
▁guett
▁répande
▁ressuscita
▁appliquer
▁raisonnement
▁bâtiment
▁ouvrage
▁vivrez
▁bain
▁souris
Sont
▁moustique
▁souiller
oudain
▁envieux
▁Perga
ues
▁sueur
▁coton
▁proclamera
▁casse
▁rappeliez
▁noyer
▁corporelle
▁statues
▁dévorent
▁captur
▁coudées
▁Gab
▁martyrs
▁ombrages
▁brindilles
▁précautions
▁associatrices
▁agréa
▁lancez
▁lamentations
▁parcourent
▁semeurs
▁orient
▁habillera
▁ravisse
mateurs
▁évent
urifiez
▁critique
▁informerai
uyez
▁recouvrent
▁amassent
▁roulé
▁saluez
▁renions
▁rompent
Om
▁acceptez
éloignent
prouver
▁enseignez
▁rapporter
▁poli
habitez
▁délire
emprisonner
▁déraciné
▁inventent
levez
▁résident
▁contente
▁razzia
▁exempt
▁remercie
▁corde
▁perpétuel
▁ruiné
affranchisse
▁assomm
▁Ecri
▁compren
ddition
étonnes
▁sommet
▁réjouisse
▁inconnu
intéress
▁retournez
▁comptez
▁cultivé
▁hôte
▁hérité
▁exploiter
Él
resses
▁perfectionné
œuvres
▁confondu
mètre
▁inciter
▁créa
maïs
▁mêlée
▁diminu
▁respectent
▁génisses
▁réunira
▁flèches
▁futilités
▁propriétaires
▁chrétiens
▁empêchent
▁installés
libération
▁côte
▁espion
▁hautains
▁moines
▁attachée
aphra
▁cul
▁emparer
attirer
▁apost
voyant
▁disposition
cuirasses
ag
▁renversées
▁différents
▁expiat
▁inondation
▁Saqar
▁interprète
▁rév
▁monnaie
▁humiliation
▁ignor
▁Ecriture
▁acquise
▁commise
▁souvi
▁vengé
utilité
▁préoccup
▁sourir
▁écume
▁esclavage
espace
étonnèrent
▁détesté
▁Ville
▁Désire
ustes
▁vieil
enfler
▁mamelle
▁contents
▁purifient
eillez
▁purifiera
▁accour
▁Zach
▁affranchi
▁affligent
▁empêchement
▁intelligents
▁tendres
▁pardonnâmes
▁comprends
▁teigne
▁station
▁obligations
▁disette
man
hry
Avertis
▁texte
▁saisies
nèrent
▁limité
▁bienveillant
▁entraîné
ssage
emporter
▁accepter
érez
▁réc
▁ânes
▁ôté
▁embarqu
▁Ap
▁impose
▁essuyé
▁échar
▁merci
▁aboutir
li
▁transformé
llement
▁verte
▁adulte
empêcher
▁éprouvez
▁Pur
▁pendu
▁vieilli
▁purifiée
▁pourrions
▁lévite
▁survient
▁idolâtrie
▁degré
▁glisser
▁Appelez
phos
▁abondants
enveloppe
▁général
▁produisai
▁violé
▁prom
▁Réveille
ommes
▁Oh
▁humilier
▁vêtir
▁puniss
▁élection
▁maltraité
Dan
▁supérieurs
▁touchent
assiér
▁renversé
▁audace
▁orphelin
▁Eloigne
▁complets
▁Égyptien
▁fr
▁déçus
siez
▁Nazaréens
▁ouvrent
école
▁préférer
▁onz
▁bal
êtres
▁dissip
crimination
▁légion
▁abreuver
▁brûlés
▁pen
▁Gu
▁appui
▁nettoy
vaient
▁discern
▁usage
étonn
▁fuy
▁inspir
▁excellentes
allumer
val
▁devancer
▁changés
▁entrerons
▁diminuer
▁éteint
▁offrandes
ivité
▁mourant
▁latin
▁Tenez
▁clairvoyan
▁corro
éra
▁habitez
▁deviendra
▁sombre
▁éc
▁haïra
▁siffle
▁embrasé
▁éclair
▁regretter
▁clans
▁regrets
▁lourds
Informe
▁excuses
▁enterr
ffer
▁attentif
▁poussin
▁marques
▁cal
▁faillir
assée
▁rap
▁approuver
▁relèvera
▁écout
▁prochaine
▁lapide
▁ballo
▁propag
▁Jetez
passé
▁calame
▁plait
▁indiquer
▁fiche
occupe
▁amitié
▁impiété
▁vigneron
▁boissons
▁instruire
▁excellence
▁négliger
▁combattus
▁traitement
asser
▁impu
allai
arde
▁devoirs
▁foul
▁syn
évanouir
▁pieuses
ide
▁décidée
▁Levants
▁attribuée
▁exagér
▁encour
co
saume
▁réservés
▁augment
étient
▁pâli
encourage
▁admir
▁rasée
▁étouffée
▁dévoiler
▁cana
▁épousée
▁faillit
▁pourvoir
▁cra
Abi
▁espoirs
▁effroi
iversité
ON
▁nommer
unité
voyons
▁massacr
▁ajouta
actuellement
▁écrié
gar
▁jug
▁passées
ture
▁assuré
amène
▁pourrai
insulter
ouvoir
▁améliore
▁délaisser
ap
▁délaiss
▁casser
▁extra
mettons
▁violents
nte
▁profits
mplirai
abuse
▁cuisine
▁ailleurs
▁consumer
▁éloigner
▁claires
▁apparente
ois
▁Mam
▁poules
▁sanctionne
▁divis
?...
na
▁Untel
v
courir
aveugles
▁ét
affaiss
aw
▁guidon
amassé
mer
▁Peul
▁Dispe
fidèles
ours
ouissez
w
mbe
▁Hélas
▁attrape
lot
▁Frappe
mez
iger
▁Abs
▁couch
▁immobile
▁attester
rer
▁implora
our
▁complots
▁ouvri
▁expire
▁essai
▁dévoilée
▁Acha
▁lave
▁débord
▁amer
annule
▁Supporte
▁déshonore
▁ap
▁approcher
gne
ed
posez
▁consommer
▁jet
▁nage
ver
orer
▁faciliter
tiquer
rôl
▁Prie
rejetant
▁aile
▁construir
dre
▁Cité
▁chéri
riorité
]!»
▁faiblir
▁meurs
▁baptisa
▁convertisse
fa
ultime
▁natte
oudre
▁rapproche
ges
▁sy
▁escar
▁henni
él
▁brill
▁diverg
uche
tâmes
oût
▁expuls
▁distingu
inâ
▁recueille
tour
Éph
▁prive
attriste
▁ourdi
▁descendra
faitement
▁pal
▁prompte
▁desséch
▁tuiez
▁chauffai
▁Soi
▁impureté
vais
▁huile
aque
▁modifie
▁déga
▁él
référence
▁allég
▁gravi
▁haïss
cule
▁apportée
▁retournera
▁roche
▁répandrai
▁pleuv
▁lèves
▁oubliés
efforçai
▁habitée
▁expliqua
▁poil
▁suffisan
▁Elis
étique
▁i
aim
vité
▁compara
▁Merc
▁devais
adressa
ade
suivit
uis
▁sacrifié
▁confond
▁bara
▁assi
aissant
dé
▁cess
▁comp
riote
annoncez
▁écrivai
▁sab
▁démoli
▁introduir
▁guérirai
antes
▁aspir
▁connaissai
▁sacrifie
▁grill
▁commanderai
▁importante
érissez
▁agenouillé
émerveilla
▁tige
▁exulte
▁multipliera
étable
▁adressée
abattr
▁vainc
▁suc
app
▁compat
▁magnifi
rd
fais
▁Ann
▁rassur
▁sacs
▁perc
rends
▁ressuscit
▁honorer
▁convuls
ages
▁répugn
▁allaité
▁charger
isîmes
▁réconcilie
▁chuchot
▁distribue
▁justifier
▁remettr
▁mainten
▁gl
▁pures
▁préf
sous
aison
ame
▁parcelle
stable
dent
ithy
▁contribu
▁trous
▁hérite
éli
rues
port
▁manifester
aines
▁devrai
▁Ab
▁suivron
mor
ava
st
▁subiss
▁vogua
▁impôt
sieur
▁conspir
tiles
bale
embarqu
▁Eu
▁scell
▁cohabit
▁rejeton
naient
▁courb
▁natal
▁Ordonne
▁demeura
agissai
▁aigre
▁coût
abat
▁commette
▁machin
▁imm
ager
ho
▁vivrai
▁lançai
▁montres
▁abreuv
▁consume
gle
▁obt
▁enrichiss
endit
éréni
▁Ram
ntrèrent
▁persécute
▁discerne
assaisonn
evenez
▁révélera
▁justifi
ors
ourut
▁emb
ller
▁puissa
▁Qâ
bé
eci
ajust
oient
illons
interpos
▁dou
▁doive
▁cora
▁adorera
ndis
tends
▁Po
▁futur
lait
oppos
▁fortifie
▁vivres
▁souffla
▁suivis
embarqua
▁affermisse
▁trébuche
▁sui
estime
▁craindr
▁désavou
▁lava
▁bris
▁diffam
rédité
laire
issues
▁proclame
▁affaibli
▁Har
émence
▁faisa
écap
▁venai
▁visit
▁remette
guste
▁débarqu
▁go
més
▁ignominie
▁affaiblis
adresse
▁réclam
▁déverse
ines
▁hé
▁accordés
▁gouvern
▁précédent
▁négoci
▁Pars
eusement
▁traîne
▁lia
▁commettr
▁tua
▁nie
▁dressa
▁ôte
▁diffame
assembla
▁assure
▁cons
rban
enjoign
▁déchire
▁approuve
égr
sé
▁résist
▁écri
▁réduira
▁fier
▁oublia
féré
sons
▁élargi
entoura
▁fixés
iques
séd
approchai
tha
Eli
▁traitai
vées
tation
▁redress
▁gliss
▁affirm
ension
vou
aner
▁multipliai
urance
otha
apportais
▁fêtes
▁mentionn
▁méfi
erait
issent
empare
repti
▁obstrue
▁hériteron
tr
▁nourrisse
▁ram
▁provoquera
▁suppose
b
indre
arrivai
As
éon
▁Sé
▁aspire
▁Man
▁opprime
paraissent
▁garanti
▁principe
christ
▁offens
ice
▁fri
dame
enveloppés
▁jettera
prennent
traînant
▁chargera
▁devance
vision
▁sépar
▁indic
▁unir
iment
ôle
eulement
▁fabrique
▁repren
▁);
▁mécroi
arriver
ret
position
▁chi
▁achevée
roula
▁triomph
▁vente
▁favoris
▁canne
▁ramass
▁multiplia
mal
▁déteste
honorera
▁substitue
Ép
▁vice
piter
veillent
▁surpass
▁fonde
▁réprimande
menter
▁essaya
▁pié
fé
▁transporta
nant
gné
▁emport
▁créée
votre
ança
vi
▁accomplisse
▁espérer
▁rég
▁paresse
▁Pou
▁égorge
lèrent
gens
sab
▁replie
ontre
▁bénir
▁donneron
▁disparaîtr
▁tarder
spiration
▁gu
▁exhorta
(
▁paraisse
▁trembl
▁écouta
ûn
once
roph
▁extérieur
▁ress
▁incit
donnons
▁confiée
th
▁souvin
▁dispersée
oûte
▁nia
▁Th
fi
ec
▁consacré
▁sardo
▁Sy
teur
émerveill
▁veillé
▁enrichi
▁récidiv
▁pressent
▁incline
encourag
uer
▁enfanté
▁suffis
▁devi
▁commençai
entraîna
meur
épha
matur
endez
bus
▁obéira
▁échang
cès
▁cro
▁désirer
▁surprenne
▁épargnera
▁dirig
▁combattr
ulez
▁préc
accroche
▁barr
évanoui
ouvre
▁sacrifi
rosser
▁cesser
▁sauv
▁Tra
oler
▁circule
▁bra
▁Ya
▁passai
▁vaincron
trer
ffre
lace
▁couchée
▁distrai
usement
leuve
▁embras
▁gardai
tables
▁conseill
enfle
▁châti
oriser
llier
▁deviendr
▁étroit
▁rédui
notre
▁déshonor
▁lou
▁gestion
Com
▁autoris
affaisse
▁interdise
rouiller
femme
▁manifesta
parition
▁hurle
▁Vien
éva
choni
tendant
▁intérieur
▁annuler
▁reprocha
ubba
▁acc
▁déscend
▁eff
▁massacre
ouvrent
incite
éclairer
iner
▁réfugie
▁réd
attendai
▁remonte
immobiles
▁gouverna
▁accusa
▁plonge
▁recevrai
▁dot
▁vibr
▁épousé
grand
▁sembla
▁ferve
▁abaiss
▁maternel
cement
irage
hère
▁désira
▁semée
▁rasé
▁res
▁insult
▁séjournai
tière
▁dresse
▁divin
mbre
▁détourn
▁épin
▁confér
temps
tivement
personne
Alors
▁flagell
▁noirc
▁égorg
▁convertis
▁fourni
amis
dez
▁Mer
empreinte
vienne
▁signifi
▁mou
▁converti
▁conjectur
▁étouffé
fils
émon
▁embrass
accepter
▁pouva
▁inscri
▁précis
▁accusat
▁Sar
ca
▁criera
▁dévoile
mo
émerveille
▁milli
▁engage
▁forcer
▁rencontra
▁conclue
▁excite
union
▁prévoyan
▁surgi
▁concern
▁arrêter
assemble
▁siffl
▁déplac
ug
▁éco
▁manifest
▁goûte
▁cor
dieu
è
▁durs
▁exaucé
oyeur
▁excus
▁déchiré
▁sceller
ôtera
seul
Un
yme
injustes
honor
▁press
pé
▁retrouve
▁laboure
▁Rev
▁marin
inquiét
▁diff
bât
▁capita
▁apprendr
▁mourrai
pus
▁gên
encontre
▁personn
croyant
▁somme
Quiconque
paix
acité
▁réduir
vement
soeur
âr
vraie
▁coupera
ousser
allié
trois
▁Retourn
seulement
sept
▁émigr
El
quelque
▁couver
aimera
David
▁média
guidé
ber
▁aima
▁plaie
frères
parler
Ab
Ecoute
demain
▁fig
idole
▁tena
▁peul
vêtements
invoquera
▁Connais
omettre
▁sexuel
injuste
idée
éclat
agis
▁Continue
pain
langue
▁accuse
aîné
compte
▁pan
▁em
▁jailli
▁plant
uiller
Cependant
volontaire
▁pagay
emmène
▁profess
▁connaissa
interdit
▁nomm
affronter
avion
▁rachet
armes
▁forger
traîner
punition
▁bienveillan
artisan
▁mang
placé
épargne
attention
sorti
Salomon
abond
drachme
atteindront
agriculture
éternité
ST
avertis
adopt
installer
incertitude
ensemble
▁abouti
destination
éprouve
hor
▁reconnaît
▁œuvr
arracher
Ecriture
affaibli
Zacharie
Bien
miracle
monnaie
humiliation
prédiction
Salut
interprète
Saqar
inondation
esclavage
froid
abreuver
choisis
ordonnance
autrefois
▁reten
▁Aussi
▁dressé
égoïste
habit
émeute
exposé
apost
Ismaël
équivalent
pourtant
acheta
annonciateur
envoyâmes
concernant
hostilité
Accorde
Chacun
supplice
André
acquiert
apparence
écume
étroit
empêchement
instruction
embelli
absence
temporaire
levé
Suis
engage
ajoute
allions
»...
absteni
informer
accordera
Allons
adoraient
emparer
▁nuir
affranchi
ornements
▁différent
rmis
ssant
expulser
imposer
infidèle
invoquent
▁hiver
▁emporte
auto
▁Cré
fixe
▁mors
pêche
feuille
écoutez
sol
char
Laisse
achevé
Z
▁prophét
Entre
▁brûleron
▁cultiv
▁achemin
devait
ordonner
associent
abonde
imposteurs
ieusement
apporterai
abandonn
intercesseurs
ttés
▁emprunt
offens
préf
▁publi
emmena
interromp
élevés
aimons
jo
dommage
▁agréer
mma
exp
voit
▁païen
▁marchai
▁mus
imm
illage
cope
dicité
publique
▁illettré
▁berge
▁vengera
▁embêt
▁étouff
▁éparpillée
▁bouleversé
ulaire
migrés
Ta
utres
▁ancêtre
résident
▁associatrice
▁précaution
▁brindille
▁martyr
▁ombrage
▁statue
âne
▁associateur
▁lamentation
Rass
are
▁chèvre
rappelle
avancer
▁ensorcel
▁malfaiteur
▁rivière
▁notable
▁sandale
▁Chrétien
▁méfait
▁vainqueur
▁mouton
K
▁occupation
aissent
▁matrice
▁nomade
▁divulgu
ton
▁expulsé
omb
▁abreuvé
▁foyer
▁décapit
▁coudée
▁détail
▁rapporta
auteur
affligent
▁laisserai
▁bénéfici
viendra
Là
œ
▁détermin
applique
érateur
▁talon
▁Arabe
sont
éteindre
▁disputé
▁lèvre
▁rac
igno
agirai
acia
▁indig
▁naît
xplique
▁relat
▁pénétré
▁châtié
▁Arab
▁moine
▁opprimé
oncle
oulez
doutez
▁Pré
Ra
Ésa
▁sonde
thani
rreur
▁indépenda
▁écum
écartent
égarera
▁hypocrite
alo
▁quatorz
▁précepte
▁consente
▁insolen
▁boir
▁douz
uffisant
▁éclairant
▁desséché
▁infructueu
▁convaincu
aul
nviron
appeleur
▁effray
azar
▁bouillonner
éman
▁final
▁éducat
▁Envoyé
ya
▁riposte
▁Musulman
offic
▁arrose
▁fraternel
▁Salom
ers
▁conséquen
▁affect
▁rougi
▁paternel
▁bouch
▁indigent
çoit
▁impitoyable
▁signal
bite
rançais
▁déch
ossèdent
▁enferm
▁Invoque
escalier
inconnaissable
▁décisi
▁foulé
▁souvienne
▁dénoue
incorruptib
romesse
çoivent
▁ruisseau
Hi
▁docte
hibi
▁Hum
duisez
SU
▁concubin
œuf
▁Accomplis
exauç
3
ovins
Construis
approfondi
▁Débarrassez
▁Efforce
▁Examinez
▁Résistez
▁absolve
▁accouplé
▁hippopot
▁matérialis
▁perpétré
▁répréhensible
▁successive
▁vrombi
▁Ôtez
Expulsez
Ignorance
Illiyûn
Oeuvrez
Voyage
aberration
aiguade
alcool
appauvri
approprié
assoiffé
authenticité
effondr
enthousiasme
escalader
harmattan
humidité
inconvenient
industrie
oisiveté
opotam
végétaux
yramide
Éthiopie
▁Autrefois
▁Faveur
▁Hutamah
▁Immense
▁Pourvoyeur
▁Religion
▁SEIGNEUR
▁Sadaqa
▁Sadaqât
▁Sanctuaire
▁Sijjîn
▁Solayman
▁Thaddée
▁Zaqqûm
▁abjects
▁adolescen
▁agressif
▁aluminium
▁antilope
▁artifice
▁authentique
▁branchage
▁brouillard
▁bûche
▁cadenas
▁calife
▁calligraph
▁camphre
▁carrefour
▁certificat
▁chapitre
▁charrue
▁cigarette
▁circonstance
▁citoyenneté
▁conducteur
▁consacre
▁controverse
▁cosmopolite
▁couscous
▁culotte
▁dialecte
▁discrétion
▁district
▁débauchés
▁déchargé
▁démocratie
▁dénonciation
▁dénuement
▁déraisonnable
▁déshérité
▁dévoyés
▁embuscade
▁excrément
▁extravagan
▁fanfaron
▁favorable
▁fiançailles
▁football
▁frayeur
▁fromage
▁fécond
▁félicité
▁février
▁gentillesse
▁gingembre
▁gombo
▁gourmand
▁grenouilles
▁géographie
▁hameçon
▁handicap
▁histori
▁hésitation
▁immortel
▁importance
▁impétueux
▁incommod
▁indifférence
▁introduction
▁irresponsable
▁jointure
▁jujubiers
▁léopard
▁marginal
▁matériel
▁menstrues
▁monachisme
▁monothéiste
▁mouchoir
▁moustiquaire
▁moutarde
▁médicament
▁médécin
▁métropole
▁novembre
▁nœud
▁perpètrent
▁philosoph
▁pilote
▁polythéisme
▁polémique
▁postérieur
▁presdigitat
▁privilégié
▁projectile
▁promotion
▁prostitution
▁provocateur
▁prudence
▁prédomin
▁préparatifs
▁pupille
▁quenouille
▁raccourcir
▁ravagée
▁recommencer
▁refroidir
▁rembourser
▁respirer
▁revanche
▁rhétorique
▁régulier
▁résulter
▁sobriquet
▁sobriété
▁soigneusement
▁somnole
▁sortilège
▁splendeur
▁substance
▁suffoquer
▁suspicion
▁syllab
▁sympathi
▁tamtam
▁tolérer
▁tubercul
▁usufruit
▁versatilité
▁vestibule
▁véhicule
▁électr
▁épileptique
▁équivoque
▁consécutifs
▁coraniques
▁diamant
▁particulière
▁pépin
▁rancœur
▁virginité
Association
Kifl
aggrave
alphabétis
▁Blanc
▁Dispensateur
▁Tablette
▁abroge
▁arrondis
▁badigeonn
▁bambou
▁candidat
▁charlatan
▁dynam
▁effeuiller
▁escomptent
▁esquisse
▁exode
▁exorcis
▁favoritisme
▁frissonne
▁fébril
▁goudron
▁goyav
▁gribouill
▁imbécil
▁imprimer
▁incendie
▁ingénieu
▁innocence
▁licence
▁malchance
▁matelas
▁papillon
▁pintade
▁ravage
▁reconduire
▁ronfle
▁roublard
▁régulière
▁résoudre
▁sorcellerie
▁sphère
▁submerge
▁tergivers
▁tomate
▁torchon
▁vidéo
▁énervement
▁éruct
accouder
graphie
ologue
éclipse
étoffe
▁Méfie
▁Tryph
▁affreuse
▁ancrées
▁arrosé
▁biblio
▁bolide
▁chahut
▁clandestin
▁cuisson
▁dissidence
▁endettés
▁félicite
▁implanté
▁ineff
▁micro
▁patauge
▁potager
▁poésie
▁reprodu
▁réprouvé
▁réticen
▁sculpt
▁Djih
▁désagréable
▁garrotte
▁impression
▁lézard
▁mandarin
▁réplique
▁transhum
▁tressaill
▁canapé
▁scission
Tûr
ascension
magasin
▁Matthias
▁entêtement
▁impulsion
▁noeud
▁téléphone
▁assouvi
▁délect
▁faîte
▁négateur
▁ruminer
▁tricot
tative
▁analyse
▁camél
▁défrich
▁photo
▁purulente
▁réformateurs
▁étourdissement
▁évanouissement
automne
▁Phœ
▁cellule
▁concombre
▁marmonne
étillement
▁Apprends
▁brèche
▁compatissant
▁encercl
▁glaise
▁gratter
▁griff
▁parapluie
▁pigeon
▁compétition
▁inhum
▁superbe
▁falsifi
▁oeuf
▁tourterelle
▁élasti
▁compromis
▁démasque
aînesse
▁Rhod
▁comparaison
▁déprav
▁examen
▁succ
▁trafiqu
xcellent
▁drogue
▁dégât
▁abjure
▁liqueur
▁supprim
▁cuisse
▁héraut
▁vaccin
▁liquide
apprêt
▁tentative
▁truie
▁charognard
▁hâble
Expose
▁adouci
▁fonctionnaire
▁fornique
▁pinces
▁pular
▁Écarte
▁affaissé
▁déclamer
▁gratitude
alifa
▁Mandin
▁suggère
▁rumeur
▁cercle
▁aisselle
▁testicule
▁bloc
▁Bâtiss
▁harassé
▁injection
▁laideur
▁rosée
▁Guide
▁décourage
▁désintégr
▁injonction
▁piano
▁pudeur
▁salama
égoïsme
▁brusque
▁thème
▁décisive
▁justicier
Zabûr
▁décharger
▁traduction
▁tricher
▁Ramadan
▁planète
▁allège
▁barrage
peau
▁inconvenant
▁quémande
▁signification
▁bouscule
▁fierté
▁grotte
▁écroulé
▁chryso
▁déménage
▁briève
▁chatouille
▁concubinage
▁mulet
▁badin
▁registre
▁saleté
▁Garant
▁affût
▁renfort
▁happai
▁chimère
▁fripe
▁collaboration
▁perception
▁remarquable
▁carotte
▁renferme
amendent
▁Commandement
▁blanchisseur
▁grommel
▁instigateur
▁solidité
▁contamin
Aykah
▁rémuer
▁tortueuse
▁bijoux
▁idéo
▁bazin
▁bouger
▁secourûmes
▁vomissement
▁jumeaux
▁morale
▁apprenti
rourou
▁rempart
▁Dormez
▁rayonnement
▁voulûmes
▁fausseté
▁phrase
▁dispensés
▁Kissi
▁intime
oïsme
▁radot
▁bague
▁résumer
▁délivrance
uffle
▁fourreau
▁Mysi
▁église
▁génie
▁enchaine
▁Combat
▁entretués
illustre
▁grappe
amoncelle
▁ustensiles
▁herm
▁sauter
▁glace
▁sangsue
▁hélic
minence
▁graisse
▁treillagés
▁paquet
▁défilé
accroissement
▁hoquet
▁surdité
▁Pratiquez
▁ramper
▁suinter
▁boutique
▁embarras
▁prédéterminé
▁volume
▁musc
▁corrompre
▁politique
▁vapeur
exercice
▁alarm
▁dysent
▁défaite
▁Sabéens
▁foot
▁programme
▁dominés
▁glorification
▁colporteur
▁attisé
▁lieutenance
apprécie
▁détermination
▁cuvette
▁discret
▁population
▁islamique
approprier
▁confidentiel
▁fossé
▁Jann
▁éparpillés
▁machination
▁fructifier
▁particulier
▁vénérer
▁hommage
▁dissipation
▁législat
▁glorieuse
▁secousse
▁chancelle
▁formule
ajj
▁hospitalier
▁parasite
échec
▁calmé
▁museau
aubergine
▁tamari
▁Molo
▁vorace
▁écrasés
▁vomir
▁serpe
▁provocation
▁inconnaissables
▁démonstrati
▁escaliers
influence
▁monument
▁Badr
▁conclusion
▁prévenus
▁suggéré
▁devrions
▁mugissement
▁leader
amusent
▁produira
▁vaisselle
hydro
▁pillage
▁Lâchez
▁balanço
▁soigner
▁Mange
▁broder
▁torche
▁sarcl
▁vétér
▁publicité
rouille
▁représentant
▁boîte
otter
▁réclamiez
▁connaitre
mân
▁insistan
▁uriner
▁développer
▁rideau
▁français
▁fouetter
▁renouveler
▁dérobent
▁grossesse
▁courtois
▁moucheron
▁auditeur
▁impitoyablement
▁composent
▁fusse
▁revue
▁dévié
▁transmet
▁Rassembl
▁secourrons
▁désespérer
▁vanit
▁paume
▁brigandage
▁compréhension
▁enfermer
▁dormions
▁délibération
▁salir
▁constitution
▁bananier
horte
▁Dalma
▁condiment
▁bondir
▁convaincante
▁mythe
▁fabrica
ontraignant
▁signaler
▁obstiné
atmosphère
▁découvre
▁cadet
indigence
▁index
▁débarquement
▁efforcé
affranchissement
▁malaise
▁moudre
▁jaillissant
▁gifler
▁promettait
remier
▁confluent
▁occidental
▁hyper
▁promenade
▁Toutefois
▁pulvérisée
▁croiriez
▁séjourn
▁physique
▁ressuscitâmes
iera
perçoit
▁promettez
▁donateurs
apaise
▁découvrir
▁nettoyer
▁spacieuse
▁ranim
▁billet
amolli
azin
pater
▁begaye
▁convoitions
interdiction
▁méconnaîtr
▁tyrannies
▁couture
▁sursaut
▁redresser
▁rusé
▁divulguées
▁dédain
▁stupide
▁inclinés
▁Eloi
▁consentir
▁corrompent
▁railleurs
intestin
▁projette
▁Sentier
▁supposition
imp
▁trésorier
▁campement
▁désigner
▁gouvernement
▁soulever
▁barbe
▁invocat
▁broche
▁Demain
▁méditiez
▁décréter
▁merveilleuse
▁noblesse
▁lécher
uc
▁bandit
▁bloqu
▁houe
▁arroser
▁voudrez
▁séjourner
êtez
▁familia
▁rougir
embrass
▁classe
▁imiter
▁divague
▁dignit
indépendance
compense
▁cachette
culer
▁Rhe
▁transige
égorie
▁remettez
▁provoquons
▁bateaux
▁noix
iscer
▁guidâmes
▁équitablement
▁ascendants
▁provoqué
▁querellant
▁réconciliez
▁remerciement
▁timide
Barrage
▁boucherie
éliba
aravanier
▁Jugez
éduque
▁typ
▁désavouons
▁propager
▁devinette
▁sanglot
râf
▁médire
▁uniform
▁soudainement
▁bourdonne
phie
▁raisonnablement
enserrer
▁épier
▁appartiendront
éoph
intervenir
▁furieux
hira
inké
▁poursuivre
adel
▁futiles
ogue
▁étalag
▁Eph
▁ramena
▁coûter
▁dénigrement
▁inutilement
avère
▁dissoudr
▁consumée
▁cracha
▁longanime
▁déranger
▁ripostent
▁actif
rayer
▁dicter
▁corriger
▁police
▁corrompt
▁inhabité
▁gargo
▁ramer
▁patrie
▁colport
▁préférable
▁prestige
▁incon
▁blancheur
▁bouillonne
▁nausée
▁aspergé
▁prolongée
chem
▁insignifiante
▁préférez
▁accident
▁taule
fforçons
▁moto
▁croissant
▁déchirera
▁rafraîchir
▁vitesse
▁entreprise
bobine
▁désobéissent
▁semaille
▁creuser
▁vivifi
affilée
▁maman
▁solliciter
ermets
com
▁contrôl
▁bouchon
pollués
▁coï
▁descente
▁roux
attarde
▁parjure
humiliera
enquérir
▁tailleur
▁clo
▁mondial
▁bourre
▁écumer
▁atteignait
▁confident
▁conjoint
istawâ
▁veine
▁sacrifier
shon
▁croula
▁fondre
▁surprise
▁désespér
▁tisser
▁escort
expéri
▁délaissez
▁Repentant
▁redoutaient
moralité
numér
▁tranquillement
constamment
▁spat
▁spoli
▁détester
▁rentrer
▁déroulé
oral
▁balai
▁solidement
▁décès
ingratitude
honoraire
▁agréez
▁réjouissaient
▁déviation
▁distribuer
atteindriez
Ecartez
▁supposez
▁vantez
▁Retourne
▁approchons
▁rédig
▁renf
▁colonie
abstien
▁brûlait
▁larve
▁conduisez
ippe
▁disputait
employez
▁contretemps
▁honni
▁équipé
▁défaill
▁oeil
▁Loin
▁dessèche
UN
▁fabriquent
▁bouillonnera
▁négligées
▁écartez
▁léger
▁communique
▁maltraiter
▁considérable
▁Secou
Ecoutez
▁redouté
▁deviendraient
▁clign
▁monsieur
▁résonne
▁différ
▁couchant
▁trompait
▁surprendre
▁Fixe
▁précepteur
▁remplacé
▁étapes
▁patte
inattention
aphrodite
▁baisseront
▁gourd
▁répudiez
▁hib
▁indépendant
▁armé
▁renvoyez
▁borne
cain
▁déclarèrent
▁injurier
▁Seraient
▁retourneriez
▁ride
▁invoqueront
▁économise
»!...
▁exultent
▁clavi
▁sensuel
▁délaissés
▁cerna
▁hérita
▁matinée
▁méprisez
▁libères
hausser
▁chevilles
yth
▁pourvoyeurs
▁assister
▁abeilles
▁couchez
▁adeptes
▁tambours
▁gracieuses
▁articulations
▁immuables
▁adoptifs
▁pressés
▁ennui
▁étincelles
▁réussit
▁Nach
▁troc
▁éclairante
îna
▁gaspilleurs
▁expliquer
▁caprices
▁cernent
▁fibres
▁recouvrit
joints
▁parachever
▁astuc
▁frustré
▁adorant
▁loyale
▁détachent
▁véni
cke
▁fumer
Ouest
▁sautill
▁composé
▁cernera
▁raide
▁consolidé
▁gratifié
▁balles
orateur
▁éternue
▁exhortait
▁presser
▁soucieux
▁tamis
▁recueillent
Nourri
▁ressuscitant
▁rite
▁essor
ouette
▁éjaculé
▁crachat
▁fonder
▁aplani
▁prononcer
▁mangue
▁faille
▁volant
lût
▁tracées
▁démentir
▁sécheresse
▁annulé
▁réfugié
▁affranchis
▁Zé
▁burent
▁guérira
▁révolu
▁planter
importuner
▁fuiront
▁tuteur
vres
▁Persév
▁pressant
▁poign
▁producti
ourds
ubli
▁résolut
▁aventure
▁sélection
dama
▁crucifient
▁prouvée
▁consens
▁cite
▁purifiez
▁Claudi
▁former
av
Vo
▁revenant
▁menaçant
▁cochon
▁jus
éprouveront
▁purifiant
▁séparent
▁moissonnée
▁râle
omaine
▁poumon
▁allumées
▁infinie
▁saisissent
▁raisonné
▁tardé
▁reporté
▁brûlante
art
▁occident
▁inspirée
▁altère
▁touffu
▁proportion
▁divorcer
▁Garde
▁commercer
▁2
▁ɗ
▁opinion
▁onguent
▁produise
▁accent
▁infâme
▁agression
▁montiez
▁accumul
▁parliez
oit
▁distraits
▁bourgeonne
▁inculte
▁identique
▁inquiétude
▁pleut
▁hésiter
▁arrogance
rémiss
▁Brûlez
▁anniversaire
▁épidémie
▁homonyme
▁corpulen
▁abreuvoir
▁évangéliste
▁gardienne
▁progéniture
▁connait
▁apprends
▁repentaient
▁Afrique
▁câble
phone
abatte
▁écrivent
ublée
▁exhiber
▁acquérir
▁sauva
élèvent
▁honteuses
▁bouton
▁tordu
▁Rassemblez
▁déplacé
▁maigres
altér
objection
▁sécuris
▁négation
ivresse
férence
▁interdire
▁Ecrit
enfouir
▁illuminer
▁immédiate
fus
▁resplendissa
▁chassez
▁Lib
▁mêle
▁pêche
▁imagination
▁tact
tan
alât
brique
▁poulet
▁parviendront
▁Remercie
▁fabriquer
acquisition
▁parchemin
▁complotèrent
▁porta
▁suivrez
▁persistant
inées
▁immigr
▁exécuter
▁caf
▁étonnante
▁mineur
▁attribuent
▁louent
▁persécutent
▁invitation
▁gronde
▁signifier
▁vig
▁jaillirent
▁Hy
attristerai
lire
▁affich
▁information
ordiale
▁bénéficier
paraîtrez
▁éparpillées
▁lançais
▁occupations
suscitent
▁antérieurement
▁convenue
uvre
▁bouleversés
▁groupement
▁racl
▁absorbé
▁Azo
▁précédée
affrontèrent
▁illettrés
kha
▁nomades
issement
élan
ffectueux
embre
attest
diens
▁dressés
▁recouvrir
▁épuis
▁attaquer
approchera
▁mûres
▁Perg
échi
▁modér
▁audac
mobile
rago
oncurrence
▁rigo
▁fusils
robas
▁consulté
▁clairon
▁mutuelle
exterminer
▁amasse
▁thé
▁pénétrés
▁Sos
reuve
▁feuillet
▁déco
emprunter
▁mesurez
aurore
rituelle
▁arrange
Nûn
▁chercheur
▁scarifi
▁rencontreront
▁vilain
▁détourneront
génération
battent
▁désertés
▁deven
▁narr
▁écraser
▁avili
▁voilés
▁proposé
▁imagin
▁emmènera
▁soucie
▁entreprendre
▁varié
▁éclatante
▁Hâ
▁instruis
▁dégou
▁frott
▁claque
rices
▁démeure
▁descendant
▁prodigu
▁retenus
▁guiderait
▁col
▁Asso
▁trompeuses
▁meurtri
▁pir
▁lancer
▁facti
▁Savant
▁inte
▁planifi
▁agréée
▁dangereu
▁nuque
économie
▁frivole
▁harmonis
▁savai
▁Rama
▁profitent
▁sport
▁interpell
▁exercé
illant
▁punira
▁affa
▁surprit
▁ressusciterait
enfuyant
▁plier
▁espéra
émettre
isaient
▁particule
▁équiva
▁mourez
▁transpercer
▁tellement
▁Israélites
▁soutiendr
▁respectueuses
achèvement
▁bur
▁héros
▁Averti
▁prolonger
▁servirait
éni
AB
▁invites
▁Fi
▁côtes
▁Voi
obtien
▁prédiction
▁lapidés
▁connaissances
▁guiderai
testation
xture
▁constituer
vernes
aussitôt
▁dormir
▁goûtent
▁coulant
▁torr
olosse
suppliant
▁profita
▁demandeur
▁Arabes
▁excusé
▁incertitude
paye
▁agriculture
▁distribué
▁attacher
▁drachme
▁tress
▁éternité
▁ramassé
▁céd
▁brosse
▁atteindront
▁mentons
▁empir
patri
▁comparée
assassiner
▁thésaurisé
▁alb
▁réformé
▁répondi
▁verrouill
rien
▁pente
seize
▁chaine
▁naï
ceci
chiez
▁prendrez
étincelant
aïr
▁pratiquer
▁concours
phra
▁étalée
▁scrut
emporté
▁passerait
▁pot
▁reliqu
Alexandri
enseignes
▁moqua
ennemis
▁suivante
▁ornements
humilier
▁traire
▁professe
erges
▁poètes
▁apprise
▁plaines
▁resplendir
ajou
▁plut
▁trouveraient
Issa
▁proclama
rône
▁mani
sî
▁soum
▁jugeront
évent
▁querelleur
exagér
aine
▁livrez
▁jeûnant
endance
▁accueil
insult
Elle
ocation
sieurs
orgueilleusement
▁reconnut
▁louche
▁géant
▁retrancher
▁chagrine
▁tendent
▁calomnié
▁reporter
▁Madi
kou
allés
omprends
▁attaqu
▁tenue
crit
bâ
▁nationale
▁fatale
obten
▁essu
raude
▁dém
▁caractéristique
ompter
aveuglent
▁rappelant
▁repentiront
dèmes
▁habiller
accueilli
▁jeudi
▁vant
▁rentré
▁cultures
▁déplaç
envole
▁pasteur
écoutes
▁traversée
▁adju
ourate
▁tordre
▁inévitable
▁Aide
▁sév
ébranler
▁mangerai
▁trav
blement
▁insurrection
ttention
uif
▁plaign
▁tends
▁rugi
battus
indulgent
▁immolation
▁entretenir
▁amertume
▁expiation
▁lancés
▁abs
▁destinées
▁ronger
ysop
ination
▁impé
interpelle
▁voyagent
quement
▁apportera
▁achever
▁lumin
▁coince
insouciance
mos
▁opposés
▁mariées
▁survenue
▁importants
▁étonner
tent
llesse
▁entendons
▁avenir
nia
oquent
entreti
▁bér
▁récompenser
nclin
▁ras
▁U
astre
émigrer
entourent
▁écriture
▁Couchants
▁complét
suite
viendrai
▁festiv
▁Loi
ébréch
▁distrait
Mu
▁nivel
zar
▁respectueu
▁ébranlés
ori
ouviens
inquiéter
▁promena
oyez
inciter
▁découvri
ommencement
▁enfanter
▁concordai
dés
nement
auté
▁désherb
▁délicates
▁pencher
valise
▁pre
Ap
▁transpir
▁écorce
▁oriental
▁banc
pel
▁éclaire
▁remu
▁attraper
▁âgée
▁individuelle
▁crisp
▁Emporte
▁tiendra
▁convoité
▁accouche
▁Epa
▁solennels
▁grosses
▁légères
▁détacher
semblé
▁gravé
cession
▁mouill
▁préservés
tions
▁hospitalité
▁alentour
▁pourris
▁renon
▁émi
▁déchaîne
▁astre
▁accueillant
▁percev
lèvent
élo
▁saisie
▁opérée
▁palme
▁compl
ergents
▁soufflai
agog
▁donnerez
oli
▁sal
▁complex
▁Chi
aws
enflamm
▁blanchie
▁restâ
▁taches
oureux
volte
lop
▁agisse
▁encre
▁repentants
▁enfou
▁supposa
▁raccommod
▁parade
injurie
aimerai
▁invocations
▁enrouler
▁allume
▁nieront
cteur
▁million
▁affronter
▁égales
scendance
▁empreint
oquerie
concerté
échange
sabba
▁démolir
agoni
▁montée
éforment
acquitt
Reste
▁sève
▁sourcil
▁passager
iquement
▁suffir
atrice
▁niais
escr
allée
▁transmise
▁boucher
cas
▁rebâtir
▁débordante
▁rappelés
▁boul
▁méchante
▁agrées
▁courbée
▁rect
▁encens
▁impr
▁corrompus
impu
▁abondantes
exalter
▁conv
▁paralytiques
▁alternance
▁transe
idie
▁croiss
▁note
▁obei
▁tentera
tesse
▁vides
chim
▁écras
▁poursuivirent
égion
citons
▁arracha
▁Proch
▁pétr
six
▁plong
usilla
▁distribua
grandissent
jouissent
▁préservati
▁déploie
▁Mis
égorger
vriez
▁butte
termina
ute
▁soeur
▁reco
▁ronge
▁figer
▁surveiller
▁passons
▁dévi
▁multiple
▁afflig
▁engrais
gage
▁gai
évoquer
engager
▁fesse
▁entame
nante
▁lâche
inspire
▁compos
▁pagne
ok
asperge
▁habitai
▁errer
▁inimitié
zé
▁exp
▁taill
▁contraints
▁phar
iya
▁ful
▁tristes
lumineuse
▁Ordre
annulera
▁retranch
▁association
expose
▁can
▁Dor
habitera
▁Crain
éfigur
▁bât
mène
▁sépareron
▁hurler
informe
▁pourriez
aise
▁dégoût
anisme
▁enrichir
▁lances
▁Heureuse
▁tasse
org
ifier
ectar
▁habitude
lèvera
▁Tor
ouvrait
▁gare
▁tax
▁ramasse
ciés
prit
robati
Ach
sée
▁longe
▁désobéiss
oudront
▁reproches
▁chargée
▁Sid
Am
semblera
▁infligera
▁jetteron
▁indécis
écéda
▁gémir
▁ménage
ke
▁batti
incita
▁élevées
battra
▁prévoya
▁Sais
▁constitue
▁dépouille
▁rec
lâchez
▁affr
▁fourn
▁adress
▁inform
recours
▁description
▁supposai
▁comprendr
▁marchés
▁queue
rtère
▁complaisan
impi
▁gas
▁fourr
▁blasphémai
▁cord
isse
▁cer
éan
▁fatiguera
user
▁disput
auras
pa
ormément
▁maigre
▁buvai
▁Zak
▁W
▁Pren
barba
▁voya
vo
▁Répond
▁report
lume
vraient
lè
vier
▁enregistrer
▁fanta
▁ramen
▁Had
▁achev
▁termit
▁org
abit
▁immorale
▁Ph
▁contenter
▁not
▁fau
▁honteuse
onge
▁ivre
▁représente
▁incisi
irrite
▁repoussa
wâ
▁plais
teurs
▁dévoila
▁relui
érée
place
incer
arbres
▁accroître
▁vende
▁arm
▁jugeras
▁blanchir
▁ajouté
haritable
▁secs
▁rôt
enverra
▁pass
lym
▁souverains
ico
▁pourrons
▁défendrai
▁vér
dèrent
▁pareilles
▁sexe
emp
▁dirait
▁raf
▁Hu
▁enhardi
▁levai
inette
perversion
issure
sses
grès
▁lis
pôtres
▁consacrée
▁promett
▁veillée
▁redev
invitent
▁gât
▁persuader
amarr
▁install
▁sienne
▁réserv
▁lie
abus
ambassadeurs
atoire
▁ficel
ntraidez
▁rond
Europ
▁litt
dra
devenu
▁dorm
▁dompt
tracte
▁renia
▁apte
onnaissant
▁étonn
Jouis
▁grandi
▁pressenti
H
rée
ouvrez
▁Pe
dée
étendra
éter
▁exerc
▁tempor
▁verron
tirez
▁demandai
▁paissai
éminentes
▁espéran
livrés
▁endroits
▁enivrer
▁repli
donné
▁allaiter
▁buva
▁gonfle
▁fixée
sèche
po
▁Compt
▁fabriquai
▁dissémine
▁délivr
jours
▁alli
▁sortai
▁tan
perçant
▁rejoign
lis
▁franche
▁redonn
irige
pause
▁bâ
▁lien
▁savoure
âte
trè
adorerez
ourdi
▁Lou
crète
▁plair
fait
▁creuse
belle
▁semai
▁flagelle
▁suivie
▁nid
▁dessin
▁affermir
agenouilla
▁hél
érence
tique
▁retir
▁ext
Poi
Pars
justement
tuez
▁procéd
dominant
▁rempliss
▁herbe
illes
▁crépi
▁proba
engou
▁torture
▁scella
arrête
ébranle
Regarde
▁attache
ordina
▁définiti
ontinuerons
▁hal
▁dromadaire
diquer
appelant
anda
▁approuv
▁attir
▁aigr
espéré
uit
▁total
▁diras
▁consum
▁entasse
▁Sc
▁peuplé
▁lettré
naître
▁située
▁prendr
▁rafraîchisse
rosternation
essé
uve
ârout
▁peupl
▁appelleron
▁min
▁royal
▁accuser
▁autorise
▁Gâ
nch
édific
tente
mémor
▁chic
▁marine
tolé
▁chanson
▁recouvrer
▁exist
eviendront
▁romaine
▁moul
▁bâteau
za
oupe
ien
▁scandale
▁montai
sence
▁institut
▁enjoliv
écrie
lécha
ttement
▁comporte
▁Mo
réni
endemain
éprouvera
▁grandissa
pture
▁rançonn
nk
aies
▁circul
Habi
▁crava
tement
IN
apparten
▁attends
▁emp
essée
▁vider
▁poursuivi
straction
▁consenti
▁Celles
obab
aimes
▁ressembl
teindre
gi
▁succéda
▁témoignages
▁colon
ér
▁mesur
tranchés
eths
zia
▁redemand
▁épouvante
▁enchaîn
▁maint
▁Pers
▁Foul
également
abatti
▁im
▁app
nuel
▁endurcir
attaquer
ia
ontentez
entreprendre
rder
▁muti
▁terres
▁attira
▁accompagner
▁Ag
▁dissimuler
▁dormai
obéiss
alutations
io
▁Puisqu
▁cumi
▁encontre
sive
▁remonter
▁échappa
▁ter
pressaient
▁convena
laissée
iterons
▁perce
onique
endredi
▁Lâ
▁Ouvr
▁attaqua
▁affirma
▁obten
ternes
niser
▁libérat
▁iniqu
ogé
▁réclame
édé
éte
ablissez
▁vac
raper
ébé
oureuse
vainement
ienheureux
▁tentat
▁flott
pt
tirer
▁soud
erme
mais
▁barre
▁baign
▁entraîn
▁élargis
▁régneron
atique
▁Vi
▁entendus
▁ressemblai
▁mau
▁désign
▁reprenne
▁perfectionne
▁nourrissai
ond
examine
▁retrouvée
importun
ranger
▁mettr
adou
▁abord
▁rugiss
▁musi
▁hérit
▁Él
asper
▁regrett
▁rencontrera
lure
ET
unicité
examin
▁Cr
plaît
précédents
▁glissa
▁peule
▁débarque
▁attribués
▁bé
▁migra
assujettir
▁contien
▁dir
scient
formeront
▁Appel
▁capri
▁retienne
▁Certain
suivant
lais
▁rampa
▁abandonne
éprouv
▁senti
▁agent
▁bave
rince
valent
▁faibl
▁treill
légué
▁Ob
▁détesta
▁libéra
émoi
bb
▁dévers
▁cla
accroch
ctif
importune
lit
accro
énoncer
▁impén
▁gest
hériteron
isie
▁lanc
▁jouissances
rendront
▁versez
▁carré
ison
aisaient
▁enlèveron
idiez
▁pè
oup
▁auron
▁Kou
reront
ignes
▁diffus
▁procur
▁épic
▁mangeur
ndemain
alti
▁libér
rogatoire
▁gagne
▁Pat
insulta
▁résum
ffusion
▁Informe
amenés
▁indi
▁Bara
▁dépouiller
Puisqu
▁protégeai
▁abaissée
▁démolis
▁Signe
cueil
▁convenables
▁accoura
▁apparaiss
enseignai
hau
oyauté
▁accroîtr
▁dispers
▁condamnée
▁principal
énis
vie
▁pla
▁gouverne
▁glob
▁recour
▁flagella
orienté
▁écou
▁divorc
lise
anches
▁priai
nes
ain
cus
▁éta
vite
▁deviendron
empêcha
ouches
agonis
▁cat
aternité
▁plaisante
lène
▁tailler
▁discour
entourer
▁tassée
accr
urez
riger
▁anéantie
go
▁machine
duire
▁paru
▁recueillir
▁cep
▁disposa
rate
▁ava
endrez
▁drap
oins
▁évid
▁figu
▁rappelles
▁mainte
épuiser
lera
▁fine
lumer
sar
▁abreuva
arme
▁promi
ancher
âter
▁Hou
▁coûte
▁cann
oquez
Ad
▁rob
▁Lors
▁baisse
▁enc
▁rétribu
▁souleva
▁prophéti
élance
▁mir
▁forc
▁bén
▁parlai
▁gaspille
▁coucha
▁réfléchisse
interrogea
trait
▁Tib
▁excuser
▁acheta
▁Av
nquérir
▁exterminée
▁Syr
▁tapo
▁ferm
telle
▁u
▁répartit
▁obteni
▁méprisée
donc
assions
▁courbe
donnés
érant
▁Na
fumée
apha
ies
TI
▁insista
ome
▁retournai
intentionné
▁batte
▁confesser
ingére
▁méfian
)»
▁succéd
▁sati
▁tournera
▁tais
▁écoul
▁Rebe
▁entour
▁absteni
▁chuchote
ys
nstamment
▁brisa
▁fleuri
▁légend
ûd
▁convulsa
suis
uth
brouiller
▁rendai
rgi
▁Lis
▁manquerai
▁épouvant
▁ag
▁enjoliva
irions
▁magnifie
endent
▁coloni
aignez
▁Pu
▁pein
envelopp
étisme
▁naiss
▁croisse
▁délivra
▁avertiss
battement
invite
emportement
▁rev
▁lèse
lor
lée
▁culbute
assé
▁ad
▁exc
lah
habiter
▁suivr
contenteraient
lié
Ég
▁abstra
▁habile
genouillés
▁boule
▁maitre
ssante
▁éloignée
▁perpétue
subord
▁ar
▁satisfa
naise
▁durer
ié
▁lança
assemblés
▁veuv
mad
▁conte
▁bar
▁continua
▁captive
▁décim
épuisera
▁exposa
▁volt
▁Hâr
▁convainc
oyant
ndirent
ét
▁mars
ques
pho
étonne
▁édific
▁sau
▁colle
roi
algré
▁converge
romadaires
efforc
▁sor
▁surnomm
▁pus
▁souvien
▁justifiera
phi
▁éparpill
▁secouer
▁grandir
▁croirai
pule
iquer
estion
▁enregistre
nner
▁tén
imagin
▁fume
▁apportés
▁établiss
atif
▁ent
▁allaite
▁accabl
ibérez
arder
plus
▁perfectionn
tiel
agenouill
▁fo
zare
▁définit
mar
▁correcte
ûre
chauffer
nge
onnera
▁brisée
▁soy
issante
▁effets
▁brilla
mettrez
tentez
▁réformer
▁Commande
rô
coureur
oule
ordonnés
inal
▁sava
▁enjolivée
hérit
assi
▁pointe
▁assigna
out
▁persécutai
écouta
▁tailla
▁attrap
nerie
accueille
▁montrée
▁modifi
▁dissémin
▁attest
▁agenc
▁immer
kk
mier
▁interrogent
▁gonfl
▁Compte
entra
▁mise
▁néglig
▁voi
onnez
▁achèver
voyez
op
▁possédée
idité
▁protégea
▁repr
jure
▁prêté
▁déci
▁résista
formée
▁multipli
▁Ai
mission
▁peupler
▁corrompue
V
▁fende
ourront
▁secourr
▁Viv
nommée
uvez
mettra
▁attribu
▁perça
▁dessécha
former
irrit
▁circulai
▁rug
▁souillée
▁Euro
éme
▁fir
èveront
▁vau
▁Be
▁reporta
▁prouv
▁répugna
▁perplex
▁détrui
▁Dal
▁souhaitera
main
rhum
▁renonc
▁Ze
▁Oliv
▁détache
Apôtre
entr
▁trembla
isiez
▁mangeai
ilet
nan
anan
èche
▁vivr
▁ultim
▁subj
▁recon
▁mousse
▁agissa
▁produisi
▁tarir
risme
▁gou
obscurci
▁jur
oléra
titude
epousse
igna
choses
issée
cien
▁vot
▁éminente
▁entraide
▁atteindrai
▁rouler
▁supp
▁invit
▁faudra
▁disperseron
▁masti
▁blâm
ends
▁agile
gon
céder
ents
▁déplacera
▁produisa
▁infligea
▁pol
▁entrav
oudriez
animité
▁group
bul
▁ambassadeur
▁Go
▁annul
nus
▁avanc
uwâ
▁obti
arc
issiez
▁réunie
▁assiste
ll
▁multiplier
▁coude
▁apprend
▁récidiver
▁immoral
▁rongea
▁embellie
▁installa
▁déplo
▁maigr
mplissent
▁dévoilé
▁henn
aman
▁épo
▁calomni
épuis
iliez
ceau
oû
▁mass
rre
▁rat
apportent
estation
deviendrons
eli
▁imp
▁hi
onsentez
▁Con
puissants
lant
éro
ration
▁éloign
▁Sache
▁Ramene
ceps
inaire
vérité
▁attire
▁réjouissan
aïm
ye
to
cherchez
hili
iler
acca
▁eng
▁fe
ntenant
demment
toute
adj
▁gémi
ave
▁déclarera
entendrai
▁Wa
èce
▁coud
▁rétablisse
atin
▁opposa
▁Sauve
iendrai
▁extrai
▁crav
ateurs
▁libéral
▁dét
▁recommande
vés
▁crédit
▁apparaît
▁lâch
▁assombri
férer
▁hâta
appe
▁remett
▁roya
épuiserai
diez
ric
▁tien
▁suffi
attaqu
▁gaspilla
▁déba
irer
▁interdi
▁cuisin
▁aïe
▁Ach
men
sions
acrée
▁consult
rompus
▁lavez
ocr
aînée
endurci
▁divisa
ignez
lip
▁ménag
sistance
dents
tendit
▁attribua
udront
▁chér
umineuse
▁persécuta
▁dévora
tych
▁provenan
efforça
▁posée
plumes
ensiez
ivrés
▁th
imée
▁mut
▁Vou
nettes
▁Ouvre
▁partent
tin
attribu
fâ
▁transporte
▁paga
▁parviendr
ria
engraiss
▁conclure
cachant
soit
▁repoussera
▁tante
▁souill
▁sema
▁ruser
▁flor
pendant
iron
▁arme
▁Pass
ption
▁sauveron
icule
yâ
▁Port
▁transforme
ctuellement
noncez
▁subsist
ouvez
gestes
disent
cru
▁chan
nçons
voquer
adonne
parole
▁réfug
▁vic
▁mu
▁rapid
▁verse
naire
▁troque
▁gaucher
▁maladi
▁mén
maient
inité
▁incomb
▁Approch
tribuer
issance
épaiss
âteau
App
▁anéant
▁file
▁Clé
clamation
cca
▁violente
▁livrée
amper
tantes
▁offri
dons
▁diminue
cle
pi
▁manqueron
Elie
ache
î
▁boite
cu
▁suppl
▁assu
ueuse
Dis
▁débordant
▁étonna
signe
▁persuadai
▁courbé
discipliné
▁satisf
▁retomb
élev
▁croi
▁soufflet
▁condui
égara
▁propage
emme
▁rô
humili
▁laisses
▁médita
accommoder
croquer
bon
ande
▁sent
rfaitement
▁répugne
dresse
▁meu
▁auri
▁prédi
▁viendr
attentifs
▁grab
▁habiter
▁sci
▁ja
▁louera
ppe
▁meurtr
▁haïsse
nde
ira
ouvons
nité
▁Gr
▁mesura
sub
up
croyants
▁rédu
▁bénisse
aidera
enter
▁resteron
▁turb
selon
ettent
nder
idés
▁mê
▁purifi
échauff
CO
▁Réjouis
Alexandr
▁pin
enivre
▁vêt
▁crucifie
▁argumenta
▁choisira
▁personnelle
exagéré
menant
▁campagn
▁amélior
apporte
▁défendra
cul
outefois
inventes
▁délicate
▁asserv
illir
▁appare
▁répondr
▁Fend
gui
▁opéré
▁discutai
▁indign
▁sembl
propre
▁punisse
▁guerr
▁parvienne
ouiller
attire
▁généalogi
ureux
▁incroya
▁affront
parce
▁baiss
▁rela
ardes
olation
Mont
oyiez
▁chauff
quelqu
▁étourd
▁sanctionn
▁soumettr
ifié
bonne
▁hai
Hab
nature
pond
▁Q
envo
▁jouiss
▁désola
établi
▁maîtris
▁allége
▁'
▁terr
▁raisonna
mit
toutes
cris
herbage
écout
verrai
maintenant
▁tortur
laisserez
▁parvin
lorsque
vraiment
cœur
dant
passer
▁lapidera
ême
▁disparaît
viendrons
▁resplendi
▁hausse
▁tré
oqué
▁jalou
ètre
▁indulgen
▁soul
tron
nsiste
gre
rf
marquez
▁débrou
rement
mposant
▁pâl
garde
piration
▁accus
ôt
ympa
▁bénissa
mp
▁pile
▁effac
▁prostitué
caractéristiques
▁vieill
mécréante
étendre
▁humili
citer
améliorer
versets
▁bai
▁Entend
accorde
▁flatte
▁complais
voix
carte
cience
!)
certainement
▁confondai
prophète
armure
oth
▁vocab
iants
▁Agis
créé
chaque
iscrimination
▁Salâts
▁babou
Jean
▁immobil
rim
▁carre
▁saurai
voici
▁ébr
velle
kr
▁étendre
▁amenai
▁Porte
▁surviv
▁suscit
nça
Commen
diront
adjur
▁trahis
lique
▁molle
▁pardonna
veau
emporte
limité
ermit
ordonné
▁répart
voquez
aniers
▁intellig
révélé
▁juri
▁idé
hi
▁légi
▁effa
▁Souv
prophètes
▁accorda
▁lévit
toujours
off
éternellement
▁habita
ntendant
▁conti
▁fron
eize
exclu
▁stéril
▁Philipp
▁colo
soyez
endront
▁Livres
allume
▁renouvel
utorisation
▁prodig
▁espac
apparaisse
▁réel
▁mamel
oubliera
▁manquera
▁déten
mpli
▁éminent
fera
▁rafraîchiss
Salât
▁posera
écrive
▁limit
▁regrette
famille
▁tenta
enne
▁prolonge
étage
nc
▁transperce
osé
▁neutr
dernier
obéissez
épais
petit
Paradis
▁dormi
▁éch
soumis
angu
éveil
ttez
illeux
avan
excuse
▁réalisé
▁admi
échant
▁accompl
▁suff
véridiques
Tous
▁commandera
Très
▁Repen
cherche
▁K
▁corp
▁retournerai
ournée
coupe
affa
capable
bête
gatoire
▁mécr
audi
▁exploit
oute
ppuyer
▁conn
année
fut
muet
pardonne
derrière
▁esc
meeti
retour
mb
▁retranche
repentant
bara
Amen
montagnes
ouchés
doute
certain
tête
boire
acquis
▁dépose
ornement
ourdir
service
Ha
Omnipotent
bond
propos
nage
bras
ssailler
▁rituel
Jacob
ubis
cinq
fort
Tel
Maintenant
▁fum
▁fléchis
épic
jouissance
haut
▁razzi
▁blanchis
▁patiente
▁mutuel
▁nou
ambassadeur
libre
ntérieurement
▁étalé
currence
dam
▁brûla
peuvent
▁convoi
▁confor
associateurs
chef
▁mobil
▁revête
▁guér
aisant
▁oct
leva
imposteur
but
sexe
adorateur
recevoir
▁frotte
possible
▁obli
puissant
Musulman
fectueux
intercesseur
cheur
prêt
haine
sauver
Afri
rempli
pluie
vêtir
afi
▁parc
▁représent
mettez
▁monterai
▁lég
mencement
▁essaye
opprime
compose
res
norgueillir
interprét
création
apprenne
général
▁voudr
mauvaises
Appel
▁reconnai
assurément
▁offran
direction
▁band
▁extermine
prophétie
loge
iblement
▁absorb
▁crimin
enrichir
certains
ives
épargn
accept
ménage
Créateur
omment
bruit
▁corporel
ritan
légal
▁opér
▁gramm
manche
arachi
pression
calomnie
lani
insensé
fond
demandé
enveloppé
Homme
exult
âchée
appelés
▁solid
jardin
lie
enivrer
gorge
▁fest
ghh
enregistrer
conclu
groupe
frappe
rr
épouvante
timent
touche
nifier
illuminer
evés
▁mœ
▁séduisa
▁piq
moustique
nerons
accroît
Ch
décidé
applaudi
Jugement
emporta
▁rési
véritable
oblig
entièrement
différents
▁gâte
▁objecti
arrivée
souffler
espèce
casser
répond
ances
chambre
amasseront
Donne
œur
exalte
jeunes
information
invitation
mélange
amasse
lapider
enhardi
goût
lik
adressée
Quelqu
progéniture
allez
fabriquer
Rassemblez
évangéliste
racine
câble
cheval
homonyme
épidémie
anniversaire
abreuvoir
Brûlez
angoissé
arrogance
hésiter
▁souveraine
acquérir
désir
inquiétude
ossements
imagination
Pourtant
injustement
identique
éclatante
ncitez
inculte
bourgeonne
favorise
exhiber
rémission
enier
achète
chargée
Arabes
malgré
Chrétiens
jeûner
▁Arriv
Afrique
onça
eigneur
accumul
interdire
éviter
Retourne
humiliés
préserver
agression
Souvenez
aiguillon
inscrit
vagues
Garde
abandonner
Apollo
préservés
exécuter
occident
regarde
récipient
pèlerinage
voiture
Envoyé
Sâlih
immédiate
onguent
ɗ
2
opinion
accoucher
humble
essayer
élargi
ouvrage
paradis
édifie
plaisanterie
négation
▁anim
congé
▁demanderai
crépuscule
poser
Saisissez
intermédiaire
abondante
Révélation
mentionné
innombrable
▁touff
Had
griot
Implore
conseiller
ambition
échouer
Rendez
marque
Israélite
sorcier
Kar
apparaître
pu
avidité
▁émigre
simplement
effrayer
Donnez
érissent
échéance
responsabilité
inéluctable
▁cap
acquièrent
Anciens
émissaire
altère
océan
satisfaction
Sinaï
adhérence
musulmans
égalité
chassé
affirme
empressement
animal
adversaire
proportion
proclamer
quinze
Artém
amusement
Hûd
hyène
sincères
Rends
aiguille
Hâ
émigre
déçu
avocat
Demeure
Rien
éléphant
individu
outrancier
claire
▁autr
règles
entraîne
pattes
assassin
légitime
agréa
verrez
souris
1
aliment
semeurs
ignorant
Demandez
ancienne
pareilles
évidence
Gab
innocent
Noé
Vois
exposer
ding
rection
édifier
avili
Mets
exerce
▁nombr
traversé
vrer
tailler
vînt
Icon
▁déracin
constance
cache
honorer
empli
rogner
▁scru
Wa
favorisé
▁mugi
adoriez
édifice
route
attesté
Sache
▁pourri
étrangle
rib
épargner
hypocrite
envieux
▁abandon
êle
charger
indigent
fortune
amassent
▁raci
mêle
disposé
appliquer
prières
antérieurement
couleur
présentera
accueillir
estim
terrain
prescrite
mourez
rifions
issue
bande
▁lambeau
entretien
sources
incroyant
réfléchi
▁ingrate
G
capacité
thme
▁idio
▁prépara
▁direct
acceptez
ressuscités
lexandrin
attir
complet
▁abrég
rêve
▁diab
Leur
conduite
Êt
▁civi
fourn
▁bic
aplani
allonge
▁éjacul
ulcère
issu
effrayés
ptez
veu
attendons
▁greff
▁défini
planté
▁discrimin
agissez
effra
▁ko
ieuse
marier
▁gratifi
aboutir
attester
sûrement
espion
aride
▁renseig
islam
engendr
▁chev
conduit
▁immole
boucher
ûrement
▁consolid
réussir
texte
attrape
acheva
accusé
▁favori
▁articulation
▁gracieuse
▁tambour
indiquer
▁adepte
▁immuable
anéanti
▁pourvoyeur
intendant
▁cheville
▁équivalen
▁frustr
▁adoptif
enrichissa
▁abeille
rruption
▁libère
▁tar
▁fibre
vivants
▁actuelle
▁bêt
▁têt
▁étincelle
▁impo
iture
perdr
averne
appliqua
▁foudroyé
divin
▁menacé
▁connaîtra
▁associ
▁extrémité
▁divergence
lecture
▁bagage
▁houri
DE
▁créateur
▁Atta
emparé
▁remord
phrodite
▁bénéfic
▁clef
▁raisin
améliore
▁inv
aisonné
▁étern
▁bovin
mage
▁fissure
infliger
grés
▁gaspilleur
jouissons
▁terrifi
▁étape
▁amasser
▁format
surgir
adorateurs
constitu
▁Apoll
▁sauterelle
amèneront
dron
orte
suffisa
ê
▁employe
foul
▁répét
rracher
èvre
▁tapa
trouvée
▁verrou
▁acharn
▁prov
éjà
arbitr
▁caprice
▁communiqu
bondance
▁Ecarte
▁langu
▁côt
▁fêt
▁circon
îm
▁déroul
rmées
uparavant
dît
épouiller
▁Exc
bsolut
▁étr
oni
▁rattrap
▁gifl
ibertins
ventre
aventure
Toute
ongtemps
entendront
rmer
clamez
▁affair
▁assujett
ffrayés
▁délib
▁bouillon
explique
éveillés
▁prenai
amus
érie
habillera
esclaves
inclina
rig
solée
▁enivr
épouill
ception
▁Ang
▁préva
compté
éviation
▁pressé
▁normale
ccident
espéra
phat
ouze
vation
▁banqu
▁immédiat
▁insignifiant
▁prolongé
gréer
pè
▁prestig
▁nausé
▁rebell
▁paralys
sort
▁express
argouill
▁pieu
éfend
▁grêl
ropo
▁famil
▁corrig
▁esclavag
▁équi
fumer
▁cinquant
▁catastroph
éparer
▁rong
emand
▁obsc
▁rétablis
repentants
national
▁surprendr
▁assujet
▁savon
▁luxur
érité
▁tablette
absente
ugmente
icatrice
▁transporté
▁Omnipoten
▁suffisa
nvocateur
dispos
▁fréque
▁perfid
quérez
▁contraindr
gnant
▁accroî
sance
chon
▁divag
vue
▁régne
▁flût
lution
upérieur
ël
habill
dorat
ifie
accorder
éteindr
▁réf
▁absor
entateu
racte
ivement
éduira
▁timid
▁entrepris
enflé
▁trib
ço
migrer
phir
▁écho
anctifie
royants
▁ado
semble
englout
▁balle
▁illuminant
▁ambassade
▁Ira
▁bega
thè
ntroduis
▁minis
▁physi
élébr
muets
▁nouvel
▁pulvéris
égation
▁conflue
oignons
Soumet
▁disparaisse
hip
afferm
vénement
▁immo
▁corromp
ompréhension
erpents
oncertez
énèbres
obre
ntercesseur
nspire
▁restrei
colie
▁dict
▁divulg
▁boulevers
▁atmosph
▁réussisse
▁développe
▁exhibe
vidence
édecin
▁disponib
▁soupe
▁exéc
▁suggér
immol
▁renforce
Descend
fluence
Éta
irréprochab
▁désespère
mple
habits
cepter
ranche
remblai
asseye
▁dévast
▁réssu
onsidère
ogène
▁hospitali
xerce
▁adhéren
▁possib
▁rayon
énig
▁indéc
adver
simuler
xalté
▁banan
xhortez
▁fructifi
▁Mainten
▁urine
▁argu
léphant
▁prêchai
▁courrouc
approprie
sache
▁appartienne
▁divor
▁vénér
▁Libér
exprim
▁case
harisien
▁impatien
▁prédétermin
économ
èlerinage
▁catastrop
▁hô
▁Écoute
truc
ustensile
agres
arrogant
▁balaf
▁berce
ictoire
▁flag
▁Goûte
▁accrois
▁besogne
ligieux
cueillir
naî
▁Prophéti
▁mélan
▁jumeau
onfess
▁piétin
Ayka
▁collaborat
▁instigat
dicat
▁empress
afraîchis
▁taureau
▁embar
▁Pratique
▁déshonn
▁fatig
extorque
splendi
éconcilie
▁percept
▁dénombre
▁ébloui
diction
▁référ
ecquois
unific
éfléchiss
mmédiatement
nébranlable
▁sugg
évolu
▁agricult
▁hostil
ouverneur
pplication
stitué
▁pélérin
Saisis
▁charpent
pétition
excessi
franchiss
immuab
vangile
rgueilleux
▁charogn
suader
optère
▁effect
onze
▁franc
homosexu
ghût
Â
gresser
origina
4
5
6
ormateur
|
Á
Ç
Œ
ɓ
–
▁consécuti
identiel
▁fournis
Glori
ipation
somptueu
théisme
pital
rroger
édica
▁concev
▁bourg
cueillis
brah
minuti
ocrite
▁Tâg
rrir
▁englo
ograph
temporai
crédules
angéli
anouis
ouche
damnation
▁diverti
traig
▁réprim
▁bijou
frayé
èbres
▁disparai
opper
ptible
▁cosmo
roupement
éprime
cution
odia
gib
omnie
créer
minente
▁étendu
ubins
usalem
nvente
mpéri
tilise
▁fourbe
cly
trines
▁vigilan
rcelés
entionne
oppress
hameau
ouï
▁pâtur
▁virg
utuel
damner
incan
ignage
urnâ
hérence
▁vantard
bères
▁phono
▁humi
▁délibéré
rigeant
assè
specter
néreuse
▁quadr
▁véc
matique
njonction
actère
minable
ulsés
▁tyranni
ctionnaire
nayn
rigue
stater
nutile
illère
râc
fectionné
cères
▁excelle
EU
minée
otage
oignant
▁Vérit
stérité
▁douloureu
▁poly
▁reviv
▁dévou
iscus
aveu
cédent
oseriez
▁impéri
égrati
gresseur
secte
omber
chissez
agg
▁empo
cédo
efuge
▁divulgué
▁Kis
nseignez
racas
abî
mplem
umanité
▁inno
▁confiden
appuy
erdants
gène
▁strat
hefs
rivation
uscule
▁Tham
▁imb
▁perdant
▁provis
▁menth
jami
▁sécher
allè
▁Fran
▁possess
▁Hâm
rop
▁inap
▁arb
▁vomiss
atmos
▁advers
▁démar
dérée
ltime
struct
▁réside
alisés
excuses
invité
oyé
▁singe
▁Ramad
cade
▁véh
ergés
▁politi
oï
mater
▁approv
▁perf
▁Clair
outien
istoire
▁remor
nocent
▁barri
▁libertin
▁construct
euple
▁harmonie
miner
isonner
▁chac
▁expé
▁quinz
▁pollu
flic
éfa
▁tém
jection
hissent
▁intro
▁maudis
invita
RO
▁compagno
▁applaudi
▁secoue
▁pian
médit
▁serp
▁habitant
▁naqui
especte
nîm
▁branc
Disc
▁étudi
▁super
crire
▁fauteu
écédé
»]
▁silenc
▁indui
oumettez
Cor
lisation
oeil
▁délibér
étern
▁treillag
▁plaisanter
▁exclus
▁bille
ulière
▁gifle
minez
ortera
irez
▁rattrape
▁Galat
▁cœ
einture
▁inha
ombreuse
chette
▁retrou
▁emparé
énité
▁hom
▁rose
▁Poss
▁éner
▁remet
▁moucher
▁Inter
ssim
time
valoir
veté
▁différente
difier
So
malheurs
plo
iber
absolu
créa
▁dressée
croyante
▁persuade
cueille
▁continuelle
uyer
atitude
rtée
▁céré
▁patri
éléga
lial
▁nomad
▁frust
▁équip
ignée
▁envoi
▁envelopper
Aq
▁gué
▁dévot
ortement
▁directe
▁anal
monie
▁rayonn
égale
▁allonge
xcusez
liner
rigo
ssassin
rcisse
mbé
▁décl
▁réput
▁coran
fur
▁crâ
▁baga
idèle
nstant
ltitude
▁oppressi
nourritures
▁Nic
▁réconcilia
ombes
eillé
andonnée
▁surnom
amen
▁série
lancez
Antipa
▁surpris
▁désob
idence
descen
▁disc
onnâmes
▁brigande
ammad
▁sorci
▁raill
▁mouille
hem
ueillez
lamme
préhen
▁héb
onstitution
ronné
rach
orruption
empris
▁semeur
anterie
gy
éclate
▁cheve
▁cata
▁consp
coureurs
nobles
ccabl
▁tri
▁Ado
▁islami
▁interromp
esseur
▁tortue
ssusciter
arine
érus
percevra
erra
▁divulgue
cédé
▁épargn
▁déchirer
enseignera
▁acqu
etissement
illez
▁roul
ortation
ignon
Har
▁subis
avent
liy
▁maria
▁my
interrogeai
ites
tassées
▁habitat
filles
▁déborda
imit
failli
▁dérob
▁méta
Mar
lissa
assembler
ivière
ythe
▁ref
laient
lairer
▁rafraîchis
diments
faite
api
▁opposi
bservez
▁souti
▁informa
▁ornement
▁détaill
mbeaux
arité
▁accoud
▁convoque
▁déva
manger
▁sublim
éma
▁plie
trées
▁mugiss
arak
term
epuis
gèrent
▁servirai
logis
alement
phéri
▁désigne
pérer
rèrent
▁réveille
▁bour
▁Saisi
ussit
vern
▁pha
▁bondi
▁traduct
Ren
rî
ol
▁purifia
iseaux
env
gards
sortie
armées
▁lim
lisée
abéens
▁ignore
▁spacieu
sorceller
récie
ieuses
rêle
éré
lines
▁conclur
▁énorm
▁reprendr
clamer
▁contin
▁mente
▁tarda
▁tube
gagné
entendons
▁paraître
tar
kun
▁fusil
enorgueilli
abrique
▁App
▁dépar
▁Tâgh
▁afflige
▁préval
▁extr
lettes
▁emmène
aïn
▁comparé
enace
▁exclu
▁injurie
accueillant
belles
risés
rescription
amine
▁interprét
▁cave
roient
hia
▁vengea
ministre
▁cruel
▁expos
▁adieu
▁mèn
reté
emplis
▁embête
ssible
aima
harge
râne
▁Afri
surément
▁gor
▁prosternera
nég
cteurs
méth
▁réfu
lek
▁Aurai
▁avion
▁Andr
▁multipliée
▁diabl
rcher
▁Lég
▁villa
oïs
octr
▁refer
oign
exécut
▁mil
Obéiss
▁polic
tonna
bons
œurs
▁importun
lition
utrement
amèneron
ttachez
naîtra
▁const
onscience
bando
▁mourron
▁antérieure
âti
▁Conn
▁disputa
▁bor
▁dissé
▁ramèneron
encher
Lis
aumônes
écéder
imez
▁campa
▁salé
ahit
▁plaç
Seule
épo
▁expi
▁mine
actes
▁enseignée
Ba
▁loya
▁calcule
réc
accompagne
▁Pha
▁tuerai
▁Ca
langa
redi
▁pé
▁noire
▁blasphéme
gain
épris
moth
▁tomberai
▁rejoint
dément
achère
aria
▁Reg
▁éveil
cevoir
▁déme
▁échappe
écité
Azo
Te
lion
about
hya
ormer
rité
vrez
doutiez
uellement
geaient
ouf
aindre
▁retarde
Oh
▁prophétisa
réta
crois
uant
anif
rçant
mettaient
achie
▁pho
▁fabriqu
ign
ché
▁scie
quille
▁Sâ
avenir
syn
▁Reconnaiss
llis
▁épargne
▁carca
émoigne
agita
▁acco
▁survie
rances
▁mûre
▁magi
▁Crai
uiser
▁rému
▁Ath
▁aveu
▁égarée
▁irr
▁Cherche
osons
fou
▁amus
heures
▁Sac
ourd
emps
▁mouru
étoiles
Parle
ell
▁intellige
nas
▁datt
dier
▁rendr
▁Assa
abille
▁propr
vois
nat
sois
▁jailliss
▁rus
peler
eule
▁déforme
▁engloutis
atrices
▁arri
véra
▁Ecoute
▁pagaye
▁ki
oisson
▁examine
urveille
ustice
chère
▁câ
écroul
rance
Bon
▁piè
rvée
▁cadu
▁merc
Hél
▁déplace
insta
?».
▁amu
biens
acce
▁irrit
vivre
▁domi
▁étonne
▁légal
▁tabl
▁enfoui
attenda
▁flatteu
▁ric
apper
vocable
▁volontaire
bouches
rmures
▁conseille
parer
▁permettr
ige
▁attriste
▁fonda
▁aup
aisse
isseaux
entrerai
iver
chète
eng
▁déclarée
bler
▁déserté
tance
nal
usent
▁effra
pard
▁frai
acc
teau
▁chois
▁Attende
▁bla
ist
▁reviendr
eraient
incline
mman
nir
ulons
▁rappelleron
amar
donnent
alis
iateur
▁Jona
riquet
entraide
▁résid
▁emm
monde
▁vé
lures
euves
yan
gisse
▁évanoui
cités
▁soudaine
▁Dia
ko
▁fai
tachée
ouffre
idâmes
tach
▁égarera
justifié
ensité
utez
▁jalous
▁inimit
lage
slamique
tiges
olé
pouvant
gence
rié
▁hau
tale
iendront
jou
omis
enlev
imenter
foncer
▁incroyan
▁marchera
entende
euf
mu
rure
▁provena
yon
▁vivi
rendrons
▁concerte
ména
lots
fléchisse
▁dénigre
uli
▁rou
race
terie
▁cala
▁Déc
▁blanchisse
pentir
▁Témoi
▁rail
▁coutur
lien
▁gross
enivr
tels
▁parfumé
euses
ég
antique
isé
▁passerai
iés
▁id
eries
▁Bla
▁traverse
ïb
▁rein
dale
oum
▁mêl
▁Bart
réation
ourde
▁sta
Abs
bine
▁contrain
formation
ilat
enteur
▁étourdi
ratique
tem
▁chas
▁moin
onnier
brode
▁Ly
tendon
lla
▁assist
▁montera
yri
accuse
▁nav
▁op
▁discu
mers
ssâ
▁bâtis
▁cherchera
oreilles
▁Quelque
souhaite
▁mien
▁poursui
leurait
▁plain
ennemie
ayon
aché
ulé
▁Cons
oître
▁sag
nément
▁renou
▁figur
akk
Alla
▁The
nels
▁monts
▁saut
▁décrive
âd
▁vena
▁croir
▁Sera
orgue
▁proc
myt
ignor
rôle
entilles
iement
▁prép
▁pend
ains
▁lo
▁Jou
ouviez
sité
entrai
dy
ffronter
▁Prend
▁sacri
rise
▁prétenda
▁épous
rayon
▁tournai
▁iron
hâ
▁tou
▁agis
Cet
bre
oncer
achée
assurant
ignent
▁sente
▁sobr
▁bouilli
entrera
ster
▁incl
▁jeun
▁sign
oiron
▁noirci
ps
gissez
tag
franchir
▁arracheron
ôl
yiez
ting
éger
▁asc
ochère
▁viendron
sière
iches
agi
ssu
couvre
escen
ernie
▁accordâ
mie
lades
radi
▁vibre
auberg
▁provoque
dem
mportant
▁atte
▁lame
▁emme
iqué
phras
udriez
nel
iennent
appara
fs
▁circu
▁ci
▁Samo
crée
▁dén
tress
▁suiva
▁boiron
ogramme
osent
▁pardonnée
bie
▁rentre
▁désirai
isibles
ticule
▁prostern
▁Bad
▁étrangle
enser
préci
▁just
commenç
▁accomplissai
▁Monte
peur
ués
binet
▁rapproch
▁erre
▁vir
san
▁merle
fle
nien
▁taba
aré
▁Fe
renier
▁pers
▁Rus
▁relati
▁défi
ets
▁sanct
usa
▁copi
▁écla
tourniez
terminés
couper
introduir
▁her
nissez
els
▁enfle
ssif
ionnaires
connaîtront
▁Ben
▁mach
Elis
▁moust
empêchai
urément
▁rompe
forcés
pousse
▁impure
▁Ser
▁apparaîtr
▁revendi
▁déj
▁portef
▁maudi
▁hivern
▁origin
▁Coura
▁subissa
▁évite
rgence
▁réform
gistre
connaiss
▁obs
▁lapi
couverts
ulement
adores
▁be
ndriez
empêch
épuise
▁entreti
▁délaissé
accueill
▁stupid
▁Chasse
ven
▁ethn
▁perde
omène
dait
ara
▁Ve
ajest
▁croya
iso
dia
rachon
uté
▁désa
prémat
▁ment
moine
oles
alem
▁Rep
rir
▁conversa
qualifié
pôts
écher
▁porti
▁moissonn
énération
▁devien
disait
deur
▁écl
▁lapideron
mandant
menez
Hé
arques
▁vainque
▁Dés
▁drape
die
égè
▁ressuscitâ
hy
veille
▁appara
▁sup
▁obéissai
▁séduir
onnées
iv
▁entenda
▁déb
lesque
▁longanim
agie
▁mémo
rable
▁asser
▁annula
isage
▁prét
ctions
atteigni
iaux
▁centre
ob
▁recu
!..
▁appart
all
▁défa
▁rapide
roiront
aix
mali
omba
ormis
llante
▁voudron
▁conju
the
▁cit
errière
oye
▁int
▁taisai
▁posséda
hale
pend
umée
ça
reposera
▁pet
eilles
▁Da
▁enten
ssance
▁Prostern
ttent
ym
érat
ièce
▁exci
▁Pap
▁trac
rappe
leurez
serait
▁Fou
berge
pr
huma
fai
▁Mu
▁étrangl
sserie
tum
eté
rucifierai
ellera
rendrez
rère
voilée
tendront
▁inci
▁égorgea
rchez
offr
redire
arriv
cr
yau
▁reveni
▁assembl
ffret
erelles
▁flo
amassez
andi
joncti
▁aimerai
élation
Se
visage
▁affin
béissance
abaiss
▁participeron
éta
roulera
neu
fard
▁gui
▁concoure
imagine
leu
ppositions
▁dénonc
▁insta
unit
▁acti
onnais
gés
hamm
▁réjouire
njoncti
▁réfugi
ormez
▁préju
▁har
enait
▁zé
▁prêta
nformez
▁fléchiss
ti
insulte
▁gorg
▁différe
ardon
▁attendai
▁inc
isson
▁personnel
yra
yeur
gn
battez
▁tordr
▁courtis
▁annonçai
ssés
provision
traire
auc
Messie
▁interrog
▁demeurera
ann
▁Aga
▁enverr
▁réunisse
▁accabla
cet
uand
tenir
▁dispos
▁jar
han
arrêtera
nqu
▁intentionn
▁canti
▁bell
invit
mme
▁â
▁persévéra
Mad
▁sé
▁travailla
▁décè
iter
▁mûri
vance
▁cô
▁glo
▁cau
étournez
▁éparpille
nu
▁dia
lieras
cir
ûte
por
▁étrang
sitôt
aillir
muni
▁mala
▁grandiss
unis
uffée
▁Su
▁cami
ayer
▁traversai
preniez
munit
idées
couru
rat
açon
»;
usion
ispu
intégri
écoutai
▁crai
▁oisi
soi
branle
tiez
veras
▁surcha
not
▁rappela
▁haïssa
▁moqueron
▁perm
▁Lesquel
asso
nâ
▁discr
▁contr
hr
Ara
ry
▁aid
▁accueill
▁év
ieront
aquer
honorez
▁Four
leusement
▁ennemie
▁déni
Ju
▁rendî
▁devr
▁assaille
▁confirmat
ards
idi
disparu
enn
▁réjouissa
Ob
reilles
tter
▁dépl
▁vendeu
itez
▁complote
▁froi
cati
emment
aissaient
▁allo
eh
▁descen
▁souffran
▁Tr
▁fouette
gez
▁parfai
ord
amment
▁oliv
▁Év
▁Pl
▁rét
ches
connaîtrai
amenant
▁Donn
▁incitat
dépendance
▁opéra
▁bouill
▁aigri
▁craigna
eigne
vergence
▁louan
rme
cide
dication
To
▁He
▁Don
▁sortire
arrach
▁assemblé
▁ang
tôt
levés
▁proclamai
▁Ti
ètement
xe
soir
▁souffri
venu
▁opprim
serez
hrist
nons
efois
driez
positions
endr
rt
▁doc
▁paresseu
rne
▁ann
▁Ad
jetant
ngue
uraient
▁discerni
gardiez
ndit
▁appell
meurent
laissés
▁ing
illeurs
▁empêcha
portèrent
▁redresse
uché
br
érit
net
quérir
associeron
iff
ensez
enda
ises
nellement
posé
▁inso
ejetant
mites
thlé
evant
▁immé
sirent
▁reniai
▁envoyâ
issé
▁el
uni
▁ruin
▁traiti
▁administrat
▁existen
▁sig
▁tem
▁surveilla
nter
▁permetta
▁croissa
scendants
▁Décr
fuyant
randi
nent
anger
abb
cou
▁arrachai
ersion
fure
▁verg
rtis
▁décou
▁conserv
▁mourr
andise
tendue
▁tét
bat
ictions
▁priv
yl
vécu
ygi
sole
▁tuée
▁unie
élanc
▁deveni
▁répondron
▁introdui
tablissez
▁mini
▁tonne
tresse
voient
aiser
▁savan
enan
gog
umer
min
enseign
TE
ternité
garer
ontèrent
Dieu
▁utilis
▁recevi
éné
▁brui
▁entreten
▁surveillan
ries
ûl
isissez
▁connaîtr
▁obligat
éti
susciterait
eras
exer
stal
attes
▁Royau
▁étendi
▁chau
faits
▁persévéran
▁exi
ala
wa
gents
ouvant
▁entendr
▁vogu
assées
éables
ancent
▁médis
▁appa
aude
spère
ume
▁Mac
hyp
eureux
açant
▁résu
▁désesp
yn
âchez
tournerez
om
gicien
ull
continu
▁mendia
habitation
▁choisiss
itent
Jou
▁tribuna
rosternez
▁déman
lecteur
Comm
irait
rchi
court
▁bouillo
▁sortiron
uda
llons
achèver
ppelant
▁té
▁da
▁Bal
▁satisfai
usqu
Ô
Ê
W
ë
B
continue
ç
