<blank>
<s>
</s>
▁e
▁,
▁ko
,
▁on
▁.
▁ɓe
.
i
'
▁ɓen
▁o
▁ka
ɓe
▁mo
▁Alla
▁fii
▁
▁wi
▁no
▁Ko
▁:
a
o
▁maɓɓe
▁mi
▁kadi
de
▁«
▁woni
▁makko
▁si
▁O
e
▁ɗun
▁»
▁mon
▁nden
▁kon
▁men
▁ɗin
▁ɗen
n
-
▁maa
▁yo
▁"
ɗo
▁an
▁Iisaa
▁nde
▁Men
▁On
▁mun
▁non
▁yimɓe
:
u
▁kala
▁fow
▁E
▁nder
ii
▁hoore
▁ngal
▁Si
▁?
on
nde
▁wa
".
▁a
say
▁haa
▁!
ee
▁Joomi
▁hara
gol
▁[
▁yi
▁kono
▁Kono
▁wanaa
▁leydi
▁ɗon
▁Ɓe
▁ɗi
▁ɗum
▁haray
en
▁Mi
]
▁ngol
▁Pellet
▁hay
ugol
▁onon
aa
▁wano
▁sabu
▁waɗi
▁ndin
▁ma
▁immor
▁Ɓay
▁hakkunde
aali
▁(
▁hiɓe
▁en
no
ɗon
▁oo
▁Awa
▁amen
?
▁Almasiih
▁won
▁Makko
▁min
▁wonde
▁ɓuri
▁kanko
▁ɗoo
ay
)
▁lan
▁huunde
▁goo
▁pellet
▁aduna
▁himo
ude
▁gooto
▁tawi
▁ndun
▁hinaa
▁Tawi
▁hino
▁Allah
;
ta
▁alaa
▁ɓaawo
▁wota
▁am
▁tawii
▁Kanko
▁dow
oowo
▁A
▁ngun
▁woo
▁miɗo
▁ɗe
ma
al
▁goonga
Ko
▁yeeso
▁kammu
▁kamɓe
▁woodani
ke
gal
▁Joomiraaɗo
▁gomɗimɓe
ji
▁jamaa
▁tigi
▁lepte
▁Nde
▁goɗɗo
▁laawol
▁hiɗon
jo
▁Mo
le
▁wonaa
noo
▁Min
▁Kal
▁andi
▁Ruuhu
▁honɗu
▁ɓay
ɗe
l
▁nii
▁ɓerɗe
▁tun
▁gomɗinal
▁Sariya
▁wonii
▁Maaku
▁Ɓen
▁ton
▁awa
▁kan
▁taalibaa
ere
▁ɗan
▁Amen
▁ngon
un
▁lam
▁Hi
jaabii
ooɓe
ike
ɗi
▁moƴƴere
ɗaa
ka
▁wonnde
▁laamu
▁hari
▁sadaka
▁saa
▁ɓee
sa
▁ari
juuɗe
▁saare
▁jeyaa
▁maaɗa
▁K
▁majji
▁ɗiɗi
▁fewndo
▁Aayeeje
▁P
▁golle
▁Muusaa
▁debbo
▁moƴƴi
▁suudu
▁mari
▁neɗɗ
▁faalaa
ri
▁Nulaaɗo
▁ngurndan
▁tuma
▁Allaahu
▁maaki
uusu
▁yahi
ngal
▁kammuul
▁Pe
?"
▁kun
▁Gomɗii
▁homb
▁honno
▁ɲa
re
▁ɓandu
▁ɗiɗo
▁Yahuudiyankee
!
ɗen
uɗo
tr
▁mooɗon
▁Ɓ
aade
▁innde
eji
aaki
▁na
oo
y
▁peewal
▁ndi
▁Yo
▁jeyaaɗo
▁yedduɓe
▁wonaali
▁musiɓɓe
an
▁ɓur
ko
▁malaa
eede
▁ley
wo
▁Ka
▁ɓernde
▁bone
▁mbo
▁mum
▁ndee
▁reft
▁yiite
▁rewɓe
▁mayre
▁jemma
▁wonan
aama
▁ndu
▁woɓɓe
▁ado
▁kuuɗe
awto
maa
▁No
ngol
▁ndiyan
ni
▁jooni
ataa
▁sappo
▁taw
▁mawnde
wata
▁ɓiɓɓe
▁maande
aaji
▁yottinoo
uulu
▁m
agol
▁Yeru
▁wona
▁hande
salaam
▁giggol
▁Kaa
di
▁wonu
(
▁Ɗun
▁haqiiqa
▁Hin
▁junuubu
▁fota
▁Wot
eteeɗo
▁Hara
▁Ñalnde
▁jom
▁Ibraahiima
▁Deftere
▁ɓiɗɗo
nguɗi
▁buy
iila
▁Him
▁baw
▁gila
▁Ma
unoo
ata
iri
▁ɲalaa
▁njoɓdi
▁adii
▁ƴetti
▁andaa
▁Wat
taa
▁Annduɗo
▁yoga
▁arii
▁juulird
▁wonkii
▁Baaba
annde
▁waawataa
▁hi
▁Moƴƴo
▁Reft
▁nokku
▁gomɗinɓe
▁ho
▁lanɗo
▁tati
▁wondi
▁mayde
▁yurmeende
▁hin
▁yiɗi
▁faamu
ibaaru
faade
▁Am
▁ɓ
▁Yahuudiyanke
du
ikaaɓe
▁mawɗo
ani
ɗum
▁moƴƴude
▁gite
▁Seniiɗo
ikaajo
▁wonɗo
▁daaluyee
▁Jom
▁worɓe
▁Nulaaɓe
▁Menen
▁lo
▁piiji
▁An
▁balɗe
▁nanii
▁waɗude
▁ngen
▁n
▁anndi
▁Yaay
▁mu
▁Ɓiɗ
▁mayɓe
▁heeferɓe
▁menen
▁waɗii
▁ben
▁Wa
oyay
▁k
la
▁Fariisiyaa
▁neɗɗanke
▁yumma
li
h
je
na
▁F
▁ɓiɗɓe
▁musiɗɗo
▁gorko
▁gomɗii
▁ngu
▁M
▁waɗa
nii
▁tawata
▁andini
ɓɓe
▁Onon
▁telen
▁alanaa
▁kongol
nooɓe
▁haala
▁baabiraa
uunu
▁yeru
▁wondu
Men
"
otaako
▁cappanɗ
m
▁faale
▁hiɗa
▁seeɗa
▁Tum
▁ƴiiƴan
▁yamiroore
▁doole
▁yamiri
ohoojo
▁ɓeya
▁haani
▁H
▁ɗii
ol
▁jokki
▁noone
▁laana
ndu
▁gaani
ru
*
▁jeeɗiɗi
▁tawnoo
aji
▁diiwal
▁Hay
▁Malaa
▁wonnoo
ajo
▁laakara
▁ca
▁hommbo
▁Darngal
▁ɓuttu
▁diina
▁maw
oore
ndi
▁anndaa
▁Ɗum
awna
▁aldaa
▁Sim
▁yalti
▁maandeeji
].
▁duuɓi
▁sahaabaa
▁wonanii
],
▁nay
▁heɓi
▁w
▁tooñooɓe
Alla
▁Ben
▁N
Joomi
▁Fir
▁woodanii
▁so
▁noddi
▁poomaa
▁kulol
▁jawle
▁mangu
▁gomɗini
immi
▁aru
aynoo
ɲun
▁deftere
),
▁windii
▁iwri
ra
▁S
▁Yiite
▁Joo
▁waɗugol
▁kin
▁konngol
▁golli
▁;
▁laatino
▁jinna
▁bireedi
▁Yaaquuba
▁mayri
▁koyɗe
▁honto
si
▁Isra
▁tawde
▁h
▁kisan
ngin
▁kisiyee
▁misal
▁ganndal
▁huli
te
▁yani
uɓe
▁hooree
▁suufaaɓe
▁ngii
▁waawi
▁laati
ki
▁ndaygu
▁I
▁laat
▁naati
▁dental
▁weltaare
▁Ibuliisa
▁aray
▁mofte
anii
▁fedde
▁ñalnde
▁julde
Aade
▁nani
▁few
▁immini
▁jaabi
▁hewtii
▁conc
rde
▁ahadi
▁wo
tike
▁Daawuuda
▁taho
▁neene
▁woodi
▁Jaliilu
▁Won
aaɗo
▁ɗam
▁leggal
▁ɗee
am
mɓe
▁gomɗin
jungo
▁Fooluɗo
ana
ure
▁f
▁majje
▁sifa
▁ngo
▁feere
▁gaay
▁annabaa
▁landi
▁gomɗinɗo
▁ɗuuɗude
▁nge
▁darii
▁ɗuuɗuɓe
▁tor
▁hon
▁Maa
ngu
▁oya
▁ɓadii
▁hawa
ftal
▁ara
▁b
ah
▁fayɓe
▁geɓal
tu
▁waɗ
▁ɲaamo
▁jooɗii
ton
▁waɗu
▁junuub
ira
▁acci
▁naange
ti
tee
▁tampere
▁yaha
▁ɲaaw
▁adinooɓe
▁jiwo
▁bee
ngo
ya
▁gomɗinaa
▁jogii
=
oton
aare
wal
jinnaaji
▁Jahannama
▁tuubuubuyee
▁ruttorde
▁Yahuuda
▁tagi
▁fenaande
▁meere
▁enen
▁nafa
▁J
▁bela
▁muusuɗe
jan
▁laamateeri
▁mawnude
▁feewuɓe
▁iwi
▁Anndee
▁tagu
▁woondiri
▁tikkere
▁jullere
▁leƴƴi
▁le
▁waɗan
mi
▁Hinnotooɗo
▁kaŋŋe
▁ɓeynguure
Si
▁woniri
▁heen
eɗen
▁B
).
hooreejo
▁moƴƴo
▁ndiyam
▁majjere
▁nangi
▁heɓii
▁Jey
▁ɓural
▁du
aana
▁Ñeeñuɗo
▁njaram
▁Pi
▁ɗuum
▁wonani
ooje
▁laatii
uji
▁Al
▁nguurndam
▁pelle
▁tooñuɓe
▁dey
▁kurkaadu
▁takko
▁ontigi
E
▁Wo
lmasiihu
ayno
▁lorra
▁ɓadike
dii
▁boni
▁hulu
Pellet
▁seedee
▁umm
ree
▁daali
▁ar
▁ɗaɓɓu
▁hiɗe
▁ɗuuɗi
▁baharu
▁fodoore
▁kaaƴe
▁giɗo
nooɗo
▁cuuɗi
▁iwru
▁yamir
▁wonndu
▁waaju
▁tiiɗi
mmi
▁humondir
▁jann
Mariyama
▁reweteeɗo
▁la
etee
▁maayii
nnde
in
wii
▁t
▁Karamoko
▁ñalaande
▁Haforoowo
▁mbeleeɗe
▁jokku
aanaare
▁addi
▁)
▁jannoo
etaake
▁Meɗe
▁goɗɗu
▁Haa
▁joom
▁teddungal
▁galle
▁ngesa
▁battane
▁Julde
▁neemaaji
▁Bar
▁Yuu
▁and
▁Tun
r
▁Alqur
iji
Min
to
tugol
▁paykun
▁lewru
▁Aljanna
▁sikke
▁hayre
▁Saa
▁waɗani
▁tama
▁s
mo
▁kaso
▁wiiɲu
▁Heroodu
▁bonii
▁Nuuhu
▁wootere
▁Enee
▁torii
▁yiɗaa
aaɓe
▁hewti
oy
ino
▁tawno
▁wonugol
▁Y
▁magge
▁darja
▁jamaanu
▁baaba
▁feewuɗo
▁gaynii
▁j
tii
▁ñalorma
▁nokk
▁Pu
▁ɲaawoo
▁dokkal
▁jowi
▁fawaaki
ande
▁Oo
▁waɗay
▁wowlu
▁nduu
nee
▁maayo
▁maayi
▁ruuhu
ete
▁moƴƴe
Mo
▁wuuri
▁Hiɗa
▁arsike
▁poomayanke
▁se
▁sulfu
▁pittaali
▁fiyaaku
▁-
▁wonɗon
▁ɲaam
naa
▁jibini
▁gomɗinii
▁jaab
Ɗum
▁Baab
laaji
▁bolondaa
▁Defte
▁Room
▁guluuje
▁heewi
▁Fi
▁bonɗi
oɗon
▁aaden
▁ŋalɗi
oyta
▁me
▁ɓeyngu
▁Ba
▁Anndi
▁goonguɓe
▁jey
▁goonɗinɓe
▁honɗum
▁wel
rii
▁Yim
anee
▁sikku
▁tawa
▁tamm
▁ja
▁wonay
▁Laati
▁bakkaatu
taako
▁W
▁seytaane
▁hoolaare
▁gundoo
▁Yuusufu
▁jannde
▁yahude
▁maayde
▁heddii
▁muuyi
▁bon
▁ɲaama
▁wuurir
ral
hanna
▁niwre
▁jurriya
▁njoddi
▁gomɗuɓe
▁golloton
eeji
▁Taw
▁wond
▁Muuyi
anaa
orde
▁mbaadi
▁heɓu
▁hend
gooto
ndude
gu
▁y
▁boobo
▁fodaari
▁faasiqiiɓe
▁noppi
▁fello
▁wonti
▁Har
▁moƴƴiri
▁moodi
▁neema
▁honɗ
▁Goonga
ndeeji
▁naɓi
▁he
s
▁Mbel
ama
Mi
▁laa
▁fawii
▁wowlan
iiya
irta
▁canɗi
▁Ɓi
▁Sinn
▁moƴƴuɓe
▁iw
▁miijo
t
▁ɲaametee
▁to
▁Hul
laat
▁lette
wol
▁wowl
▁baali
uure
▁kullii
▁annabaajo
▁Jooma
▁maggal
▁daande
▁kaalisi
▁nan
▁ba
ali
▁woori
▁D
▁ne
▁yaadu
hi
do
▁ardi
▁wulaa
usa
▁tippud
▁kaafa
▁faa
▁sagalle
▁jawdi
▁weendu
▁Aljannaaji
▁laato
▁defte
▁gese
▁kaawake
▁wara
▁hiɗi
▁Lepte
▁niɓe
▁maraa
▁gand
▁hundu
▁yeddi
▁fa
▁ngoni
oɓe
▁kuugal
▁geece
▁laabi
▁lajal
▁kaa
▁ayɓe
▁Reweteeɗ
▁Bone
▁ɗofto
▁okki
▁ha
▁fawi
▁immi
▁Ɗ
▁hito
▁mbi
▁longini
uɗaa
▁dogi
aajo
▁su
▁hul
▁rew
▁waɗiri
▁heɓir
oji
▁Nanoowo
▁jertinoowo
▁ɓannguɗo
▁heɓaali
▁leɗɗe
▁dolokke
▁ki
▁waɗaali
▁fuɗɗ
ulu
▁haaju
oode
aande
▁ardu
▁hujja
▁wondunoo
ika
ano
▁ɓurɗ
▁fenni
▁Alaa
▁okkaa
▁yah
▁ga
▁koy
▁sirkooɓe
▁Yu
▁kene
▁Immo
▁faam
▁Daali
▁miijoo
▁hoɗo
▁ɓornii
▁tag
▁ndaara
▁ña
▁moƴƴan
▁humondiri
▁jeyi
▁fahin
▁imm
Enee
▁newnan
be
uɗon
▁ñaamo
▁acc
▁yewta
▁Israa
▁dambu
yaagal
▁sikka
▁te
▁jokk
▁jaɓ
▁keynguu
▁ballal
▁tedduɗo
▁ɓanngunde
▁bomɓe
▁Ɓural
▁Aadama
dude
▁jonni
▁waɗata
▁nguu
▁nodda
noɗon
▁aran
Ontuma
▁toon
▁yedduɗo
▁addani
▁Baalu
▁jippini
▁denndaangal
▁feccere
▁Taguɗo
tuusa
▁fiyaake
▁mba
kun
▁Aaya
▁Yurmeende
▁Goɗɗ
▁faw
▁asewe
▁haɗi
▁sakko
▁bonɓe
▁yeɗi
▁nano
▁feɲɲinan
▁maccu
▁yiɗu
▁ɗaɓɓ
▁yiltiti
▁naat
▁junuubi
O
▁mbarjaari
▁toragol
▁laaɓuɓe
▁jaka
▁bonɗe
▁yiitere
too
▁fowtetee
▁nuli
▁Woni
▁andu
eeli
▁wowla
▁T
iɗɗo
utal
▁waɗir
▁ƴett
▁g
▁Aray
▁Anndu
▁Ha
▁haal
baasi
▁rewru
▁bind
▁hannde
otee
▁yaari
▁ndii
bindi
▁koode
▁sakkitor
▁mbela
iiɗo
▁Humpitiiɗo
▁teemedere
▁seeditoore
▁winndere
▁colli
▁Iil
▁mayru
▁reweteeɗi
▁jinaa
▁Haray
iilayankee
▁arata
daasi
▁ndaari
▁wonaano
▁suka
▁Ɗi
▁ɗunɗo
▁ndaar
▁nayo
▁moƴƴ
▁Tim
▁yonii
▁cuɗaari
▁yenaande
▁Naasira
▁satteende
▁hormorde
▁yeesoojo
▁sanamuuji
▁yahugol
aaka
▁arunoo
▁Hiɗ
▁sera
▁G
▁jokkuɓe
▁p
▁feƴƴii
▁ɓalli
▁waaj
ala
▁maaya
▁halki
iiɓe
ɗoo
▁feɲɲin
▁yiila
▁ballo
▁bonnere
aani
?!
▁wirnii
▁anndu
▁wuur
hun
▁yeddii
▁jahannama
▁wooturu
▁giiɗe
▁altindiraa
▁focciingol
gootooɓe
▁miskin
▁joomiraaɓe
▁Lam
▁ɲaamu
▁fus
▁awdi
▁teddin
fennuɓe
ɗun
▁wur
."
Menen
▁mantor
▁soo
angal
▁anndude
wulu
raa
▁Ndaar
▁hiɗ
▁hare
▁mbatu
▁gasa
▁yaadi
▁gaa
iiji
▁aljanna
▁lebbi
▁baŋŋe
▁ñaawoore
▁laaɓal
▁oon
▁muuyani
▁ardotoo
▁firo
▁mise
▁Laa
▁Wan
▁mar
▁land
▁ɗoft
▁tan
▁dakamme
▁Jippini
▁fi
da
lla
▁ta
▁gaño
▁naata
▁neemoraaɗi
▁nooneeji
▁Reen
▁yaa
▁dewal
▁rewugol
ooji
▁faggitii
▁loot
otoo
oosi
oya
dugol
▁arani
▁go
▁yeɗa
▁faandii
▁laaɓi
▁furee
▁bum
▁jeeji
▁yeɗ
iya
▁yaltin
▁salmini
ngii
▁Na
uul
▁yeddot
▁hoɗu
▁heɓa
go
ewnii
▁annduɗo
▁Okki
▁Annabaajo
▁Bimbi
▁fittaandu
▁pewje
▁juulirɗe
▁muuɗum
▁fenooɓe
▁ɗuuɗuɗi
▁jiyaaɗo
▁ɗuuɗuɗo
▁keeferaaku
▁Hinnorante
▁Fe
▁wowli
▁suɓii
▁nodd
▁sen
ankaaku
▁do
fii
▁laatinoo
▁haanaa
▁pucci
▁ontuma
▁sella
▁yahu
▁yottin
▁tiiɗund
▁da
▁addan
▁anndin
▁Yi
iɗo
▁yeɗaa
aɓe
▁ngam
▁watti
▁ɗaɓɓa
▁heɓay
▁jogitii
▁ronki
▁tanƴini
▁fo
On
▁foti
▁Misira
▁heege
▁gollaynoo
▁laakun
▁Yurmeteeɗo
▁ɲaw
▁Seytaane
▁Laamu
▁Sulaymaana
▁sunninaa
▁guri
amiina
▁jeegoo
▁yedd
▁warugol
▁kurkaa
▁dokk
▁waajo
raali
▁Yawtan
!".
iree
▁naatu
welo
▁fe
ije
▁ɓii
makko
taake
▁co
▁maaku
▁yaltini
▁tawdaa
▁aroyay
▁lutti
▁jogito
▁wonunoo
tooɗo
▁moft
tooɓe
▁han
▁wonndi
▁dand
ayɓe
d
nge
▁barki
ey
▁genaale
▁Taalibaa
▁senngo
▁wakkilaare
▁bunɗo
▁Maryama
▁ila
▁ɗoftike
▁suddiiɓe
▁Haaruuna
▁ngoo
▁mawndi
▁liƴƴ
▁moƴƴinooɓe
▁gomɗintaa
▁joganii
tagol
▁bonɗo
▁Wi
▁Nul
▁njan
▁sariya
▁yamiroo
▁huutor
▁war
iraaɓe
▁njeeɗiɗo
▁anniyee
▁Eeh
▁annabi
▁immintin
▁ard
atah
▁Fili
▁mbii
▁addanii
usiɓɓe
▁Lanɗ
▁Masedoni
▁pellital
▁mbawdi
▁kiikiiɗe
▁hitaande
▁Yuusufa
▁gaɗa
▁duŋayee
▁nelaaɗo
▁arsiki
▁Annabiijo
▁hayruɓe
▁Konngol
▁hulooɓe
▁waawaali
▁jippin
▁duule
▁makkun
▁majjuɓe
▁d
▁yottingol
iyii
▁ɓurti
▁galleej
▁yaasi
▁andunoo
ɗan
▁yewtu
taare
▁malaaɓe
yo
▁hand
▁woɗɗitii
▁himme
▁fodi
▁yara
▁jikku
▁reedu
▁hawri
eɓe
koɗooli
▁faamude
uuna
▁yewti
▁Fewn
uru
▁noon
▁janfa
▁dar
▁les
▁reen
▁rewa
▁suno
uuji
oyte
▁heewu
▁nd
irnoo
▁holli
▁welo
▁neeɓi
▁Mbo
▁itti
annoo
▁waru
▁Ho
▁jippinaa
▁hum
▁golla
▁nanngi
▁caggal
▁duumotooɓe
▁henndu
▁nunɗal
Wat
▁Alah
▁tere
▁inɗe
▁woondoore
▁naafiqiiɓe
▁Senayee
▁bewre
▁moƴƴa
▁koneeli
▁waaw
▁ɗ
▁araali
▁fuɗɗii
w
▁ɗowdi
▁yewt
▁anditi
▁waɗunoo
▁ron
▁l
▁ñaame
▁jan
▁fee
lorma
aano
▁yalta
▁ɲ
▁sa
▁Jamaa
▁Ar
▁gollata
▁Bal
▁hewtoyi
▁hollu
rdu
▁timmu
▁jaa
ron
▁hoor
▁Yahu
▁wela
▁sujjan
▁majjini
▁haɗa
▁Dand
▁weltor
’
▁mbilewu
▁jarduk
▁annoora
▁Laawol
▁yeddondiral
▁kulle
▁gootal
▁bonnooɓe
▁rewooɓe
▁Giɗo
▁laaɓuɗi
▁mawɗe
▁heewuɗo
▁Gi
▁Gereekiyankee
▁andee
▁daalani
▁Janto
irde
ɗam
koy
nay
▁yett
ttudi
oyto
eteende
▁tooñe
Alqur
▁ƴi
▁laɓɓin
▁waɗitii
▁sikki
ora
▁Ñal
abaajo
▁lew
▁tooñ
ndori
▁jo
▁ɗoftii
▁immo
nno
▁rutt
▁feewi
▁laawi
▁yaltina
▁yamiraa
▁hen
▁firi
unooɓe
▁jogor
▁daal
▁wonata
▁yiɗir
▁noogay
▁adadu
▁Luutu
▁teewu
▁ɗatal
▁mawnin
▁duulere
▁coggu
▁hakkil
▁gollooɓe
▁alah
▁mantoore
▁jebbiliiɓe
▁teddude
▁lampu
▁wirniiɗi
▁Annabaaɓe
▁hewt
▁wuuru
ombo
▁timmin
▁salii
▁wat
!"
▁layyor
▁taguɗo
▁toɓo
▁Nge
▁timmi
gii
▁maayataa
▁re
▁Kere
▁goonɗin
▁hooti
▁hool
▁toro
▁nul
▁immintini
▁tentini
▁jonn
Hara
atike
▁wonir
▁waaway
▁laator
▁wakkilini
wi
▁wonduɓe
▁fennii
▁naatir
▁Fil
▁ƴawi
▁wonira
▁faalira
▁moƴƴini
kuru
mbere
▁fitina
▁Jippinaa
▁weltori
▁wowlata
▁kurkaaduu
▁taway
A
▁jiccii
ingol
▁ella
▁hol
▁nawliigu
▁jeetati
▁bimmbi
▁tutateeri
▁ƴibbe
▁ɓoggi
▁yaafuyee
▁ɓanngannduyeeji
um
▁toraa
▁seeɗaaɓe
▁waree
▁goɗɗ
are
▁miran
▁rewude
▁ittugol
▁arma
▁waɗuɗo
▁wari
rnoo
▁laaɗe
▁suuɗii
▁Hey
▁hittuɗ
▁jaŋtaa
▁heɓataa
anooki
oyi
▁rim
▁jogitor
▁marɗo
naaki
▁ngalu
▁jiyaa
▁okkor
uɗi
▁be
ssaaq
▁maanaa
Arma
Anndee
▁wowlee
]:
▁okkii
▁Yaa
unde
tah
▁pet
▁ji
▁Kam
▁waɗana
indiri
daa
▁wall
▁naatata
ɗa
ewndo
▁duumii
▁iwruɗo
▁ɓanti
▁kul
▁wakkilin
▁felliti
▁sokol
▁joomi
▁mehi
▁fewjoo
▁yahay
▁ɓeyd
▁geɗal
▁masiibo
▁eɓɓoore
▁Hattanɗo
▁kuddi
▁ɗate
▁subaka
▁nowru
▁rewoton
▁yewtere
▁accu
noowo
▁angiri
▁heɓira
▁fof
▁suɓaaɓe
▁yaaru
▁Aaz
▁L
▁jang
▁gomɗinaali
▁ɗiɗooɓe
otooɗo
▁moƴƴal
▁mawnintinii
ebbo
▁Wuur
▁feeɲani
▁hawroy
▁tori
▁ɓata
▁bo
otooɓe
▁hakkee
ba
▁dew
▁fool
▁Ɲa
▁ng
▁waɗtita
▁tipp
▁tooɲ
▁Wonaa
▁gollir
ipu
reeji
▁mawni
▁jammaa
▁niɓɓi
▁laatoo
nndo
▁andir
▁jam
▁wonann
▁waɗaynoo
rta
▁meɗ
oyii
▁jarni
▁bandiraa
▁pe
imɓe
▁waɗanii
▁yaltu
▁feeɲi
▁bi
▁annde
▁janan
▁bonn
▁ter
kiiji
▁c
iraa
▁taƴiti
▁nun
aaya
▁heɓ
▁yar
itii
k
ndugol
▁yamirii
▁fewnata
▁woondir
rude
▁nafakka
▁koyɗol
▁ñalngu
▁hasboore
▁Fodoore
▁ɓadaade
▁dimɗe
▁Maaɗa
▁wallooɓe
▁laaɓunde
▁tawaa
findee
▁hulataa
Fello
ku
▁muññiiɓe
▁Mawɗo
▁faala
▁weelaa
▁Banii
▁Yeddu
▁laaɓuɗo
▁faalaɗon
▁Ta
▁boneeji
▁maggii
▁tawɗo
▁gomɗinooɓe
▁dandu
▁gomɗi
▁tageefo
▁nanude
▁huccitii
▁nawni
elajo
▁wonndema
▁jokka
▁arano
▁himm
▁yahata
ina
▁Ndee
▁humpitii
▁ɓurɗe
lepte
nabaa
Muusaa
▁payk
▁La
▁mofta
ammi
▁sel
maɓɓe
▁ya
f
▁ardii
ndondi
▁habbi
▁jaɓi
▁bel
▁fodd
iipu
▁maayu
▁wonanay
▁fewni
▁wonɗe
▁waɗaa
▁De
▁Hina
▁keyee
mon
▁annda
▁fel
▁cal
▁taƴa
unoɗon
▁tabiti
▁moƴƴin
▁Anti
▁aroyi
▁moƴƴu
▁jeenay
pa
▁maadi
▁andin
▁wattan
▁Ast
▁halfinaa
▁fot
▁sunnine
?".
▁de
▁mbullaari
▁Damaasi
▁gollaynoɗon
▁ɓabbe
▁abbere
▁ñalawma
▁ngelooba
▁noddaandu
▁ɗoftaare
▁mbileejo
▁batte
▁Ñeeño
▁gabbe
▁gire
▁golloowo
▁baafal
▁koyeera
▁muñal
▁welsindiiɓe
▁talan
▁ɗoftagol
▁yeɗii
▁bonnugol
▁tampi
▁mawngal
wto
▁Hannde
▁ɓeydi
▁Zab
▁wooto
▁juulir
▁kibaaru
▁hoyn
▁tu
▁nanu
▁newanii
▁jomba
oytaa
▁Salminan
▁jaɓu
▁yamira
▁ƴettu
▁seed
▁dii
▁yahaa
▁aani
ondiral
▁fewna
▁ɓangin
▁Feewu
▁maayɓe
Ee
▁Sa
mba
▁hoɗ
▁jogit
ga
▁nafataa
▁toɗɗi
▁tiiɗu
▁yedda
▁ƴantoo
woo
▁tew
▁faalanoo
ɗɗo
▁ñaama
iti
non
▁ngaynaako
▁laatora
▁rewi
▁jertin
▁hittu
▁majjii
▁Gomɗin
aatu
▁itta
▁laam
▁woondira
▁Ɓa
▁Too
ereeji
uno
▁laaɓ
▁ittu
▁luttoo
▁may
▁makki
▁Yur
▁funnaange
▁Efeesi
▁ɓanndinke
▁muuseendi
▁Seezariiya
▁sanne
▁meetelol
▁hoodere
▁liital
▁toɓɓere
▁remooɓe
▁weldiiɓe
▁dinaruu
▁haqqiltaa
▁saɗtuɗe
▁heeranii
▁tippir
▁adda
▁Miim
ayeeje
▁nanataa
▁Nulu
▁werlii
▁gollude
▁Mariya
▁Gooto
▁hollugol
▁rewata
▁toode
▁waɗooɓe
▁bugii
▁galo
▁dimo
▁leyɗe
▁tiiɗude
▁Tii
▁okk
▁anndon
▁ɗiya
▁ñaam
▁fewn
loore
▁Kaf
▁nganndi
▁junuubankee
▁heɗ
nugol
▁jibinaa
▁maakani
▁hoyna
▁goongo
Ɓe
▁wahayini
▁taa
taaki
▁tuggo
▁jaɓii
▁arda
▁ɗu
▁lamndo
▁acca
▁nanunoo
▁junuubanke
▁junngo
▁sankaa
▁itt
▁laɓɓina
▁wayl
▁acciti
▁jeyanoo
▁joginoo
▁ɲaami
▁yurmaa
▁tooñi
Allah
▁yalt
▁sellina
▁Winnd
▁fewndiiɗ
aango
▁timma
Gomɗii
hu
jiwɓe
▁naɓa
▁mottondiri
rɗe
▁jogiti
▁watta
▁fu
▁jogori
▁immintinee
masiihu
oɗaa
eten
▁yiiru
▁jaɓuɗo
▁ye
tataa
▁ɗenngal
yaaɓe
▁anndee
▁jal
▁En
▁baki
▁add
▁waɗataa
ori
hoore
▁tata
▁ɲalla
yee
▁nafata
▁hersa
▁yeey
naali
▁darn
taade
▁tippii
▁haanuɗ
▁ɲokondo
▁miɲɲiraa
▁Yuunusa
▁buruure
▁ladde
▁loopal
▁Peewal
▁fetere
▁murtal
▁ñaametee
▁weeyo
▁deedi
▁ɓannguɗe
▁fanɗude
▁goote
▁dame
▁paɗe
▁moƴƴuɗi
heɓugol
▁sattuɗe
▁cemmbe
▁feddeeji
▁goɗɗum
▁gonɗi
▁juulde
▁laamɗo
▁siforii
▁hoolii
▁yaltugol
▁ɲaawir
▁Baw
▁fanɗi
▁jog
▁iwdi
▁timm
ahuum
▁yooli
▁haanunoo
▁konu
▁Yah
▁ngaluuji
▁waalii
▁In
▁janna
▁janani
▁gay
▁toŋan
▁nang
▁maamiraa
▁heedo
suddiiɗo
▁haɗata
laasi
▁hayfin
▁windan
▁aade
▁happu
▁daɗndi
▁tiiɗ
▁tagir
▁udditii
▁hendi
▁miij
▁tippi
eejo
▁fottir
▁alba
lugol
▁hatonjin
▁hendii
▁jeye
▁bonki
▁Su
ern
heɓude
▁eɓɓan
▁mban
▁jonnaa
▁njow
▁feɲɲinanaa
▁Jo
anoo
▁wulla
▁hollay
▁feeñi
saaya
▁sellini
▁yaltata
▁hawti
▁laaɓaa
▁ƴetta
▁meemu
▁tamp
▁joge
▁warir
▁jannu
ƴe
▁tumb
▁jogoree
▁hanno
▁arti
▁yan
▁danndi
▁doga
▁feƴƴ
▁miiji
▁hu
aawu
eeɓe
▁Maande
eppe
▁nandolla
▁manta
▁ɗaanii
iwol
▁ndeen
▁wul
wa
▁tuubu
▁wowlani
▁Me
▁inni
▁seer
dayn
▁jokkay
▁feɲɲinani
b
ray
bi
▁ɓoylii
▁yaltii
▁Sab
▁Yahe
anay
▁wontir
▁jarrabuyee
▁curki
▁ɗemngal
▁ngayngu
▁newaare
▁ngujjo
▁nawnuɓe
▁noddaa
▁nanuɗo
▁bagi
el
▁waɗirani
▁Tedduɗo
▁ñiiɓirde
▁baaso
duusi
▁sonnaajo
▁bajjo
▁pankare
ɗuɗo
▁miile
▁toraare
▁immintinaa
▁Yiɗi
▁saanga
▁nanɗe
mbo
▁Samuuda
▁woodan
▁juulɓe
▁hattanɗo
▁mant
▁ittiri
▁iwruɗ
yimɓe
ndike
▁jojji
immii
▁seeditii
▁fawa
▁weltii
▁mbuuɗ
▁ñiiɓ
▁jibin
▁wuro
▁heɗii
▁woondii
▁Aadi
▁hun
▁waawuɗo
Magad
aaku
▁meemi
▁rewu
▁Tawreeta
▁daneej
▁faami
▁hibbi
▁Arsi
▁hewtini
▁yaad
▁hulee
aaɗi
▁tawoyi
▁hoyre
▁yiɗiri
▁naf
▁ɓuru
▁udditi
▁junuubankeej
aɗi
▁mottondir
▁heɓantaa
▁weltin
uudu
ha
itagol
tere
▁ɗaɓɓir
▁nawnaa
▁rewataa
Isra
oytee
▁feƴƴi
▁naɓ
▁waawir
▁Woodani
yoo
ɗɗe
▁tagaa
▁lanndo
▁Rew
▁mooɓa
▁hitti
aje
ɓ
▁Laat
ɲol
ddii
ade
▁Hol
▁fonti
▁heɓiri
▁tagiri
bbo
ƴorde
▁jiɓi
Aad
▁ɓulli
▁fuɗɗi
▁al
▁nodditi
▁Sad
▁pa
▁seeditan
▁ŋaɲɲaa
▁heew
▁teeme
▁faabo
ari
teeɗo
toɗon
▁Jaɓ
▁Zakariyaa
▁jiiɓoldu
▁hirnaange
▁ngawri
▁mawnintinaare
▁wuyɓe
:"
▁mbatulaajo
▁jiiɓaare
▁gorol
▁ndarndagol
▁Ado
tal
▁haacaango
▁ƴoyre
▁geddi
▁mokobaa
▁feloore
▁alɗuɓe
▁maggol
▁hawrondir
▁fewnoowo
▁ɗuuɗuɗe
▁penaale
▁limoore
▁ngaari
▁aranun
▁annd
▁yiltito
▁jalnori
▁yiɗuɗo
▁hing
▁faamataa
▁Muñño
▁tooñude
▁goopi
▁yeddugol
▁jaaboo
▁goongaaj
▁sujjani
▁wonɗ
▁Lewi
mu
ndo
▁musiɗ
▁taƴ
▁suuɗ
▁dartii
ow
▁saatin
▁woɗɗito
hiima
▁hawr
▁ƴettaa
▁hattantaa
▁yiltit
▁Za
▁Ngol
▁sunna
▁fuɗi
▁Fo
▁woll
▁yankinan
lo
Siri
oto
▁selli
▁annduɓe
▁suu
▁seeditaa
▁goongin
▁laaɓir
▁laamii
▁Ñala
▁waraa
▁ɲii
▁ɗuurno
▁waajotoo
▁yaafo
tun
▁rewird
▁heɓoyay
▁sujji
▁hollii
yre
▁bak
▁sorti
uuru
nike
▁maakan
▁windani
▁huɗo
▁nanngiri
ireedi
▁ɲaamata
▁laatan
▁waajaa
▁laaɓa
▁jaɓan
▁darni
▁hundi
▁cukk
reedu
▁piyi
▁C
▁fes
▁Baa
▁sooƴ
Ndee
lii
uɗe
▁Waɗ
iino
▁holl
▁waɗee
▁nana
▁Isma
▁woɗɗi
▁faandi
▁ɓor
▁jokkaa
▁duumo
antoore
▁moolanaaɗ
▁Imm
oohoojo
▁nandita
▁yaaf
▁feln
▁addu
nta
▁newnanaa
▁immin
▁tagiraa
▁nguleendi
▁geyngol
▁fammeere
▁ɗaɗol
▁Samariyankee
▁Bajjo
▁rawnoode
▁wirngallo
▁ngayka
▁yankinaare
▁jelu
▁ñamaande
▁mawnungal
▁haqqilooɓe
▁hoynooje
▁mboddi
▁heɗagol
▁majjam
▁fenoowo
▁fooluɗo
▁Daala
▁ŋalɗini
▁jarnugol
▁sakkitiiɓe
▁tiiɗungal
▁baasal
▁Maalik
▁aranal
▁werde
▁maggo
ir
▁naɓan
▁Maakan
▁gootun
▁fenniino
▁yettoo
▁firtugol
Jooma
▁rewaynoo
▁ndaaru
▁ŋari
▁Joom
▁ɓanngu
▁fanaa
▁majjin
▁bawɗe
▁tiiɗuɗe
▁moƴƴol
▁moƴƴereeji
▁yiɗ
▁hedd
▁seediiɓe
▁malal
▁jogi
▁hajju
▁falo
liyuus
▁Enen
▁see
▁ndaɗɗudi
▁banndiraa
▁raɗor
▁yari
▁Ɓur
▁lootir
ppugol
▁lootaynoo
▁noddu
▁Ɗen
▁gunndoo
▁tuubii
▁nayaɓ
▁yoo
▁jango
▁sakkaa
qu
anta
▁accataa
▁Nulii
inoowo
daali
▁nayi
▁joɗɗinir
▁waawu
▁Yettoore
▁yeddu
▁fotti
▁halfin
▁ɓeyditi
irii
▁joo
▁yeddondir
▁maranaa
ci
▁woto
▁ɗuyt
▁nanondir
▁karamoko
▁seeditoo
royta
▁maaje
▁yewtir
amuuji
▁ad
▁fillitan
itugol
▁okkay
▁marnoo
▁yejjiti
iisi
▁ɗa
▁donkin
▁gomɗina
adii
▁fuɗɗo
▁hersin
▁manti
▁baa
▁feññin
▁rimata
]?
▁jippo
ɗ
raama
▁arane
▁waajitoto
ɗuɓe
ro
mmere
ynoo
debbo
▁Gomɗi
▁naatay
▁labaa
▁ƴant
ore
▁mul
▁feewir
▁windi
▁makka
iwii
▁hula
▁lepta
▁wuuruɗ
▁inn
▁jogoraa
▁wattii
▁nanir
▁waawata
▁adday
▁hawnii
▁serti
▁jonnit
▁halfini
▁jokkata
anooka
Meeɗe
ul
▁Qa
▁hoɗi
▁Ibra
▁heɗotoo
▁haɗu
▁jonna
▁reeni
▁janngaam
▁fooli
anaama
▁pooɗ
faa
▁suɓ
▁wonno
▁soɓe
▁daaka
▁wood
▁nj
▁haforan
▁luutondir
Ma
▁feƴƴu
▁mooɓ
▁jalbir
▁nawr
▁uggini
▁hoolor
▁peera
▁Fuuta
▁nawri
▁fijindaaru
▁kasannge
▁esiraawo
▁Ishaaqa
▁jalbeendi
▁suriire
▁lekki
▁Yettiniiɗo
▁townitaare
▁wuluure
riiyu
▁hakkillaaji
▁ɓataake
▁feetere
▁remoowo
▁halkaare
▁mbabba
▁Belajo
▁mabba
▁kumpital
▁fiyakuuji
▁rewir
▁darjaaji
▁fawtiiɗo
▁hakkille
▁noddoton
▁jantagol
▁beru
▁nebban
▁Iska
▁sanamu
▁Laakara
▁Ganndal
▁muuyuno
Kisiyee
▁yananaaɓe
▁urngallo
▁tottir
▁gasataa
▁laɓɓinaaɓe
▁fal
▁ɓanndu
▁diine
▁Ɓey
▁waɗoyay
▁raɗii
▁ku
▁baagol
▁ndaarugol
▁Tiiri
▁heyre
▁puccu
▁aada
▁yaron
▁humondira
▁kundu
▁ronnd
▁Bon
seeji
▁junuuba
▁tasakuyee
▁fodde
▁hooliiɓe
▁ñ
▁darnde
▁ƴogg
▁ɗoftiiɓe
aaɗe
daaɗo
▁rutta
▁heɲa
yi
▁aadi
▁seedii
▁metti
▁arde
▁Laam
se
▁tinndi
or
▁jeyaama
▁Hooree
▁ɗeri
▁haɗno
mun
▁ittaa
▁ƴaw
▁majj
▁hulii
▁ñammin
▁artir
▁ken
nu
▁heyr
▁liddondira
▁ñiiɓu
lle
▁hewtiti
▁himman
▁wutt
▁feƴƴata
llaaji
▁ruuhuu
▁aynde
▁artoy
▁ɗuuɗa
▁tebb
▁ɓeydit
▁yaafan
▁cen
▁ronka
▁watt
▁bugo
▁tiiɗin
rugol
niri
▁ser
▁uddit
▁duum
▁weli
▁Yamir
angol
▁ɓa
▁humpita
kko
▁fotay
▁kam
▁kenee
▁yiɗindir
▁joɗɗin
▁suuɗi
tiri
▁ɓorn
▁wutti
▁yeɗiri
rne
▁welata
ataano
▁jooɗiiɓe
▁jannata
▁hawniiɗ
▁haɗ
Yeet
anɗe
▁hetti
▁waajor
▁nunɗ
▁fer
▁qirritii
▁kiɗɗ
▁Addan
▁iwra
▁aybin
ɗiiɗo
if
aɲo
awii
▁holla
▁Jippin
▁udditan
▁town
rɗi
▁eltani
▁daalo
▁feli
▁ruttoo
▁danki
No
▁task
▁moƴƴii
...
▁yaaj
▁torotoo
▁ɗow
▁fewti
tiiɓe
▁woɗ
▁ɗama
▁Ɗuuɗ
g
▁neeɓaa
▁andirt
eendi
▁noddiri
▁lootaa
▁neen
▁tam
▁lando
▁fuɗ
toto
▁tamaro
▁asewee
nagol
▁yewtiri
taama
iɓe
bo
▁dim
▁yoori
teeɓe
▁toror
▁reene
zar
sonnaaɓe
▁ina
▁jarribor
▁dogir
▁gomɗinta
toroo
▁saɗtu
▁nulii
orii
▁feeɲu
▁ruttoto
aybu
)".
rɗon
▁pen
▁wowlii
▁taƴu
▁liɓi
girii
▁arsi
dal
▁naatiri
iima
▁Ya
▁yiɗii
▁allaaj
▁ɗaani
▁faandani
▁yeddondire
▁moƴƴaa
▁darnga
▁ɓanngannduyee
▁cuucal
▁Muuyuno
▁jolokooje
▁keeci
▁sukundu
▁jippinee
▁wullaandu
▁cellal
▁yeewtere
▁tefoore
▁caatal
▁rutteteɗon
▁ɗoyngol
▁damal
▁Neema
▁kawtal
▁tooñetaake
▁ewnagol
▁aljannaaji
▁fefindiiɗo
▁ñawu
▁tampin
▁piindi
▁ronku
▁Siduuna
▁fija
▁kasoojo
▁julle
▁kafidiiɓe
▁fooluɓe
▁res
▁tat
▁Immintin
▁juhal
▁bakkatuuji
▁lannataa
▁bolle
▁ɓeydaade
▁keefeero
▁Galo
hadi
▁wulɗin
▁ardagol
▁kunte
▁nguli
▁fennu
▁hettugol
▁yeƴƴiti
▁Adde
▁laatanoo
ŋtaa
▁yejjit
▁yewtaynoo
ñugol
▁waawugol
▁yoɓugol
▁lept
orɗi
su
▁Yiɗaa
▁mb
▁Accu
▁tuundi
▁hoddiri
▁edda
lol
▁walli
▁arsik
▁ɓuraa
▁nafagol
▁naatugol
▁kurkan
";
▁puɗi
▁hunn
▁sappaɓ
▁teem
▁:"
▁tippini
udi
janngeteende
Sa
likii
▁Han
▁wakkil
▁noddee
▁golluɗo
▁dandoyte
▁naatunoo
▁koyngal
▁ƴentinaa
▁sila
▁wonunde
▁anda
▁fawu
▁yahaynoo
▁nulir
▁jogitora
rkuus
▁reenu
ara
▁kumpit
▁saami
▁fefindi
▁hoynu
▁jooma
▁lutt
▁farilla
▁fotondiri
ndooj
▁Saduu
▁jippinii
▁Sella
▁mooɓii
▁yel
▁hoolo
▁law
inoo
▁sellin
▁humpit
Sinn
▁naada
▁mbab
▁ware
▁ɓurtu
▁ndikki
eene
▁jippi
▁wunti
▁sonki
▁Eli
▁qab
▁hewtaa
tigi
▁qirrit
imbi
▁bonfo
anndude
▁heɗoto
▁anndini
Wonkii
▁darjin
▁woniran
▁jooɗod
ppi
▁ɓi
▁dogu
▁woodaa
▁haanuɗo
nɗo
▁reeno
itataa
▁haɓɓ
▁accitu
▁weltinir
▁ñaawir
▁feɲɲina
▁dali
▁jaŋta
▁immito
▁longin
▁surr
▁lamɗo
▁lannoo
▁toowu
▁sellinaa
▁memi
▁nangira
▁dolnu
▁fod
bu
ɗin
inooɓe
▁ɓeydana
▁tuub
es
lu
▁newii
▁feeɲ
eeri
p
▁Be
gite
▁toɗɗ
▁ittii
▁weltora
gorko
ulee
▁ɗonɗaa
Fir
ewnoo
▁mbaɗi
▁warira
▁Kammu
ɓundu
Yettoore
tagoore
aange
▁Bet
▁bugaa
noɗaa
hannde
▁wennj
▁accit
▁wowliri
affaa
▁noddata
ilata
▁Ña
▁pay
▁towni
▁jolk
▁far
▁ŋaɲɲ
▁iwtir
▁seeki
▁ɲaamataa
▁yiil
yaafa
▁keɓa
▁sif
▁mal
▁jonnu
▁aɲ
▁ɓann
▁ronoo
▁jokkunoo
▁gomɗinir
K
▁huɗi
▁aroyoow
▁yoɓa
▁aynoo
▁weeɓitan
▁moolanaa
▁jippiniri
mugol
▁wowlay
wnii
▁tanƴin
ttugol
▁Ñaame
er
▁faljin
▁minen
▁Mariyam
▁ɗuurnii
▁lu
ɗɗoode
hoy
▁sokaa
▁ɗimmo
▁jalba
▁Mal
yti
▁accita
ariijo
▁Kaŋko
▁Linjiila
▁asakal
▁njorndi
▁Duŋayee
▁Surroowo
▁feletere
▁soɓɓundu
▁ɓitteende
▁suufaajo
▁Sakkitiinde
▁cagaajo
▁faabagol
▁koltu
▁sariyaare
▁dogudu
▁Samari
▁karahan
▁deeƴere
▁ɓeyda
▁sirkata
▁sakkitiinde
▁saɗteende
▁jalkita
▁yewtereeji
▁hesu
▁daaɗe
▁ɗimmun
▁yurm
▁accitan
▁genndiraa
▁wern
▁uddital
▁li
▁mulugol
▁halakuyee
▁liddu
▁loope
▁yee
▁Jahiimi
▁aranol
▁tinaali
▁yottike
▁bonnuɗo
▁weer
▁fennooɓe
▁hooli
▁darngal
▁accitugol
▁lim
▁kaydi
▁jurmotooɗo
▁nganndaa
▁welaa
▁bugee
dingiral
▁yewtugol
▁noddira
▁dente
▁addana
▁insinano
▁yiit
▁añii
ejo
▁yahana
▁jatt
▁mawɗi
▁habbo
▁homɓe
▁Fedde
▁raɗ
▁jooɗo
▁jibinan
▁hett
kugol
▁kunndul
▁yeɗay
▁ɓannginan
▁cawt
▁mawnini
▁jaɓata
▁okku
ayɗi
▁So
▁hucciti
▁tigg
▁gayn
▁njani
▁Ƴettu
▁mah
▁ndaɗɗu
▁ɓanginiri
▁rutti
▁toran
▁har
abu
▁hersir
▁ɲaawee
▁anndal
▁Lew
ye
ooɗo
▁bonnu
▁rondii
ɓugol
oni
▁catii
▁sirkan
▁meeɗ
▁yiɗunoo
iɗon
▁gomɗinay
▁bu
▁ƴettee
▁harmini
aynooɗo
▁ronndii
▁feññinan
▁aanu
▁liddotoo
Annditee
▁nanirɗ
▁naɓor
▁halk
▁korɗo
▁muraa
eece
moggo
▁yana
▁feƴƴay
irɗaa
dee
arɲit
▁woɗɗ
▁Da
nnoo
▁ke
ndiri
▁jannayno
ettugol
▁ndarnd
▁wuurna
▁ardini
▁bugitii
tagugol
▁haɓɓi
▁huluɓe
▁ɓadondiraa
▁addata
▁ru
▁tikki
▁ñiiɓi
▁ɲaawa
▁yoɓ
neede
▁ɲawnd
▁naadi
▁Ng
▁tippu
▁terto
▁dolnuɗ
▁ju
▁kes
▁piy
ne
▁hakkilan
▁liɓa
▁nulaa
diisa
▁warru
▁seedi
▁ruttita
Awa
uula
ɓanduu
▁tono
▁bug
irtaa
▁ɓanngina
▁Annd
puru
▁ɗaa
▁huuwi
▁hodo
▁poomayankeej
▁baalii
▁As
ɗii
▁okkori
▁goll
▁okkitir
inii
▁mbaɗ
rani
▁suɓaa
▁joɗɗini
▁dagii
▁Noddu
▁Tooñ
laa
tiiɗo
▁jipp
▁holniiɗ
▁hayr
▁mbel
▁yaara
▁anday
▁jokkondir
▁eɓɓi
▁fanki
▁Nd
▁Alana
▁Waɗi
▁Tagi
▁ayn
▁faal
kke
▁pottito
▁Kun
ono
▁waas
▁sikk
▁weeti
▁aadii
▁ɓeydan
▁sowii
▁fodaa
▁wallito
▁ɗo
▁jooɗoy
ila
▁yoɓir
kon
▁nanng
▁weeɓitani
▁habb
▁pegg
▁andit
▁lidd
▁Laata
ƴƴi
▁laaɓan
▁wull
▁wind
▁majjan
irton
▁yilti
▁neeɓ
▁aɲi
▁totta
seedeeɓe
▁deeƴu
▁doŋ
▁Apol
▁mandil
nke
▁tosok
▁dee
▁sendindir
▁feeɲoy
▁dolokk
▁faalano
▁jeego
▁Samuud
▁waɗta
▁faasiq
▁waɗiraa
▁fewtit
raynoo
yankoo
▁neemin
▁Tert
ƴugol
aru
▁Aleksand
▁Madyana
▁leñol
▁pitilli
▁wortowal
▁ngeenaari
▁Giggol
▁konnaagu
▁wonta
▁ndonto
▁muuyanteeɗi
▁keerol
▁morlooɗe
▁innaangal
▁bulle
▁welayee
▁salndu
▁woyndu
▁Korenti
▁laaɓungal
▁yontere
▁fefindotonoo
▁yott
▁batteeji
▁Toowuɗo
▁bote
▁añuɓe
▁bugagol
▁feetuɗo
▁fewjoore
ho
baajo
▁teddunde
▁mawngu
▁daragol
▁woɗɗunde
▁emmbere
▁fowtorde
▁soɲit
▁ñiiɓal
ɗemɗe
▁miskiino
▁cortewol
▁ndaarɗe
▁saŋ
▁leeɓi
▁duumiiɗe
▁sikkitaare
▁kisal
▁tuuninta
▁sirkuɓe
▁dogugol
▁Tes
▁haforanal
mmba
▁weet
▁lootugol
▁jonnugol
▁aynugol
▁Z
▁jipporde
▁nanngal
▁haɓa
▁feewuɗe
▁majjude
▁Diina
▁nanoowo
▁jannoowo
▁daw
▁kammuyankeej
▁kattanɗo
▁tuubi
▁walla
▁Ndaaru
▁keso
▁taƴitoyi
taali
iijo
▁Harmini
▁iwr
ɗugol
▁naatee
waasuɓe
▁baaf
▁yankinanii
▁fotataa
▁jeyal
▁hebulanii
▁seeditanii
yii
▁hoɓɓit
▁ɓurnoo
ereeti
▁sal
▁yiɗugol
▁nafqi
▁diini
▁nandi
▁timmini
ndar
ayti
aynoɗon
tude
▁ɗuurnoo
llal
iron
he
▁noddunoo
▁adunayankeej
Rewɓe
▁jento
▁wonirnoo
▁dog
ɲal
wu
fo
eɗɗe
▁toow
▁tawti
▁jaw
▁koyɗi
▁huuwu
▁ewnaa
▁tabintinir
▁lorr
▁tabitir
▁luutondirayno
▁sadak
▁ruttotoo
▁teŋe
▁tenƴini
▁ŋatindir
▁feewaa
pe
▁ɲemb
▁wooduno
▁bete
▁hiwr
▁Is
▁moolanaango
▁jaabinani
▁yottii
▁ŋakkiraa
▁cowal
unooɗo
▁Tu
▁jibi
▁yiɗɓe
▁okkora
indirgol
▁taƴi
tannde
▁bonni
▁Saɗtu
▁waajitor
uusa
▁diwn
▁laatoto
▁boofoo
▁wullu
▁sifor
▁wahayinaa
▁aɲii
ɗee
▁ruttetee
ndir
▁koɗol
ɓaali
▁ardo
▁feggin
▁jeen
aynde
uura
ge
▁tampu
fow
▁waajii
tato
▁tiiɗuk
nji
▁seeditor
▁sok
▁loota
▁tabintin
▁koo
▁ɗaɓɓi
yno
▁jinn
▁tuuban
llugol
▁bonnay
▁yoni
▁fillit
▁nji
▁Hakk
fi
▁rima
▁konnguɗi
naama
▁tiiɗuɗ
▁dank
▁Ñaaw
▁gomɗinɗon
▁yoɓete
▁bonnii
▁anndina
▁winda
▁Ti
▁okka
▁muuyii
▁timmii
leydi
▁waɗtini
▁hoɗon
▁woɗɗit
▁waaja
cce
▁Sar
laande
▁femp
▁arugol
▁ɓanngan
▁Ley
yru
▁naatoyi
▁rinɗin
▁yaafaa
▁suuɗa
▁tooɲir
▁aynu
▁soɓu
ndira
ojo
▁awm
antaa
▁jeenu
▁tagirii
itike
▁woondar
▁yarn
Adde
owo
▁yaar
nuuji
▁haɓid
▁janngana
▁ñan
▁faab
looɗe
j
▁ɓetu
▁fewja
▁satta
▁jalbi
▁Bu
▁jannga
baruuj
▁jaɓir
▁daɗnda
Ɗaa
▁wuuriri
▁yaru
▁gere
▁nga
▁waawa
▁tooɲu
rgol
▁Heew
▁mawn
▁jaɓa
▁daaliran
▁Koohoo
▁anditir
▁ngonii
▁yoɓirt
aka
Nulaaɗo
raaɓe
▁waawaa
▁son
aɗo
▁laatin
▁yeetoto
amɓe
tirde
▁lunnd
▁Hoore
▁yaltiniri
▁fewtini
▁feru
▁Kaari
▁Jaŋto
▁heɓata
Kal
eydi
▁kafidaaɗ
▁fenn
nah
▁po
▁suus
▁seedit
Janto
sabaa
pii
ondiri
ndii
iɗuɓe
▁jeyɗo
▁huɓɓ
▁araa
▁luttay
akkaatu
ɓen
▁sennd
eɗɗo
▁R
▁seedito
▁yejjitu
▁Aran
▁ɗuuɗii
▁reena
▁hir
▁wowlir
▁kurkana
▁ɲall
▁siɗɗ
▁waɗayno
▁yeesoo
me
tay
▁Ara
otonoo
▁kaas
▁daɗnd
▁danda
▁mooɓit
▁ŋakkir
ini
▁Fewni
▁yuɓɓondir
▁pooma
▁Q
andi
▁okkir
anaade
▁wiir
▁teddinaa
▁winnda
woni
ar
▁Bo
▁ɗaan
▁ɲaawu
▁meh
▁Tuub
▁dimban
▁fempe
▁hanki
▁maaro
▁pooɗa
juuji
▁wernu
▁weeɓit
▁ndew
▁Daaluyee
▁woŋkii
golle
▁safaari
▁alhaali
▁Aadinkooɓe
▁caatli
▁fasaadu
▁talkuru
▁ndoondi
▁yarluyee
▁Jakka
▁huɗ
▁hawjere
▁sunoytoo
▁kafidiiɗi
Gorko
▁Seediiɗo
▁dillere
▁hattirde
▁lurral
▁ñallal
▁jeenoowo
▁ɗenƴere
▁sonndu
▁mecce
▁dumunna
▁Juulirde
?!".
▁annoore
▁ɗaɓɓitude
▁ñaamoton
aki
▁jaggitooɓe
▁Moƴƴere
▁nih
▁fottugol
▁ɗaɓɓitugol
zab
▁gomɗal
▁feewunde
▁maggu
▁feeñuɗi
▁janfotooɗo
▁fempugol
▁feeway
▁jertinooɓe
▁reenoowo
▁yaajeende
▁hoolaaɗo
▁jihaadi
▁daabeeji
▁jayngol
lisii
▁andintin
▁townitiiɓe
▁deyel
▁Jokku
▁barme
▁Nokku
▁yoorude
▁sakkanaa
▁nawnuɗo
▁lamnd
▁ɓangi
▁luttugol
▁yeebataa
▁hiitinoo
▁mooɓi
ja
▁teddingol
▁insin
▁Laamɗo
▁loonde
▁teddi
▁sikkitiiɓe
uusi
▁jortii
▁fawugol
▁accay
▁yottoo
▁asamaan
▁jeegaɓ
▁Laɓɓin
▁eɓɓunoo
▁jaɓugol
▁addugol
▁kañu
▁hunnduko
sakkitoore
▁sujjana
▁pecce
▁weddii
▁yetton
▁accugol
▁yeeb
▁balan
▁Suu
haɓugol
▁sakkii
▁tippo
▁feƴƴita
▁jeyee
▁ayna
▁Holl
egol
azii
]?"
▁duu
▁waɗira
▁tuubuɓe
▁pol
▁tanƴinor
▁fuɗini
▁Annasaara
▁sokii
▁hatonjina
▁di
▁werni
▁ɓador
yanke
esan
▁wurti
▁wuuruɗo
▁anniyii
▁hebbin
▁woond
▁laaw
▁Galaa
▁naatidi
▁Mbatu
▁Bun
reede
▁dool
▁fawotoo
yaa
▁anndugol
▁fantin
▁daɗ
▁baap
▁yeɗu
▁wonoyay
▁Ɓee
▁lontii
tino
▁becc
efaa
men
▁wonataa
▁yeɗe
▁aad
▁daalanno
▁kurka
▁hulani
▁ɗaɓɓit
▁maay
▁murtu
▁hebulii
▁Aarabu
▁wonnd
goo
▁wote
▁Heefer
▁sow
▁njo
▁naad
ndal
▁haari
▁wu
▁naatna
▁hodi
▁waawan
▁seedo
▁Wind
▁wuurnitir
▁yeeto
▁!".
▁feew
▁satt
▁bakkaat
▁sutii
▁wee
▁aroya
▁heɗinoo
▁malaykaa
▁yawtan
▁saatinaa
▁ruttee
▁Mat
▁wontidi
▁hewtu
▁fanni
▁heɗit
▁maayata
▁aanini
▁maama
▁tamper
ode
oree
▁sendondir
▁ittan
▁daro
▁wiide
▁maayay
mbugal
▁totti
▁Lis
▁lunndii
▁ɗayn
▁hewtoy
▁yahuno
iil
tanii
▁nula
▁longinaa
▁fulawaa
▁holnii
▁fensit
yaama
▁siforaa
▁juul
▁windirani
▁nulaaɗ
▁njanɗu
▁haananaa
▁mem
irani
▁nuliri
▁taga
day
▁wuurnit
▁keɓ
▁mawnii
▁hebbini
▁Suka
▁beyti
ondir
▁heɓoy
▁jannir
▁mottindir
▁pooɗi
▁jippina
ndeejo
▁dillin
▁janngu
▁binnde
▁raɗo
▁lontinir
▁Naat
ingi
▁ɓangini
▁waɗete
▁immintinoy
data
anagol
▁fellitu
▁Ɗoft
resugol
▁haasidi
▁sellu
▁Bir
▁lobb
▁senditi
▁mett
▁Woodanii
▁Jippinii
▁feƴƴiti
▁toowi
▁juu
▁jokkee
▁hulunoo
▁Ak
▁caa
▁findin
▁artira
▁Ja
▁ittay
▁Fuɗɗ
▁jogaa
▁weeri
▁ger
▁tinndin
▁Moƴƴ
▁ŋerm
▁Faw
▁soodi
▁fecc
▁haɓ
▁timmung
▁Nulir
▁seeditana
yɓe
▁ñaawu
uur
giri
▁naa
▁ɲo
don
inaaɓe
ɓu
aamu
▁hipp
▁juula
▁huɓɓi
▁humpiti
▁ro
▁sanki
▁jogitotoo
▁He
indira
ntaa
iɓɓe
▁!"
bbe
▁dartor
ŋ
▁Humpit
▁yilt
▁boofo
gomɗinal
▁fennuno
ndinii
▁satti
fe
ɓay
ɓee
▁noddir
▁torano
▁ɓaɗto
▁nanngu
▁selluɗ
adiiɓe
rɗo
▁Waɗir
oyton
▁Neɗɗ
▁soki
▁Naa
▁wennja
▁lootee
▁weeɓiti
▁nanndi
inoke
oodi
▁yaltinir
rewɓe
yurmeende
▁datto
▁dabb
▁Nuli
Nulaaɓe
▁heddotoo
▁ɗuuɗ
▁ronini
▁pal
▁janni
Malaa
nannde
▁Dar
Salaam
▁sujja
Hay
▁looti
nd
▁iwata
▁dun
▁bugit
▁muɲ
▁tott
▁rimu
cen
ŋke
Hey
▁jarn
▁Jokk
antoo
▁duñ
fa
▁Fod
▁Ɗo
▁Ji
▁tabit
▁ɗaɓɓata
▁ɓorno
neema
▁fokkiti
▁jalbuɗ
▁yaw
▁Yee
▁mbilee
▁nanira
toɗaa
anoɗon
▁huɓind
nuɗo
▁njano
▁hakke
▁Immin
min
▁hoo
?!"
▁mulir
▁yaada
▁Okka
▁boɗe
renii
▁jogitoto
▁firta
eeje
tanaa
▁wallata
tanay
▁huutori
▁tellini
▁feggo
▁yaltiti
▁hendor
▁lunnda
▁fewjod
baaru
▁daak
▁ñaamata
▁tuuni
ef
▁Ɗe
▁diw
▁Herood
▁selu
▁tawanoo
▁awr
ettii
Naatir
beleeɗe
▁rem
▁ndaaraa
▁beembal
▁labbooru
▁mbeelu
▁renngaaji
▁sagatalaaku
▁zakka
▁ayiibe
▁Hinnayee
▁fantimɓe
▁pirc
▁ɓaɗtaade
▁gilngii
▁neweende
▁huɓeere
▁komoyaagal
▁ngeyngu
▁jaaman
▁Muññiiɗo
▁ƴiiƴam
▁Ñeeñal
▁laawotooɓe
▁arkawal
▁tulde
▁tosook
▁wuddere
▁ɓaaror
▁sikkitaaki
▁Yaafotooɗo
▁ewnotooɗo
▁sawru
▁ujunere
▁faandaaki
▁wewlinoowo
▁mojobere
▁Saalihu
▁ñeeñal
▁hibbugol
ungal
▁tamarooje
▁ñaawooɓe
▁Ballo
▁foccugol
▁haforaneede
▁ñalɗi
▁ngurda
▁jattin
▁fodunoo
▁sottugol
▁yaccoo
▁caangol
▁sifotoo
uwaasi
▁naafiqi
▁moƴƴintingol
▁maletaake
▁hembo
▁tijjaa
▁Wewlinir
▁jaafa
▁yondinor
▁wujju
▁hasii
▁kuura
▁ƴawata
▁hujjaaji
▁Tur
▁immintinoyteeɓe
▁jaangol
▁donkingol
▁daɗndiiɗo
▁Quraana
▁newori
▁njuuri
▁nguurdam
▁Muhammadu
▁Wurin
▁faaɗuɓe
▁baal
▁allaa
▁wallitagol
▁ɗuurniiɗo
▁laatornoo
▁foolay
▁nganndon
▁kuɓeeje
▁sooke
ibla
▁jala
▁añinii
▁nayeejo
▁laamagol
▁rewe
▁tiiɗungol
uujo
▁tooñuɗo
▁majjuɗo
naano
▁hayrere
▁naatooɓe
▁reenuɗo
▁maayaali
▁finnde
▁saɗtuɗo
▁weerde
▁daɗndir
▁ñaamugol
▁feewude
▁huutorgol
▁tedduɓe
▁nee
▁naniri
▁enɗan
▁hoynugol
▁añɓe
moojo
▁reenooɓe
▁yeɗugol
▁yiitid
▁hunditi
▁def
▁Okkor
▁ɗaɓɓaynoo
▁waroowo
▁yumm
▁jeeno
▁fodanoo
▁ɗowti
▁reweteeɓe
▁gollal
▁bewɓe
iriskii
▁haɓɓitii
▁Tor
▁anndunoo
▁laatotoo
▁tindoh
▁ngoonɗinii
▁Wakkilo
▁tiinde
okkugol
▁njanɗ
▁lonto
▁doo
▁yankinano
▁wumu
▁hormante
▁fempidaa
▁Qur
▁nulaaɓe
iida
▁hirs
▁noddude
▁fillano
▁waɗti
▁Hinarank
▁hirbondir
▁gerto
▁heɓoyta
▁wallu
▁yiɗuɗon
Heɗee
il
▁kafidu
▁jamm
Ñaame
▁memmin
▁fewndori
▁welt
▁kammbaa
▁dandito
▁ɗaynito
▁naamno
▁hulay
]".
wɓe
▁fur
▁waylii
▁moƴƴingol
▁eɓɓ
▁yaraa
▁yiɗuno
teende
oyee
aku
▁hittini
▁luttu
ontii
▁anndii
▁feeñu
alorma
▁loote
▁nanooɓe
▁jangu
ette
▁haɗtanɗo
iraynoo
▁ɓeydataa
▁ŋata
ɓandu
▁ɗiggu
▁sunnir
La
▁pottini
▁ɓanginan
▁luutondiri
▁Ɗee
▁cuuɗ
▁moolor
azar
▁ndeer
▁alana
▁naadu
urɓa
▁hoy
▁janf
▁weerni
▁cu
▁ñaawata
▁yangi
▁haqqilay
▁meeɗin
▁hendaa
▁janfotoo
▁sankata
▁yaaju
▁anndira
▁ahodi
▁hulɓinir
▁neemini
▁jaasi
▁sattin
▁hewta
▁lannd
▁kose
▁maranii
kii
▁yeeyi
▁ɲaamaa
▁accidi
▁maanditi
▁ɗaɓɓiri
▁holliri
▁fensita
▁njofoo
▁fen
andal
▁hulude
awu
▁heyɗintin
▁dimb
▁yewtira
▁jaggit
▁jokke
▁luttata
▁Noddir
▁je
▁tippin
▁ɓorni
nnabaaɓe
▁janngo
▁fanɗ
▁naninta
▁tabitu
▁beyt
▁yaltay
▁landaa
aawo
eteeɓe
nngel
▁seek
▁watte
ɗɗere
▁yaafant
▁cato
▁aala
▁ndaare
▁waɗɗinoo
▁mbil
▁maloyte
▁his
▁heewuɗ
▁tert
▁waɗant
atu
▁fotondir
mmbugol
▁bugoɗ
raaɗo
▁ɓura
▁wayla
▁dag
lan
▁heɗaa
▁jant
▁wewlinir
onii
▁mawnina
roowo
▁yaltinaa
▁iwrun
▁wonoyta
lette
▁Arsiki
▁ñal
daygu
▁joomiraa
ndee
▁hayra
▁alat
▁Mbe
▁lanc
▁yewtidi
▁yurmee
▁jaabori
▁Acc
▁ño
▁tagoo
▁warɗo
▁ɓurni
▁Du
▁hawrata
▁danko
indori
▁elti
▁gar
▁monee
dagol
▁huɗaa
▁tampir
▁tuuba
empee
▁yurme
▁moƴƴinii
▁sooda
▁Ɲalaa
agge
▁heɗitii
oyteeɓe
▁Neemini
▁Tagii
▁ŋ
▁Akii
▁hunnu
▁tasko
▁tumbi
▁hoɗuɗo
▁See
▁raɗa
▁haqqill
▁sepp
▁ƴam
▁laaɓii
▁wallini
ornoo
▁feeɲata
▁ewni
▁hirbi
▁Niko
accuɗo
▁yeɗira
▁waɗɗii
▁waame
ddi
aaje
▁Ga
▁Jinna
▁haj
▁wifi
nnugol
▁r
oygol
▁heɓirɗ
▁ñaaw
▁majju
▁waɗiran
▁hatti
ytuuni
sugol
Wonnde
ggo
▁immit
nte
tina
totaako
▁annaba
▁Huu
▁aan
▁heɓunoo
▁ɗoftoto
kkun
▁jiiɓ
▁lolli
▁Ñ
[
▁ɓurn
▁adi
▁Andit
▁yool
inkooɓe
▁meem
▁nganndu
▁sooy
▁poomayankeer
▁wakkilinaa
antaake
▁send
▁resi
▁wulli
▁seedeej
▁ɓant
▁yottini
▁moƴƴinan
▁kur
▁ñaamir
▁yarir
goonga
▁hikkii
▁yoɓitirta
▁jogoran
▁naataa
▁yurmin
▁janta
▁jertinir
▁haldi
▁malayka
▁jali
▁wonana
irgol
▁majjina
aaza
ado
▁yurmi
diri
▁fitta
nndude
▁heewii
▁daroto
▁fawo
▁ɓeydir
▁feeɲira
▁darotoo
▁takk
▁sonk
▁tellin
▁holle
▁weltani
▁muli
▁fodii
▁lett
▁himmani
▁sakk
▁ndarndo
▁Wahayinaa
▁kawtir
▁andiri
wonnde
▁yaade
▁heñ
▁fena
▁Boo
noyte
▁Nga
▁tonng
▁ŋaɲɲii
▁jokkuɗ
tori
▁nangu
▁poo
njoɓdi
▁wariraa
iray
▁ɓeydora
▁huluɗo
Am
▁Qaa
▁laɓɓinir
aɓo
▁sank
▁bewi
taara
▁tugg
maniiyu
▁Toro
▁moolanaang
hakkil
▁dunc
sella
kadi
moƴƴe
▁ronk
▁Jaɓan
andii
▁duumi
▁jaɓani
▁fank
▁rewetee
▁wallindir
▁ɗaɓɓan
tirta
▁Le
heewuɓe
▁sort
▁wondaa
nɗe
▁wooda
▁weltod
▁feɲɲini
▁fempaa
▁tiiɗnor
▁pottit
▁yeddata
kala
▁fegg
▁nanngira
ayre
▁semmb
sii
▁juut
▁warr
▁Ɲaaw
aɗe
▁fensiti
▁ittata
▁winnd
▁riba
▁immintintee
▁Naada
▁Salm
▁jaɓana
▁ngoonɗin
▁barkin
▁yanu
rton
▁woɗɗiti
▁wiiru
▁Task
▁omb
H
▁mantora
▁rewr
▁bonnaa
▁ñeeñ
▁sikkitii
▁addaa
nan
▁Daalan
▁yurmina
▁ngurnda
joɓdi
▁ɲaamida
rtugol
è
▁nodday
▁ujune
duɗo
▁wowliran
▁salmin
▁remuru
▁paatawol
▁zaytuuni
▁Arist
▁bammonee
▁fatayɗam
▁inabuuje
▁ruugayngel
▁sanngara
▁jurriiya
▁mummunte
▁njaareendi
▁ɓoggol
▁ɗurniiɓe
▁hiirnaange
▁Yassaa
▁hunƴeendi
▁foofaango
▁kunnawal
▁sagara
▁Haamaana
▁sunine
▁burmusu
▁Focciingol
▁eggudu
▁Annoora
▁njaltina
▁tooweendi
▁Artem
▁walluhaa
▁teddeendi
▁faasiqiyaagal
▁bannge
▁Huuɓuɗo
▁piggal
▁ndontoori
▁heefereeɓe
▁saafaandu
▁haforoowo
▁koorka
▁taabal
▁Ɗuurn
▁wowlataa
▁gabooru
▁dukke
▁jukkuɗo
▁Newiiɗo
▁jortaaki
▁ngayuuri
▁miijitotooɓe
▁tiggaare
▁Madiina
▁daneere
▁daƴƴere
▁Yeɗoowo
▁muusɗe
▁nimse
▁njaatigi
▁yaaw
▁feewungol
▁mojobe
▁tefoowo
▁suuɗotaako
▁ɗuurnike
aroyta
▁tefooɓe
▁muññike
▁yawtiino
▁sujjooɓe
▁Nanngitir
▁newiniri
ndirde
▁fitaare
▁mboboojo
▁taƴondirtaa
▁woŋkiiji
sidii
▁jarra
▁junndi
▁liɓugol
rsiis
▁ɲaawete
▁daɗndoowo
▁ƴettay
▁jeenooɓe
bunɗan
▁ɓantugol
▁Luuti
▁Jaka
▁meemaali
▁sujjugol
▁haanirani
▁felniiɗo
▁biini
▁feññinta
▁anndah
▁immoyto
▁fottunoo
▁luttinteeɓe
▁jaɓɓii
▁deƴƴi
▁wintoo
▁yettoowo
▁haɓɓugol
▁danɗe
▁sikkitiiɗo
▁foolooɓe
▁sooyuɓe
meeter
▁seppa
▁jarrab
▁aybingol
▁kirse
▁jaasuɓe
▁kuɗol
▁ruttike
▁enɗam
▁Annabaaku
▁janfoytoo
▁laatano
▁fanɗuɓe
▁jeyru
▁faalanaɗ
▁halal
▁hawjan
▁darorde
▁njandi
▁boɗeejo
▁jeetataɓ
▁tabitugol
reejo
▁njiɗ
▁nunɗude
▁takkii
▁caate
▁imminaaɓe
▁nelaaɓe
▁surroy
▁jeeɗiɗaɓ
▁waylugol
▁sonnj
▁darnugol
▁senndindir
▁wattude
iiru
▁kolmb
▁ganndo
▁tabitude
▁ɲaawird
▁naɓugol
▁Misra
▁gomɗinno
▁seediiɗo
▁juuti
▁ngil
▁yangan
▁yoom
▁woɗɗintin
▁hanndi
▁julɓe
▁laatagol
▁yarugol
▁tuubuɗo
▁moƴƴintin
▁hayrugol
▁jiidi
▁timmuɗe
▁heblanii
▁ɓadondiral
▁Tuuri
bbee
▁maccanga
onannde
biila
▁waajitoray
▁maayugol
▁ɗaynir
▁yettii
▁mawnintiniiɗo
▁Ñaawir
▁fijir
ɲan
▁adinoo
▁don
▁teddinaaɓe
▁daganii
▁jantotoo
▁ceer
▁tawaaɗo
▁mantoo
ireede
▁janga
dira
alminaango
aneede
▁dandiree
▁tooñunoo
▁doŋl
ooyi
iba
▁goonɗi
▁wowlanii
▁mawniniree
▁werloo
▁fegginay
▁laatod
▁dartotoo
▁waɗtit
aykun
▁tiiɗnii
▁Heɗit
▁musi
▁weltoo
▁yaññan
ondiree
▁naadira
▁miijotoo
ita
▁wuuran
▁hoyɓe
▁saakit
ccuɗo
▁Ngal
▁anduɗo
▁goot
▁aawaa
Laato
▁wuura
▁nanugol
▁feeñani
▁woytaa
▁waɗɗ
▁foola
▁dimbi
ɓawre
▁yaroowo
▁Gay
▁arnoo
▁feƴƴunoo
▁jaɓitant
▁winndir
▁afo
▁haforana
luuje
▁tutt
▁doy
▁sogga
▁luu
▁Rokk
▁hisin
▁seytini
▁jooɗiiɗo
▁kesi
▁fiɗi
▁aɲu
▁anngis
▁maɓ
▁muu
▁jiiɓu
▁jicciiɓe
▁feƴƴini
▁tagani
▁gaboo
▁per
▁ndungu
▁yooru
▁cukkan
▁jar
▁tooñu
▁daɗay
▁Sifa
▁Ndiya
▁janng
▁waɗuɗon
▁imminnoo
▁keer
▁wontu
▁bonng
jol
▁sakkitoro
▁Im
▁jippinirii
▁dakmiti
wnde
▁jaɓaa
▁Suɓi
▁layya
▁wii
ŋta
▁senƴ
▁ɓeydo
▁Waɗa
▁toree
▁huutora
▁Woll
▁luttoowo
▁waɗoya
▁wallataa
▁Yurmin
toyay
añugol
▁fuɗɗor
▁yaltoy
▁ɲaaway
▁wasiyii
▁heɗo
▁mooɓindir
▁lancay
nnda
om
▁deeƴir
▁accani
▁feewuɗ
▁ɓoori
▁jebbil
▁wonday
Ñiiɓee
▁aw
▁añ
▁liddondir
▁rewon
▁yungoo
tol
▁satte
▁kal
)?
▁bugoto
▁wakkilo
▁nafi
▁bay
▁Nodd
▁ewn
oɗo
D
▁Jippiniri
▁yiɗa
▁sab
yol
▁yooɓo
▁jibiniraa
▁renndin
▁yaawuɗo
▁soodir
▁sumi
Oo
▁nanndo
▁jangi
at
▁alɗi
▁Fa
▁jaŋt
▁fellitii
▁as
▁ƴuuni
▁waɗuno
▁gollidoo
▁windu
▁karh
▁muɲɲ
▁yiltu
▁iwa
Ɗi
▁fempi
▁waray
▁dilla
▁waɗane
▁juuri
▁siŋ
▁mawnintino
▁dande
▁habbor
iina
fen
▁Taa
▁meeɗi
▁lanni
▁humi
▁jogitorii
▁jooɗ
▁Goll
▁yogo
▁ɓuɓɓin
▁feɲɲinana
▁Mun
▁Kon
nataa
▁welto
▁yottotoo
▁tinna
▁ndaaroy
▁noddoyt
▁feeñ
▁okkort
▁ronkay
▁deeƴ
ggugol
ijo
ragol
▁jantaa
▁naamu
▁hayla
▁hewtin
▁woodanoo
▁ñaawira
▁Wood
▁haalu
ɗude
Wa
▁sar
▁muynin
▁ɓurdindin
▁cukkaa
▁Aw
▁njiɗi
▁metta
▁ndikk
▁jippor
▁Goong
▁njeetat
▁malaaɗo
iilu
▁hikki
▁ɗayni
▁daɗndii
▁feeɲiri
kkaatu
▁jaɓanaa
▁tawu
▁new
▁jalbu
▁muñño
▁feeɲit
▁naɓu
▁hebilani
L
ngiya
▁muncu
▁teddini
▁nenna
▁seedu
unngo
▁feewnata
▁ɗuuɗu
▁wondata
▁we
hara
▁faabor
▁binndoo
▁jonniti
▁ɓoyl
▁mantorta
▁hayrira
▁mottindiri
▁uddi
▁heewa
▁Darn
▁yarna
▁hittund
▁ɓanginir
▁taƴit
▁laatinir
natah
▁ɓuuɓ
▁haaloo
▁ɗaɓɓee
eeru
▁piyani
▁welsind
▁Jonn
▁firtu
▁rento
▁Yeet
wan
▁Rewe
▁sur
▁ɓanngini
eere
▁hee
▁gi
▁fay
▁nanngir
eteɗon
▁majjiri
▁fewjan
▁wuntini
▁meeɗiniri
awa
▁tiiɗun
▁waɗtitir
aaɗum
▁mbar
ayɗo
▁waajitotoo
▁ngannd
▁moƴƴinɗo
▁njeeɗiɗoo
nda
▁holi
▁hoɗa
▁roni
▁waɗor
▁sakkitord
▁waylit
▁mooɓinoo
▁gas
▁Zabu
ante
ngel
▁rawni
▁saɗt
▁kay
Fi
▁buge
▁Muuyii
▁ñiiɓn
▁lutta
rjuuji
▁sapp
▁naatoy
teteende
▁Di
▁dandee
▁keɓata
▁wum
jinoowo
tonoo
▁pottinaa
▁haqiiqaaj
▁udditani
▁ɗaɓɓira
haray
inanooɓe
▁Yeɗ
▁Jokke
▁ayni
▁egg
maaku
▁jokkiri
bilee
▁raɓɓinɗin
▁rutto
alimaw
uki
▁yewtirta
diy
▁lunn
Nodd
▁pot
rataa
huunde
▁immitii
ƴi
ammere
andu
▁haanani
▁hettu
▁addanta
indir
nga
▁dogira
▁ndarndor
▁semb
▁wontan
Pi
▁ndaygi
ndirgol
▁Ee
tuɗo
lli
▁mawninir
▁hoynan
▁ɗimm
ondirii
▁jonnon
▁yiɗirɗ
ondirgol
ayɗe
tani
dde
▁nuunaa
wee
▁waɗoy
▁ɓanngin
laawol
▁ummor
▁ñaawa
▁feƴƴitung
M
▁tef
▁sifani
▁yilto
ayngal
▁jokkere
▁fewndii
dir
▁hollir
▁mahir
▁kula
Hoɗe
▁faaɗa
▁Ye
▁wasiy
▁yenni
Meɗe
▁marɗe
▁aroy
ñaare
nnooɓe
aacaango
▁ñiiɓaan
arke
▁windiraa
▁mawnintin
▁yamiray
tana
▁ittir
▁ɗaɓɓuɗo
▁firt
▁ɓanni
yndu
▁fir
yri
▁tuunina
▁kilo
▁bew
▁wattee
ññ
▁maandina
▁moƴƴina
▁luur
▁yaltinan
▁Jooɗo
▁balla
▁hoɗir
▁tippor
▁hulɓin
▁jillaa
▁suddir
▁wattid
saare
san
▁hump
▁joganiɗ
▁mbaa
▁wallay
llan
▁faand
▁neli
▁wallinaa
▁bar
▁ndutto
▁dandira
roy
▁Teddin
▁pi
aaniiy
▁Anndini
▁dewo
jawle
▁Daal
▁memir
▁ƴellit
▁bene
▁yiid
▁ngi
anku
sama
bakkaatu
▁Waɗu
▁beyto
ɓural
Jaŋto
bii
▁Yiɗu
▁windana
Lepte
▁debee
▁waɗanɗo
Senayee
▁mettu
▁yaaji
toɓo
Kere
▁suɓi
▁ɓu
eje
▁tuunin
eru
▁yoɓit
kiiki
▁goongu
▁hoolaa
▁tabitaa
▁sonko
hugol
▁iwrung
niim
▁yaaɓa
▁kulo
▁jippinira
▁laɓɓinana
adi
▁feɲɲinaa
tta
▁hers
▁bona
▁wallitor
▁kafidaa
An
▁jumpa
▁woowir
▁hewtina
ɓal
▁ɓill
▁himmir
olnuɗo
nduɗo
▁ɲaamii
aw
▁jalb
Yaa
nndu
▁cuk
▁ɓanginani
▁jiɓo
▁deb
▁dill
▁Muusa
▁innete
▁wiya
▁yaafa
▁nennan
bilanii
▁nafq
▁tijji
▁ɲaamay
urngol
▁wuu
▁ɲawl
▁ɓurani
▁jertinaa
▁nasaara
we
▁hattanaa
▁heñor
▁leptira
ur
▁heɓidaa
▁toɓ
▁pottin
▁aarabu
Addan
▁haanan
▁Huɗi
▁manndak
▁janngee
▁sogon
▁Ayyuuba
▁Linnjiila
▁Ngaynaako
▁lislaamu
▁rawaandu
▁Epaf
▁giɗaale
▁linsere
▁warɲak
▁faggudu
▁pitilol
▁tuŋa
▁naafiqaaku
▁ñaaweteno
▁ŋalaw
▁kotiraawo
▁ɓowrungal
▁dummunne
▁nguyka
▁Muuyuɗaa
▁ceelol
▁mbaroodi
▁Laamateeri
▁kalinwol
findeyaagal
▁bippooru
▁saffeeji
▁Misirayankoo
▁fubbaade
▁karambol
▁jukkunnaa
▁fuɗnaange
▁gorel
▁neldaari
▁setto
▁gabitanji
▁ŋiñere
▁faasiqaaku
▁waadere
▁mbilankaaku
▁ajami
▁Rutt
▁Telen
▁fayda
▁yonndiniiɗo
▁Toɗɗ
▁cuddi
▁boowal
▁ruƴƴ
▁Perg
▁junubaaj
▁seera
▁heeferaaɓe
▁mooɓoyteɗon
▁huuwaynoo
▁mawnundi
▁welsindaare
▁Haana
▁hinnotooɗo
Eyyo
▁fefindagol
▁ɓantaare
▁haangaaɗo
▁Alyahuudaaɓe
▁Yahyaa
▁ɓuuɓol
▁Almaami
▁diisondiral
Yehee
▁faandaare
▁mahoodi
▁jaabawol
▁ndaha
▁salminaango
▁njobdi
▁toolii
▁jaɓantaake
▁fillagol
▁ɓunndu
▁jalkitaynoo
▁hiwragol
▁donngal
▁jortaa
▁duŋagol
▁ndarɗe
▁heɗɗere
▁daliil
▁kasaara
▁mehre
▁ngolloton
▁ruttetaake
▁jooɗagol
▁seedotooɗo
▁Toowii
▁duumagol
▁jippotoo
▁hoggo
▁hendoto
▁fodaɗon
▁faggitotonoo
▁pahiɗuɓe
▁lamndaaki
▁seteeɓe
▁beccal
▁huloton
▁yankiniiɓe
▁Ɓamt
▁fantinooɓe
▁woopuɓe
▁ɓadal
▁yiingo
▁haforanam
▁fefindotoo
▁nelal
▁haɗitike
▁ɓanngungal
▁barkinaande
▁diam
▁fenuɓe
▁wallin
▁yiltitagol
▁Nelaaɗo
▁tefugol
▁ooñiiɗo
▁Moodi
▁laaɓundi
▁doolugol
▁Raama
▁fawtii
▁duncanoytaa
▁gerdata
▁Cur
▁muññiiɗo
▁ɗowtugol
▁tabital
▁sujjuɓe
▁imminaaɗo
▁jaggituɗo
▁ooñaare
▁fotndi
▁fewjugol
▁hawkunoo
▁cattuɗe
▁memmini
▁Mawnde
▁fontugol
▁seeditagol
▁piyugol
▁laral
▁hebbingol
▁mottondiral
▁waajitorgol
▁njogii
▁feloowo
▁kurkoran
▁foron
▁Huudi
S
▁sakkotooɓe
▁meeɗee
eytanuuji
▁faaliraɗon
▁Gada
▁hawru
▁ŋakkan
▁korka
▁yeloo
▁lancoto
▁desal
▁Alyahuuda
▁jaɓaama
▁hormaŋte
▁gelooɗi
▁paŋkare
▁ummital
▁ciftor
▁Daginan
▁njamndi
▁warjor
▁wonndiiɗo
▁sonc
▁mooɓude
▁sooɗaak
▁yamiraɗon
▁njofoojo
▁kecce
▁bonannde
▁balon
▁tiiɗungo
▁juri
▁goreeɓe
▁welngal
▁noddaama
▁gollan
▁faalaɗ
▁dart
▁jowaɓ
▁Seedee
▁firtii
▁feƴƴunooɗ
▁lanɗan
▁maayooɓe
▁fefindotooɓe
wnoo
▁digge
▁Onesi
▁pooɗugol
▁lorrirtaa
▁felugol
▁jalkit
▁woop
▁letta
▁Te
▁dido
nɗaa
▁seedugol
▁fonngo
▁wifugol
▁Ngi
▁heeduɗ
▁mbam
▁janfagol
▁dandi
▁Fewnata
▁haɗay
▁Mum
▁yaafaade
▁luttoyta
▁pular
▁Ibliisa
▁haqqillaaji
▁waraama
▁soodoy
▁Teddu
ɓi
▁toɓɓe
▁ngaddani
▁wondiiɓe
▁mahi
▁eesugol
▁murtin
▁dogude
▁goro
yɗo
▁haawoo
▁hewtit
▁foccii
▁yottagol
kaaɓe
tir
▁kammuu
▁mutii
▁tuubugol
▁fowtere
▁araynoo
▁Hormor
▁ɓitt
▁bongal
▁wuntu
▁wowlaali
▁meetel
▁jol
▁waɗirnoo
▁daɗir
▁hoorugol
▁warata
▁suusataa
▁mooɓoytee
▁koohoojo
gi
Hul
anŋe
▁pecc
▁Timmin
▁Reŋt
▁ɗuurniiɓe
▁moɗi
▁yolli
▁bugete
fal
▁tottirɗo
▁eɓɓindirta
▁fenaandeej
▁ɓortii
▁cuɗani
▁holtin
▁yiɗay
duruyee
▁haanir
▁wullito
▁annann
▁dammi
▁insinan
▁ndaɗɗan
▁manngu
▁fesa
mbi
ntugol
▁ɓornoɗ
▁Tabit
▁hersiraa
eendu
▁focc
▁ɓantee
▁faddii
▁fotata
▁hafrana
▁Woodan
anna
▁Yaltu
▁Accit
▁waynit
▁wowluɗo
eɗon
▁alaadu
aɗon
▁ɓaɗtinaa
▁suɓori
▁Eyoo
▁Inn
▁naakoo
▁nawray
addii
▁Add
▁Misii
▁huccitiri
▁gur
▁jojj
uɗan
▁kafid
▁hewtataa
▁yoora
▁awre
▁nanngitir
▁eltugol
▁ɲaaɗuɗ
itay
▁seytinan
▁mayɗ
▁anndaano
▁taggaa
▁janano
▁faalegol
soo
ɲo
uddi
▁waawirta
▁Anndira
▁art
▁hattan
▁wumini
▁gori
▁barmin
▁lontondir
I
▁nanndolla
▁mahoo
ewal
dam
▁ɓanngi
▁nannga
▁yanay
▁ɓawli
▁yaafantaak
▁Wur
▁dañ
▁addane
▁gimɗi
▁waajitora
▁bonu
ndagol
▁woɗa
▁haasid
▁wanngo
▁sakkit
▁suuɗata
diiɗi
▁gu
▁Hu
▁Jaŋt
▁jantee
▁yaltine
▁ŋalɗu
▁hebul
▁ƴettiti
▁kuɓɓ
▁gasayno
▁peew
cugol
aduna
▁ñaamu
qii
▁haɓee
▁gannd
▁Jogito
▁nyaam
▁luttit
▁Raa
▁sakkitoo
▁ukki
▁darto
▁jiid
▁ngel
emma
▁Feni
▁keccu
▁toranto
▁gootii
▁ruttite
▁anndaande
▁hoɗunoo
▁Legg
irɗo
▁ndim
▁Suufaa
▁huuwir
▁yananaa
ele
▁felnii
▁hulɓinii
▁wattane
firi
▁Li
▁yejjitii
nora
araasi
▁sood
▁haɓii
uuda
▁Jippinan
aba
▁jarnu
▁faasiqi
▁landondir
▁nja
▁wurnit
wlugol
▁muɲɲan
ygu
▁uddii
▁wongo
▁tottii
yninaaɓe
▁sunnin
▁jaarn
▁ƴeew
▁hoɓ
▁cuɗinani
▁ber
▁iwrata
▁ɲaawoya
loo
▁fetti
▁ƴ
▁dakmitor
▁Weltod
▁yankinanaa
tuma
ango
▁anniy
▁ndikka
▁feɲɲinannoo
ullere
▁tuu
uuɗe
▁maggi
ntaako
▁accitee
aako
▁fooliri
▁Yahuud
▁buumi
▁hoynuɗ
▁sottor
▁tiiɗe
▁feɲɲinee
▁penn
▁ɗimmoo
▁Wee
qa
▁nanditayɗ
▁sattu
▁ɲolata
ndin
▁kii
▁ɲaawii
▁wooti
▁wurtu
▁ƴawa
▁iwtirnoo
▁laaɓani
▁bukk
duɓe
▁ardunoo
▁yejjita
▁sarti
▁yii
▁heɓayno
▁fiɗir
▁halfina
▁ɗiɗoo
▁Wor
▁windaa
▁paa
▁ndoga
▁tafiraaɗ
▁laatanto
yiina
dimbo
▁fuɗɗori
anton
rtaa
ontuma
▁ɗaw
▁Jonnit
▁kannj
▁lootan
okkude
▁Ñiiɓ
bba
▁ɓanta
▁malnata
▁meema
▁Wooda
▁tiiɗa
▁immina
▁jonnan
eende
▁acciri
▁yottor
▁yenn
Gomɗin
▁ñaami
irgal
▁caabi
orɗe
▁sonka
▁adondira
▁cuɗinanaa
▁liddondiri
▁ardata
▁fewnay
▁mandilin
▁laƴoo
▁tampinir
▁Wonndi
▁cokk
teede
▁timmir
▁laɓɓiniraa
▁okkanoo
▁innetee
▁Yiɗ
▁okkorta
▁ɗaɓɓataa
▁Iwr
▁subbunhinanoɗ
▁nawrata
▁ce
▁wont
mbir
riyank
▁farlii
▁ge
rayno
▁ƴawn
▁taƴaa
dotaako
▁Wahayin
▁beel
▁surraa
▁nunɗu
julɗe
▁janngan
▁kurkantoo
▁tefan
▁foolir
▁hocci
▁yeddondira
▁wowlirayno
▁notan
▁liit
▁cer
▁daroo
▁faaɗi
won
▁cikka
▁suddi
▁Fewna
▁fenna
▁haɗaa
▁waa
▁ndewat
▁fellitaa
▁Yeɗa
▁Rent
diina
Joom
▁toriɗ
▁wor
▁kolli
▁ngaynaakoo
rtee
▁ruttii
▁wahayin
▁Lid
▁defu
▁andiro
▁ɲaamidu
▁yaltinira
okkitiray
▁waɗirta
edii
▁ciikulii
▁yarnir
aati
▁darnirɗ
▁resin
▁ñaa
▁banto
▁njof
▁jammi
▁feɲɲiniran
▁gabit
▁Wattan
▁welsindii
ƴaango
▁Yedd
▁tampinee
▁muñ
▁majjinir
▁ɲaawirt
▁ardin
];
▁fontu
▁hayriraa
farin
▁ndeya
▁lamm
▁yeeyit
▁jogore
▁yeet
ud
ordu
▁taƴo
siɗɓe
▁yewtirii
▁silm
▁gomɗinon
▁Ñiiɓn
▁harmin
▁toowungo
▁windanoo
undu
▁ñiiɓii
▁ŋaɲɲa
▁sinci
▁wuurira
▁fanna
▁wumi
▁tabintina
▁Mawni
▁jojjii
▁kafidata
▁lint
kal
ɗaali
▁jippinta
▁accaa
rooje
so
were
▁ardor
▁soktor
▁meemata
▁yaafani
▁resata
▁hakk
guɗi
▁tawdano
▁Jipp
▁ɗal
tinii
▁yaltinay
▁maaka
anno
▁mbele
▁meeɗinir
ajagol
▁tafiraa
▁addannoo
▁cikki
▁rewri
▁ɗaat
▁njeddi
hiimi
diiɗo
▁hormor
▁eɓɓoo
▁weeɓan
▁huccita
▁sujj
▁townit
▁Tawa
iranoo
▁towna
rɗaa
z
▁alɗin
▁ɗaɓɓoya
▁loow
▁yaaforan
▁wuurnita
▁hiir
▁tippa
▁cattun
yngal
▁Ro
▁ɓadondir
▁taƴii
▁ndarn
maani
▁nawrayɗ
▁karamokoo
▁sunnira
▁sahinbin
▁Kan
▁wennji
▁Waɗani
▁sard
▁Wel
▁yoɓe
▁immindin
▁wonki
▁layir
▁ti
▁feri
▁tapp
▁yurmetee
ndirii
▁weddit
aabi
▁Fan
▁ɓiƴ
▁soppi
▁hirsa
Yo
▁wuji
oyon
▁maccinɗin
asbe
roo
▁sakkitoru
▁hinndi
▁dawi
▁sonj
ittana
▁taf
▁sens
▁kaaki
bb
▁lor
▁janngi
▁sirk
▁ruttit
▁waɗtinir
▁Ɲaawoo
▁timmun
kar
▁nafqu
Kono
gar
▁piyaa
▁yooruɗ
▁dewe
▁wuttaa
▁tiiɗina
aytuuni
taano
ntoore
hay
▁hoɗoy
▁bula
▁bonna
▁muus
▁Wasiyi
▁iimaan
▁muk
▁Haɓ
▁udd
▁wirnan
▁liiƴ
▁yuɓɓindir
pi
▁suuyi
ɗetaake
▁haqqil
▁jib
▁hewtay
hin
▁juuli
▁Jooɗ
N
fugol
▁njeeɗiɗ
▁beln
▁findini
idi
▁Woondi
▁ñaaƴo
▁ɲol
▁ɗowtu
▁addanaa
kono
▁waawani
▁Waɗan
▁sunn
▁immintina
▁Lepta
ɗere
duru
▁Mar
▁Aroy
kesa
▁mehinɗin
▁mooɓondiri
▁ɓamta
▁Ƴett
▁her
▁wurtir
▁Yoɓ
▁ɓeydant
▁haaɗi
▁fillayee
▁welu
▁Waɗanaa
▁ɓooya
▁udditaa
▁hunna
▁njee
▁ɓeydor
▁bed
▁Dill
▁jebbilii
▁janto
▁warri
▁mettin
▁Yaas
▁dakmita
ayni
ndaade
▁rimi
▁tikka
▁lumbit
▁fonndo
▁hew
▁firtoo
▁dagin
▁Halk
ƴƴere
▁jeej
▁Nanngi
▁felir
yɗe
tinoowo
▁eɓɓa
moƴƴi
inde
▁binndo
yaasi
▁Fel
nduru
▁wonoy
▁goong
▁wonayno
▁tin
▁aɲuɗ
dunoo
▁ndaaray
▁jaŋto
▁sahaaba
▁mbaɗa
aan
▁fellintin
▁hoɗata
▁werl
umma
▁yewtidu
▁ɗaɓɓii
▁waɗanaa
▁gollu
▁wennjir
Ɓen
▁sirku
▁hanndu
ɓernde
▁tonngi
aaru
▁lootu
▁yaaray
▁sattung
▁faggit
▁janfoto
▁buuma
Yiite
ndinaare
▁ndart
▁waɗanay
▁Kis
▁seede
▁yarid
▁wakkilindir
▁tur
mofte
nton
nɗon
▁refi
▁ñammi
▁jonnitir
nayɗi
▁Anda
Aray
Yaltu
▁sakki
Taw
▁winndu
▁nafk
▁Nee
▁hippa
▁farlaa
▁ɗaɓɓay
▁waɗetee
▁njannga
▁hel
puɗi
▁eto
▁piyir
Anndon
saa
▁darnu
yon
▁Okkii
J
▁mawnintini
dani
▁tampini
▁kurk
▁ɗat
▁ɗenƴi
▁muusu
aananaa
▁gom
▁bant
▁yiidi
sab
▁ñaamira
oobo
▁yiltor
ahadi
runoo
▁ɲaawirɗ
▁aanan
▁ɗeɓa
osi
▁hebulana
▁huuru
▁Hawr
▁daror
▁wana
▁haako
nkaaku
▁Arsik
▁tii
▁happan
▁Kanaa
▁piyiran
▁sopp
jala
▁Tuur
▁laɓɓinaa
▁maamaa
▁fennunoo
▁lay
▁wonon
miina
▁yaaday
▁hecc
▁ngoonɗi
▁jaggitu
▁gala
bela
▁Hend
▁innaa
aranke
▁wonda
▁duŋ
▁ŋoo
▁sonna
▁guluuj
▁reway
▁welir
▁hoyɗ
▁ndayg
tora
taaka
▁kutu
Kisa
▁marani
▁alan
▁keefeer
▁yirbi
▁It
▁Ɓutt
▁huuw
▁laɓ
▁kank
▁fawaa
▁Janng
raaɗi
gurndan
▁huma
▁wattir
ñi
▁gollunoo
▁dakmit
▁Sin
alli
▁Usmaani
▁Bartolomaawu
▁Senndindir
▁Yaakuub
▁Zaakaru
▁abajada
▁bagamma
▁gerenteejo
▁kankiranwal
▁lagamb
▁mbirniindi
▁meselal
▁uumaango
▁bolonru
▁fooccaade
▁puyndan
▁saffawol
itasolo
▁dikkuru
▁ganngunal
▁luggeendi
▁konkooru
▁rannga
▁Gereeki
▁buutoori
▁heeriinde
▁nennitanteeɓe
▁coɓɓuli
▁etirante
▁gomɗumɓe
▁doosal
▁coggel
▁Efeesiyankoo
▁saabiwal
▁foññe
▁njulaaku
▁musidal
▁garankeejo
▁ndagawal
▁daasotoo
▁ndaarorgal
▁daabe
▁otowal
▁nayeewu
▁lomto
▁bantara
▁mbattiigu
▁cabbi
▁cukulol
▁yehii
▁njeenayo
▁Manas
▁dammbe
▁Abiiya
▁njett
▁reereɗu
pertube
manankun
▁cattal
▁nennantaake
▁sowindiran
▁cowndi
▁yamaruyee
▁sariire
▁foolotir
▁remuruuji
▁tiindondir
▁njamira
▁puɗal
▁lontotooɓe
▁huuwoton
▁Welsin
▁lakkere
▁jaɓɓagol
▁kaŋko
▁fijooɓe
▁nannduɗe
▁jiiba
▁jebbilaare
▁humammbinneejo
▁nennitanam
▁fason
▁wallifagol
▁Suɓaaɗo
▁nganndah
▁faggitinoo
▁fagginoo
▁yeenugol
▁ceerndugol
▁hellifaa
▁lincun
▁goonɗuɓe
▁sattundu
▁wootinɗin
▁wubb
▁Faamee
▁fooyn
▁wuttaandu
▁ɗawre
▁sulmoy
▁nantinoowo
▁hoolniiɗo
▁lunnagol
▁Jaloo
▁tilfugol
▁marga
▁seytanuuji
▁belaaɗe
▁kippoodi
▁suuɗoton
▁diwnol
▁cergal
▁fijugol
▁walletaake
▁famɗi
▁hulatah
▁beelol
▁Sunna
▁ɗuuɗundi
▁hoddu
▁gasata
▁baddi
▁marmalle
▁welɗam
▁buumugol
▁dimmbugol
▁tummbo
▁yeddiraynoɗon
▁yondanii
▁Moƴƴinee
▁sifotoɗon
▁cippir
▁tataɓal
▁mbelndi
▁ciif
▁sincugol
▁wahayu
▁bonnitugol
▁dalli
▁ooñannde
▁taƴaangal
▁doginoowo
▁palal
▁faaɗinan
▁añanɗo
▁tortagol
▁wurnay
▁habbitee
▁jinnaaru
▁teddundi
▁haqinqingol
▁hajagol
▁dimmbagol
▁dartagol
▁lamndondira
▁Pelle
▁wahyii
▁ñaawoowo
▁pompi
▁koohooɓe
▁ronkere
▁ñeñaande
▁Daaluyeeji
▁awaamu
▁feewani
▁solugol
▁Ganndo
▁woɗɗitagol
▁Ɓurniri
▁yimoowo
▁henge
▁yankinoran
▁gomɗuɗo
▁qirritike
▁Faandii
▁neeminaaɓe
▁ruuɗii
▁penɗe
▁annditay
▁remugol
▁tuubira
▁runtii
▁luusi
▁sowndoo
▁tijj
▁townitiiɗo
▁haaɓataa
▁hollitagol
▁jantaama
▁juulooɓe
▁barkinaaɗo
▁jillindir
▁labaaɗe
▁nafoytaa
▁raɗaaɗo
▁ronkinooɓe
▁soppugol
▁addor
▁haawniinde
▁mawnunde
▁tooke
▁Roomiyank
▁halkaaɓe
▁yettataa
▁senndugol
▁suɓagol
▁munca
▁mannge
▁kesol
▁tamƴinii
▁feewataa
▁hippagol
▁ala
▁ɓeydaari
▁memmingol
▁peeral
Ar
▁keeda
▁nawli
▁soppete
▁tesk
▁immitagol
▁wallinee
▁haawnii
▁sattunde
▁woɗɗuɗo
▁fewjude
▁hollitoyoɗ
mbur
▁dakmitoo
▁yarooɓe
▁yiɗuɗaa
Bugee
▁wuttugol
▁tuubaali
▁hurun
▁sunningol
▁bewɗo
▁muññii
▁wontiroyay
▁Janngan
▁sikkitagol
▁tambit
yalbi
▁annduno
rankee
▁jent
▁ngollat
▁hunci
▁Waɗɗin
▁Lislaamu
▁yantay
▁peesirɗe
ilol
▁laatotaako
▁yeetito
▁yaccotoo
▁ummini
▁moolori
▁annditugol
▁Hoolor
maande
▁yaafagol
elen
▁tikkuɗo
▁felu
▁feññingol
▁ruttotooɗo
▁ɗuuɗunde
▁seedike
▁tampa
▁goree
▁bente
docotal
▁fiɗugol
▁feeñuɗo
▁katan
▁laamori
▁kaawee
▁labaande
kkugol
▁janngugol
▁saɗtunde
▁jaabagol
▁sokli
▁hurg
▁hiwro
cogguur
▁deeƴa
ñannde
▁toowuɗo
▁foolugol
▁sertuɗi
Ɓee
▁hawjiran
▁Mooɓoy
▁yarirde
▁nawyii
▁yanal
▁sellingol
▁saasu
▁jikke
▁heer
▁daɗugol
▁koccu
▁mantugol
cop
▁humpati
▁jippinaama
▁sattude
▁muɲɲanto
▁yiidoy
▁War
▁timminira
▁heɓorta
Al
▁ɓannginiran
▁jogiɗon
mee
▁nafaali
▁adaade
eteendi
▁ɓeydude
▁juulugol
ogooji
▁sabbii
▁aroore
▁binndi
▁jibingol
oyoo
▁kafidi
▁ɓuray
▁tabiton
▁daɗndunoo
▁toowde
▁faaletee
▁yeloto
▁memataa
▁ƴantir
▁hooliiɗo
▁Alya
▁jogitoree
▁ñeeño
▁pee
▁fotugol
▁Gal
▁fottoy
▁jokkete
▁ñaande
▁yankin
▁jahal
▁Cu
innde
▁Jann
▁maggel
▁Herm
▁tindin
▁kafiduɓe
teno
▁nand
▁baabiraawo
▁sooyii
▁sifan
nagl
▁rona
▁yiiloo
gujjo
▁jippineede
▁sortor
▁hawray
▁yaltira
▁tuuyo
▁sokiraa
▁taaraa
▁wattugol
▁joltin
▁yonata
▁ñinn
▁ardiiɗo
iyuus
▁wubbi
▁Haforan
mbol
▁neldu
▁aruno
▁lamminaa
▁Pottit
▁iwray
▁attii
▁ñaawi
▁ñaamataa
▁artugol
▁gollugol
▁woondu
▁njaaf
▁jattoo
▁aska
▁tumbo
▁hecciɗu
▁ñogg
▁duncantaa
Jantee
▁sun
▁gaara
▁sendo
▁yedday
▁jooɗinoo
▁Torano
▁fokkitan
▁tawnoytee
▁Suɓii
▁dagan
▁fillitoy
▁yarirta
▁sunneteeɗ
▁ɗaatuɗ
▁senditana
▁huuwata
▁bonnuɓe
▁newiiɗ
▁yoɓitoyte
teɗon
kan
▁nulida
▁Jogor
▁sertu
▁dogay
▁wennje
▁waawira
▁feet
▁Apolo
▁Terto
▁sete
▁mooɓan
▁huɓindii
▁yaccinanay
alaande
▁tambii
▁Ru
▁umma
▁hawtindir
▁lancaa
▁daɗataa
▁warrata
▁leptay
▁wowlira
▁heefere
▁nannd
▁gollii
▁leel
▁moƴƴuɗo
▁fuuti
c
▁ferii
oytaake
▁fittiri
▁tawroy
▁Wahyin
▁ɓillii
▁sincaa
▁muuyanaa
▁yeddude
ña
▁leptiray
▁wedd
▁heɗiiɓe
▁jeeja
▁maral
▁okkoree
▁meminir
ndoo
▁hendorɗ
iyam
▁Tagu
▁dandete
▁anndintina
▁fottani
▁mawnikini
▁niɓɓit
▁sukk
wiide
▁njippini
▁heɗito
▁yawitii
▁sattuɗ
▁yonta
▁Aka
▁ɗiggan
▁faddo
▁ɲola
▁waajoy
▁ɓaɗii
▁wahyini
▁yeeya
▁maƴan
▁hippiri
▁yaarooj
▁ɓuɓɓini
▁ndewata
▁halkuno
▁Nule
kkitagol
▁duul
▁dirtin
▁firsi
▁suuta
▁tikkan
dahaaɓe
▁yewtii
▁pooɗondir
aŋta
▁ɓami
▁ŋalɗidi
anooma
▁maayan
nafqata
▁ɲaawata
aaf
▁huncan
▁jump
▁semmbinir
awoore
▁haalana
▁yiirata
▁yaltinta
▁juutin
▁jaɓɓor
ng
▁ronid
▁ngona
▁gunnd
▁faamon
▁maniiyu
▁ardiiɓe
▁wewl
▁fodu
▁hibbaaɗ
▁ɗuuɗunoo
▁Dokk
ca
▁Tooñoo
▁ɓamtu
▁hersinoytaa
iyuun
▁gidd
▁fawata
ppagol
▁yaltid
▁faasiqee
▁nangani
Jibriilu
▁ɗowor
▁daalir
▁cuɗir
▁Yaaf
▁ɗenƴ
▁Fur
itiiɗo
▁weeɓitiran
▁jonnee
▁dartaa
▁yees
▁imminani
▁eɓɓir
▁tagg
▁fawon
▁tigiri
▁Mawnin
▁hollit
▁nanga
▁kolon
▁ƴa
wugol
▁ɓaɗtin
ayru
▁seniiɗ
▁alla
koo
▁jun
▁sowt
▁Taga
▁Kul
▁mantira
mp
▁dunndaranke
▁habbito
▁Timminir
▁tubb
Him
▁feɲɲinoy
irten
▁haɓidaa
▁temmee
▁Baabiraa
deede
anɗo
▁boo
▁nafoo
▁woodanno
▁nawnunoo
uumugol
▁Waɗunoo
▁wirni
▁woɗɗondiri
gugol
▁Saar
▁yoorii
▁sunnee
▁mula
tawnde
▁anndaaɗo
▁jeya
▁Af
▁eɓɓindir
▁bara
▁feer
aŋto
▁ngadd
▁yarlin
▁Hoyn
▁resu
▁deƴƴit
eeƴol
▁seert
▁hawrani
▁fewtinir
▁alluw
▁waɗɗina
▁ɗuurn
▁artata
itiiɓe
▁faaɗu
▁mbaaj
▁sum
▁penni
rkun
▁nenn
▁ɓad
▁deƴƴ
▁gollid
juhu
▁Woɗɗit
inndere
▁piir
dimb
▁hawju
▁toɗɗor
▁kelɗ
▁Jippinno
▁rewde
▁fonn
▁yaarata
ɓoyay
▁naadaa
▁gomɗinnde
aari
▁ɗaynoo
▁yoll
▁rinɗinaa
▁iwu
▁haɓɓa
hey
▁U
oraa
▁dadit
▁farl
tira
▁caab
▁faamaa
▁almasiihu
▁laɓɓinan
▁limaa
iraawo
ire
▁huɓindaa
▁haɓir
▁ɓittina
▁siiwa
▁roonda
▁happanaa
▁Ca
▁bunng
▁jippinir
▁heɓaa
▁tultu
▁yurminte
▁ɓornoto
▁ɲammin
▁yowit
▁moƴƴiniraaɗ
▁tuunuɗ
▁faati
doyto
▁mooɓata
nnji
▁mawninira
▁layu
luwaa
sal
ineede
siyon
▁miijor
▁cuɓ
▁timminir
Iisaa
tti
▁Has
▁njoor
▁eewnoo
▁ceedii
▁huncii
uuka
▁hetto
▁muyn
naade
▁jannaa
▁aroyii
immo
kkee
alɗuɗo
▁tett
tin
▁hiitan
▁yetta
▁ardoy
▁tumbondir
▁bugito
iidugol
▁artii
rnoɗon
dan
▁timmiri
▁janfaa
▁fuu
▁townitan
▁kaaru
Kis
▁gennda
▁wariree
dinooɓe
▁faandori
▁gall
▁timminiri
ɲ
▁ŋunu
▁tagri
▁lugguɗ
▁suk
▁ci
▁jiiɓii
▁Hun
uruyee
▁kasoo
ning
▁suɓino
seeti
onto
▁jaggiti
▁ronndo
▁Yaaju
nna
▁neeminii
puus
tiree
▁feƴƴuɗ
natooɓe
▁eeltan
fotooɗo
▁Lo
▁malet
▁adaa
▁Lan
▁Ɗaɓɓ
▁muyninay
▁kel
▁udditant
▁wonuno
▁fertan
aasi
poy
▁dagiiɗ
▁wewlinoo
▁tikkin
iinu
eteeɗi
▁kiloo
naaɗo
▁hisini
ooru
liyaasa
▁yahdu
▁Hoot
rata
▁yiltitoto
▁Moft
▁taaliba
▁tampina
▁sogit
▁bammb
dowru
▁mbayl
▁ndarndee
▁leeln
▁duncan
baaɓe
▁Ɓaŋngin
▁jokkitir
▁juur
▁ndikkini
▁ust
▁Bere
▁feewna
ce
▁fiyan
▁Jiyaa
urugol
anah
kere
wtaaɗo
▁nel
▁eeso
▁donkinir
▁bewu
▁yonndin
onde
ufugol
▁baab
ntiy
▁toɗɗaa
▁taar
▁feeɲiran
oowe
ccugol
▁dagani
▁yewtirtaa
▁torord
▁foccee
▁halka
▁mooɓoyt
▁fellita
wɗo
▁subbunhino
▁hiwitorɗ
▁asko
▁deen
▁winndaa
▁hibboy
▁ɓannit
▁kattan
▁noddindir
▁Lamndi
irteɗon
▁bannd
▁hawt
▁kayr
▁Reenu
▁hecciɗi
▁Ree
wagol
▁Jogit
▁ukko
▁hebulan
▁nganto
▁feewii
iyata
▁rewaa
oɓɓe
▁beyta
▁bewin
»
▁faay
alii
▁bal
▁ardinoo
woy
ilugol
▁fewnira
▁dakmitorɗ
▁wuurirta
▁dullu
▁saama
attane
▁fiiltii
▁Miika
▁tikkani
▁waw
▁wuuriti
▁yoɓoyt
ungu
▁waylita
▁lurr
▁goonginir
▁andataa
ahiimi
ɗal
▁wallit
▁Siin
▁yedduno
naaɓe
▁laan
▁senndi
▁jagg
ndaare
▁Dool
▁ruttirt
jji
▁Hanna
▁woɗɗitinoo
▁ñam
▁feƴƴira
nana
ammuyankeej
▁jind
waa
siɓɓe
aya
▁jaabinan
▁haɓɓira
▁Re
▁loƴ
▁yarataa
▁jee
ndotaako
▁Huɗir
kiya
▁diwni
▁punni
▁tak
alaa
▁nodde
▁winndan
kku
▁woodiran
▁kirs
usu
unndu
▁sujjanta
▁buun
▁tindi
ax
▁wudd
▁rawn
▁Fewnir
▁Yoɓir
asi
▁man
▁rent
ranta
▁hitt
itaade
uutu
▁togoo
orton
▁gooti
▁feɲɲinanee
▁adde
tinoo
▁muññ
▁hoora
toyii
▁laaɓu
▁yawtu
▁hawtuɗ
aamere
▁taaro
ondira
aajitotaako
▁haanu
▁jarribo
▁ɓaŋ
anndu
isa
▁hippoo
ñ
▁hattani
▁saaƴ
▁timmuɗ
▁darna
ada
iroy
▁fuɗin
ppitugol
▁hentin
▁nins
▁gomɗ
▁fitin
▁lummb
▁Are
▁mbul
▁jaaj
▁liɓay
▁Reeno
▁genndo
▁yaawu
irɗon
▁piya
▁Bi
▁addir
▁woondoo
▁dankor
▁okkuɗ
▁yupp
▁wakkili
▁Welt
eli
▁hendorno
▁niɓɓitu
▁Yum
iiɗe
▁saakitii
iraama
▁addanay
▁kafidoto
▁humo
lam
▁Almasii
▁heɓoyt
▁ŋalɗ
▁yoɓitir
▁tawoy
▁yeruuj
▁addee
iberiya
▁pat
▁weeɓ
▁koolaa
▁wakkilinir
▁ɲolu
▁hacc
iyaa
▁wure
▁font
▁rentin
▁feɲɲinir
▁muta
▁yoɓoy
▁ɗoftaa
▁honn
▁pu
▁soka
▁jibina
▁Hawaa
nanii
▁kafiduɗo
▁nanoy
▁kesu
▁maandinir
▁dannda
▁gan
ɓa
▁artiri
alfeere
▁ban
▁sirka
▁lamitor
▁nete
▁doln
▁ooñi
ortaa
▁ɲiddin
▁Dim
arugol
▁Nan
▁ɓanng
kaa
▁anditoy
▁foll
▁deeƴi
▁heña
▁hulan
▁ɗofti
▁meeɗina
ŋe
naayi
▁biro
roore
▁hummbu
▁Moƴƴi
▁ngoonɗini
▁maƴe
▁harmi
▁haajaa
bedi
▁jombi
ndirana
▁yiltee
▁meemii
▁tawee
fol
tono
▁mema
eeti
▁ñaawaa
usiɗɗo
▁aawas
▁hasb
▁tataɓ
▁wooc
▁Laaɓu
▁Naf
iranta
idude
▁hikkan
▁naatuɗo
▁saas
▁weltina
▁maak
tammi
▁sinaa
▁Sam
▁dillir
▁halkir
▁luggi
▁jibinta
▁ɓamti
▁hunc
▁wallitotoo
▁ƴe
▁banndi
awɓe
niraa
▁iwran
▁ƴettoy
kkitugol
▁annday
▁darnaa
▁ngonaa
▁seeri
ura
lti
▁ɲembu
tirɗe
▁aroyayɗ
▁hettay
irtee
aabii
▁hucci
bon
▁immani
▁ƴakk
▁noddoy
▁fali
lngal
▁waylu
▁faamir
aawee
▁sattinan
inegol
muura
▁mawninii
▁hond
dane
▁yaare
▁insinani
▁newna
▁pita
▁haɗtan
gitaaki
▁siftor
▁mbaɗan
is
mmbo
rbat
▁feƴƴituɗ
ndol
▁daaki
▁wattina
▁yaggin
nooka
warooɓe
teeɗi
▁jindid
▁laataa
alti
▁hucc
ulli
iskin
▁rentaa
▁udditaak
▁coodt
empe
▁Wonki
ima
▁welsindiiɗ
ggal
▁yettir
▁wewlira
▁yotto
▁jarrib
▁cukka
▁hoyni
▁saati
▁Yaasu
▁gomɗinirɗo
▁Kur
▁ewno
▁kurkantooɗ
oyaa
▁naatira
kanko
▁ɲawndu
▁nuunɗu
▁ñaw
▁jinda
▁jooɗi
▁hikko
▁landor
▁yiɗee
eɓataa
▁fewj
ter
teendu
▁acce
▁seytin
▁laamo
▁jill
▁daaluno
▁malkis
▁cukko
laaɗi
▁kaalis
▁talen
Hi
ɓuri
raynoɗon
▁werlaa
arataa
mma
eteeɗe
▁heɗaak
▁aɲaa
urɗo
▁ɓado
rɓe
▁filli
▁puy
▁weld
ddoowo
▁cuɗor
▁hiwir
▁ŋun
▁ngañ
▁woɗɗitor
▁bepp
yatii
tata
▁jokkir
▁fagg
toron
▁silmi
▁wuurn
▁yaltir
▁saakiti
▁noti
▁Acci
▁huɓɓin
yiila
▁Nuliri
ruu
aynge
▁uddita
▁tenƴin
▁moƴƴiniraa
▁baasi
▁Dew
feere
▁bakkondi
▁Adda
▁anndoya
▁hoddiran
▁wonduɗ
▁barkini
▁hersinii
▁saaki
▁hikkorn
▁fuɗir
▁feññina
▁huu
▁wele
▁haaj
▁woɗɗondir
Jertin
aɗoowo
▁huɓɓu
▁ɓanndi
▁aalaa
dere
▁Arsika
loowo
Yaltine
▁ukk
▁fonnd
▁maru
▁jicc
▁yeeyitu
tan
▁aybi
▁ɲal
▁jeertin
Are
▁faabotoo
▁saw
arii
▁Musi
▁fewji
▁lanndi
▁yuɓɓ
▁moƴƴinta
▁ƴuun
▁feƴƴa
▁Welto
▁guu
▁jantii
▁ɓeydaa
Aayeeje
weltingol
▁sellinira
▁aynir
▁nawrayn
▁soɓ
jjugol
▁yaafee
▁ngoond
Hin
▁too
▁eɓɓind
▁goɗ
▁ɓittir
▁Acce
▁raɗaa
▁maaɗu
▁tabintinaa
▁ask
▁All
fil
▁handu
suudu
▁nawra
▁yeewtid
▁fuɗɗa
maasi
▁Insinan
▁Daɗnd
ñe
rooji
notooɗo
▁hiɓ
▁yeɗuɗ
▁weeɓitaa
wre
▁Ndi
▁wattitoo
niree
▁dane
yuun
ajiri
▁ɓurna
nude
▁faamay
▁hatt
▁rinɗ
jemma
yiite
▁yaaɓi
dow
▁tagira
pees
▁wonn
▁cikk
▁ñeñ
iraande
kuuɗe
▁landoto
▁fodan
Deftere
▁naɓe
Ñalnde
oran
taango
▁nuunɗ
▁ɓitti
noke
▁habri
ttike
▁maɓɓ
▁Gereekiyanke
▁maayuno
▁soɓuɗ
nanay
▁Aa
▁niɓɓ
ɓiɗɗo
▁bolo
▁femb
▁semmbini
▁bele
orɓe
▁suri
mmo
▁wenga
▁janniri
ndarankeejo
▁tiiɗung
▁wan
raare
yagol
▁ƴantiroo
▁waylir
▁baaɗi
ndaaki
▁yaawi
▁nantin
▁jik
▁senin
▁jogondir
▁hebil
▁ɗuytu
Gollee
▁ngee
▁ɲawndi
ganndal
▁tentin
nani
▁suɓa
▁laɓɓintin
dammi
▁añi
▁heewir
fedde
▁wakkilina
▁yaray
▁hebilan
▁wahyina
ndiijo
geɓal
▁weel
▁focca
▁heɓirta
▁yaltinee
▁bonnira
tawde
▁cator
▁Jul
seytaane
Aljanna
▁jolka
▁kuli
engo
▁wuurni
Yuusufu
Wan
simoore
ndiral
fello
ɗataa
▁Waɗay
ɗooli
mboodo
▁laaɓuɗ
Yurmeende
mbobiɗ
▁ɗimmita
maayde
▁saakoo
▁nuluno
▁wakkilii
Qur
▁jertino
▁hollita
▁Tag
Anndu
tor
▁waɗtitira
▁gor
Sujjan
▁yoor
▁jaabor
▁mawnu
▁anditu
▁meeɗir
▁wojji
Tawreeta
▁tufi
hee
▁kippu
▁haqinqin
puccu
hunnduko
intini
▁jippinan
fotti
oraynoo
Eyoo
▁jindi
▁cukkee
gese
Ɗoft
iɗi
▁Few
Jey
▁ɲaawoyta
▁rond
▁okkitiri
uuruɗo
irooɓe
▁Goongu
liɓi
maaji
▁soñ
uuri
kee
▁jeyaaɗ
▁Faala
▁fottay
uuɓi
▁ɓorti
iroowo
▁wahayina
baali
▁wutta
▁sotti
filli
▁accir
▁janfii
ɓɓi
▁nanndu
▁catoɗ
▁yiɗindire
Fa
▁faamira
wrugol
▁moɗira
▁naamn
▁andita
▁ɓeydata
▁way
▁goongini
beere
▁yaafor
▁faandino
dente
▁ndarndaa
▁waɗɗin
diree
rru
▁heblani
ɗoowo
▁rewira
▁towniti
▁koɗe
▁fewnaa
▁keni
▁jalnor
▁haalata
noyoo
lnde
diiɓe
ukun
▁nule
▁añan
▁yewtid
▁habbitii
orgol
▁eltan
▁ɲaamuno
ƴu
▁Lin
▁filliti
▁alda
▁loop
▁bad
▁soɓɓindii
▁jaasuɗ
▁shirk
▁ɓadi
▁hersu
▁mawngo
▁Yott
▁duñu
▁Gol
▁diid
▁yananee
nabaaɓe
ogirde
▁mulira
▁kulju
▁Hattan
▁ranew
▁Okk
▁haqq
▁wontiroya
▁hiw
jaatigi
▁ƴiiƴ
▁harmu
oopu
▁Hasboo
▁weltoray
▁daƴƴe
▁Seezar
v
▁gubalee
2
Zaqquumi
▁Afirik
▁Dimitiriyuus
▁Subhin
▁Yankinan
▁alyatiime
▁barget
▁baydoolo
▁ciftanirgol
▁delegasiyon
▁geloobi
▁himpaare
▁kaybonru
▁kellefuyee
▁kolombooje
▁lappol
▁mannjallajii
▁pallardi
▁rayrayti
▁rummaana
▁sigareeti
▁tugaale
▁waabiliire
▁zurriya
▁ñedduɗe
▁ñirɓanii
▁mbobinɗin
▁ndeereraaku
▁Semmbinir
▁Waabilii
▁dinngir
▁kaftaane
▁liimanaaku
▁pamaroy
▁sulfinan
▁Towniti
▁fewtondirɓe
▁juhayee
▁ankeeti
▁feeteewo
▁nebbanteeje
▁seedanfaag
▁ɓaƴƴun
▁Cerno
▁seyɗan
▁ruugayɗi
▁Dolokk
▁waqutu
▁ƴulɓe
▁mbalndi
▁ñagara
▁resindirayɗi
▁hawnori
▁kalabante
▁limtaaɗi
▁teenirde
▁ɓurnindiral
▁holsere
▁Porto
▁Ishaak
▁aafiya
▁dugula
▁jinndooɓe
▁bitiki
▁ñebbe
▁conkenwal
yunge
▁alamaani
▁coggeeli
▁Rufu
▁Saliima
▁Saqara
▁jukkere
▁Jabuura
▁huuwaynoɗon
▁cagayaagal
▁riiwaaɗo
▁Alyahuudi
▁jiibuɗ
▁Jaaluuta
▁nennanteeɓe
▁toolaajo
▁fawñere
▁mbilɗaaɗo
▁ŋiñaaɗo
▁Ahodi
▁Fulɓe
▁ngoƴo
▁tooñoytaake
▁waretanooke
▁mbileyaagal
▁naafiqiijo
▁seteejo
▁ahoduɗon
▁tamƴinaaki
▁liitir
▁heɗitantoo
▁yaajeendi
▁kaawisa
▁haasboore
▁merere
▁ñimn
▁ŋoŋre
▁walloyteeɓe
▁jiibe
▁hiwraango
▁faajireeɓe
▁duɗal
▁peŋe
▁Ñinn
▁manndikirɗe
▁siyaakeejo
▁hoynayɗe
▁Hafroowo
▁Lewiyankee
▁ceekol
▁mabɓe
▁wattinoya
▁bullal
▁yoɓitetaake
▁punndi
▁newniran
▁kalaldi
▁fennanooma
▁sirkoton
▁Alyatiim
▁kellugol
▁duufugol
▁laaɓungo
▁sanamuuru
▁tamƴinoo
▁ɓiɗaare
▁jommbajjo
▁yaccinaneede
▁ɓiraaɗa
▁kammbirananoo
▁didoodi
▁diidere
▁jottii
▁huuwondiral
▁jolki
▁jurnde
▁muumini
▁banaana
▁Maajuuja
▁hoynantaake
▁Hormaŋte
▁kumpatiiɗo
▁nawaare
▁jaaraama
▁fefindoreede
dike
▁rentoto
▁ngoonɗinaani
▁jakka
▁hiiteede
Dakmitee
▁conndi
èd
▁wulɗam
eyopaas
▁miijitaaki
▁huyre
▁ardinoongol
▁bantagol
▁Laɓɓiŋta
▁njulaajo
biida
▁salaare
▁ñiire
▁fennaynoɗon
▁sabbi
▁dimaro
▁laaɓuɗam
▁seekiraa
▁haɗitaaki
▁debeere
▁goonɗinaani
▁malkisaaɗo
▁woɗɗungal
▁kawral
▁yoomere
▁weeɓinan
▁yaajundi
Uz
▁Yeetito
▁dukugol
▁hutaare
▁Tikkani
▁buusii
▁happiran
▁cawtol
▁yettoton
▁ɓalal
▁Uddit
▁Heɓii
▁jokkindir
▁haarannde
▁ballaŋal
▁duumaare
▁yahunoo
▁taasan
▁woopondir
▁wasiyagol
▁pahu
▁jarribike
▁Arsikoowo
▁Nunɗ
etanooke
▁duuti
▁nenndi
▁Timmbo
▁jeertinoowo
▁ruttoytoo
▁buudi
▁ornay
▁bakkondinɗo
▁hiraande
▁ballaŋ
▁hodoowo
▁ɓaleeje
▁mbatirdu
▁hattanaani
▁waylitorde
▁hormanteere
▁ɓaleejo
▁manndakke
▁meerenteeɓe
▁laaworde
▁foro
▁hollitaare
▁Wuurnit
▁weltoto
▁njelo
ɗu
▁holgo
▁ɓoorugol
▁wakiil
▁fefindaande
▁sogonal
poolal
▁ñiiri
▁paykunyaagal
▁moose
▁masin
▁habbaaki
Onon
▁Yuliy
▁daa
▁taggugol
▁takkere
▁Ɗeri
▁ɓornagol
▁jaragol
▁danndugol
▁liggitu
▁accete
▁firsinaaɗ
rooɓe
▁miijitagol
▁wuugir
▁miijant
▁cuɗiranaa
▁ɓittiiɗo
▁seeditotooɗo
▁ooñotooɓe
▁mawba
▁ceerti
▁Kulood
▁duumiindi
aawetee
▁tampinaama
▁hoyngu
▁ɗowɗe
▁deeƴirta
▁haɓooɓe
▁ndaygingol
▁ƴem
▁sakkagol
▁haawne
▁fillitike
▁takɗo
▁feŋ
▁miijitoto
▁moƴƴundi
▁caltu
▁serdu
mminaare
▁ñinnugol
▁muññinoo
▁huɗaama
▁tataaji
▁fensitannde
▁ñiiɓuka
▁hoynaa
▁fotondiral
▁buumor
▁reeniiɗo
▁caaga
eñer
▁ruuy
Find
▁soyɗi
▁yiltagol
▁yahayno
▁haɓide
▁yoorundi
▁daɗal
▁puyɗo
▁ndenndinta
isal
▁fuutor
▁huɓɓunge
▁jarnay
▁perte
▁wennjondir
▁wattitugol
▁fillitoo
▁hersataa
▁soodugol
▁Duñir
▁yottina
▁huɓindiiɗo
▁weltinoowo
orani
▁dakmitee
▁ɗayre
▁foda
▁ɓurtay
▁tooñaama
▁laɓɓiniiɗo
▁janfondir
▁ɗaayɓe
▁bugoytee
▁moƴƴinani
▁seedaaɗo
Moolaar
▁Samu
▁moƴƴinngol
▁tentingol
▁fefindor
▁memugol
▁boyd
▁bonayno
▁Kenke
▁yawtunoo
▁fitnin
▁faljinira
▁bannju
▁foddugol
▁funtin
▁ñiiɓooɓe
▁rewoyay
▁coɓɓ
▁ronoyay
▁ninsuɓe
▁boobooɓe
▁ɗowt
▁noddiroyte
▁luutindir
▁lettugol
▁Jakariyaa
wle
▁haaca
▁mooɓooɓe
▁gollidude
▁harmintaa
▁ndar
▁bugondir
▁weeɓitugol
▁Jattin
▁saɗtinan
▁lannditoytee
▁suɓoo
▁walloowo
▁taƴike
▁shirkoo
▁waɗtidu
▁hunnirana
▁daɗirde
▁koɓol
▁hoolike
▁Yawtanoowo
▁yaajunde
▁waawunoo
▁tamara
▁Hebulin
▁suuɗude
▁ruttiiɗo
▁keɓal
▁Ñaawoo
▁weernu
▁julɗo
▁ngayuu
▁siwr
▁ngarii
▁tuuɗe
▁wennjugol
▁Bunng
▁ngollatna
▁njoɓdiiji
▁lamndi
▁huuwugol
▁fubbo
▁ardiniri
▁kulji
▁maakunoo
▁njooɓa
▁nunɗiri
▁yumeende
▁Qaaruuna
▁waali
▁Saamiriiyu
▁tinay
▁Fewtinir
▁joolol
▁raɓɓindin
▁Faransi
agataa
▁faddagol
▁tooñunde
▁terti
▁halkugol
▁hoomt
▁hello
▁Wutte
▁janfo
▁soomi
▁jaɓoowo
▁luutindira
▁maandinaaɓe
▁diinaaji
▁kaf
▁ninse
▁Farl
▁townitani
▁nafaaji
▁Yurmetee
▁jonnitugol
▁suuɗinoo
ndirta
▁okkoreede
▁konhoyri
hé
▁hollete
▁njaha
▁njaare
▁wullataa
▁ɗuuɗal
▁muññi
▁soɓɓindiiɓe
▁mooɓugol
▁ooñorde
▁jinnaaɗo
▁ndaaroowo
▁toowunde
▁maayidii
▁cerno
▁saloo
▁habbitiiɓe
▁yottiiɗo
▁heddanii
▁bin
▁Duum
▁gomɗinayno
▁sertuɓe
▁janngeede
▁goonguɗo
▁townitii
▁weeɓitoyte
▁yettude
▁weeɓitannde
▁sundu
▁wujjude
▁maraaɗe
▁mutugol
▁mborii
▁waajaama
▁ñiiɓuɗon
kaajo
▁ñaamooɓe
▁bewuɓe
▁ndaarooɓe
▁hulir
▁wanngotoo
▁reerɗu
lif
▁firtude
▁nduttoto
▁daɲ
▁Majjini
▁coo
▁birna
▁rokkaa
▁lepteteeɓe
▁udditee
▁ndaga
▁nawlan
▁marng
▁ñiiɓnu
▁tawd
▁Hum
▁lasli
itotaako
▁muuy
▁nuunɗin
▁ɓeydagol
▁mowre
▁njar
▁yananeede
▁ɲoore
sidan
▁cukkotonoo
▁keri
▁woowaa
▁jaggituɓe
raafi
▁cemmbin
▁tagataa
▁ɓeydugol
▁taƴiiɓe
▁setta
▁yamirta
▁yawtii
▁njeɗi
▁ngantino
▁eltaaɗ
▁selugol
▁wurtugol
▁ɓadiingal
fee
▁fewnude
▁ñakk
baabi
▁haɗugol
▁taƴagol
▁ɲaamidant
▁holnor
▁wiliti
▁accunoo
lamɓe
▁ɓira
▁eɓɓindii
▁fooƴu
▁Mooɓitoy
▁fensitu
▁kuuɓ
▁bift
▁faɗɗi
▁haɓon
▁karte
▁kella
▁mbobiɗ
▁wiirude
▁moƴƴiniri
▁habra
▁mawnugol
▁lowi
▁haɗaaɓe
ulol
nden
▁ufn
▁noddiraɗ
dataa
▁hankin
▁wumuɓe
▁wattannde
▁kaalise
▁haɓirta
▁mawndu
renndugol
▁laɓɓingol
▁jangaa
▁etirɗ
faara
▁jalkitanoo
▁yiltitee
▁muyb
▁tampugol
gotaa
▁ñemmb
▁Anndal
▁hirsiraa
▁ɓeydu
▁golluɓe
▁ɓadiiɗe
▁jiccotono
▁gasii
▁nguura
▁duŋinan
▁immitoyto
▁ɲamaa
▁ɓannguɗi
▁ribaa
▁ɗala
ewtude
▁mawnintinoo
▁feeɲan
▁ombi
▁njejjit
▁Meeɗ
▁miskiin
▁santi
▁Lonti
▁pertuɓe
▁Yiɗindir
▁lanci
▁huuf
▁diiw
ananoo
raana
▁resondiraa
▁hayfu
▁humindir
▁waaji
▁kaanuɗ
▁haɗitii
▁ñinnoo
▁sankuɗo
▁aalo
▁ɓaŋnguɗ
▁Yot
▁haajii
▁nawn
▁Yaltin
▁cat
▁fewta
▁Harayno
▁jebbilan
▁aamuɓe
▁Sood
▁piiri
▁aamiina
▁fah
▁heefar
▁hind
▁pooɗo
▁luub
▁laaminoo
▁awƴ
▁moƴƴunde
▁lasil
▁ƴur
▁Majjin
▁golluno
okli
▁tiin
▁dak
▁Yamira
▁wullit
▁Sos
▁tonndu
▁ɓamtaaɗ
▁aawugol
▁yiilotooɗ
▁duumoto
nirta
dinii
▁hinere
▁boɗeej
▁yaltirnoo
▁gollitir
▁cuɗiran
▁accuɗon
ttee
▁dagintin
▁yaadaynoo
aabawol
▁Iis
▁soob
▁huccu
▁yanng
▁maakanayno
▁Luu
▁wuurta
▁jooɗodu
▁iwtii
▁seedeejo
▁eɓɓaa
▁andinoy
▁ƴent
▁riggan
▁tugi
▁fuɗɗaa
▁lurri
ustu
▁lawl
deereero
▁lamnditoy
▁goonginii
▁toɗɗani
▁ɗaɓɓirno
▁Huɗ
▁suɓoto
▁Ardotoo
▁ɓil
▁timmunoo
▁fefindaa
▁tekki
ɲon
musuuj
▁huccii
▁podan
▁lumb
wni
itaali
▁piyan
▁adunayankee
▁huɓɓinir
▁jindata
▁weƴƴitaand
▁mbatulaa
▁hersini
▁mandiliri
▁reenoo
▁ittoo
letaake
▁Sujjan
▁gasirt
▁huutorteeɗ
andira
▁hoynaynoo
▁laɓi
▁ƴettata
▁yejjintini
▁talli
▁Fiyaak
▁Kin
▁timmuɗi
▁wurt
▁hunƴu
▁turii
▁cagaa
▁gomɗinirt
▁Hoɗ
▁ɓeydoto
▁pott
▁laamoto
▁nennanii
▁jaɓira
▁Waɗane
ewtere
▁heɗoy
▁Hoɗuɗo
▁wargol
▁landorta
▁heli
iyon
▁njulaa
▁yaltaynoo
▁ruttataak
condi
▁bawɗi
▁teddan
▁harminaa
▁newinani
Sonna
▁werloto
▁bili
▁waɗanta
ndirɗi
▁dummbaa
nndal
dondiree
▁jindu
▁maayɗo
▁paɗ
▁yeddondiro
toyi
▁jantotooɗ
morde
▁kanu
ndoowo
▁Yamiroo
▁seeditiiɓe
W
▁laɓɓini
▁Tipp
▁weltiiɓe
▁seekor
▁tiiɗnori
▁Bugo
ggu
▁jawtu
▁hayru
▁yagginir
▁Wuurire
▁ruuhuyankeej
orta
▁weela
▁mantir
▁Fuɗɗor
▁wuddir
▁wulɗaa
▁karan
▁tolnir
▁wonɗa
▁Haan
▁maayuɓe
sensi
▁yejjitunoo
heftuɓe
▁hes
▁eɓɓu
▁Naaday
▁Yurm
nditee
▁weldu
▁laatani
ppii
▁laɓɓinii
▁Harminani
▁moolanaan
daare
▁yoolira
▁foolata
▁penu
▁tommbor
ranoo
▁jinoow
ijitee
▁Faalaa
▁nanay
needi
▁paam
▁yeddon
▁jeenayaɓ
aawuɗo
▁yewtidoy
▁jogani
▁winndude
uunde
▁arno
▁woowindir
▁ɓoyliiɗ
▁soktir
oyngol
ndini
▁sowinsin
▁accirnoɗ
▁wallidii
▁hawkaa
▁saɗ
llaahi
▁rutton
akkitoro
▁hoolori
uli
▁humpitinoo
▁bid
▁njaltu
▁ñoo
▁ñall
▁caak
ame
▁heewɓe
▁waaloo
▁ŋati
▁Hool
▁jiga
aŋŋe
▁faalanaa
▁accoytaa
Sen
▁alɗinir
▁mbaal
▁munc
ƴƴ
▁yeddondirtee
▁wakkilindire
▁alma
▁hulugol
▁mboodo
ɓii
▁salminir
ƴan
▁woowi
koroo
▁bakod
▁daala
▁darinoo
ange
]!
▁jonnde
▁baata
▁yiltitor
▁Ɓaŋ
▁kart
"?
▁rentii
▁Lept
▁loowet
▁limt
▁newe
▁Yaafo
▁wennju
▁hocco
▁kammbirani
▁ri
▁Naadu
▁Faandan
▁hoori
▁hunƴuɗ
▁gaaru
baa
▁heɓuno
▁yarnan
▁faaleteno
▁heɗotonoo
▁sunni
▁Laabi
▁newn
▁deft
▁sott
▁sokolini
▁hoolniind
▁yantu
salagol
▁Yaltinir
▁waalan
annduyee
mbuldi
▁lont
▁jillu
▁baraaj
▁joor
▁wujjii
▁qirritor
▁wiiw
▁jebbilanii
▁tappir
▁yottan
▁ɗuytantaa
▁tawda
▁daɗn
▁jillondiri
haala
inaa
▁alɓa
atnoo
▁sikkuɗ
▁sertii
▁ɓang
nirnoo
oga
▁heɓor
▁lummbin
▁Pat
laana
▁duŋinoto
▁jeytir
▁fayu
▁Hoɓ
▁subbunhinora
▁faalete
▁yaccii
ruuji
▁jommba
▁yottinde
▁weeɓitanaa
▁njannd
▁soggir
annooɓe
▁Salaam
▁jogitee
aynii
▁yuppa
▁baylo
▁jogitori
laaɗe
▁malaama
uttii
▁lootirt
kki
▁iwaynoo
▁yahataa
▁eltiraaɗ
ppu
▁Kammuul
▁ɓannana
▁ɗaanaak
▁resaa
▁ɓurete
Jokke
▁laatoyto
anke
▁ndutti
▁sikkir
▁dumbi
▁subuhino
▁ɗuyta
▁Insinano
▁wurta
Yim
▁fewnir
▁fempano
▁seeditotoo
▁tororta
anto
nqino
muud
▁jeertinoo
▁hebbinor
▁mbobiɗu
▁heddotooɗ
▁haw
▁tanƴiniɗ
▁ŋaɲɲi
▁tiiɗuɓe
▁yeɗir
▁ñawl
▁hita
▁poɓ
rana
ajitotaako
▁raɓɓi
▁caw
▁faasi
▁ɲawnde
▁innira
▁maandinaa
▁ɓooy
▁werna
▁saawi
▁hawtiti
▁tagee
▁Muɲɲ
▁yeddirayno
▁niɓɓitir
▁Memin
▁hawtid
▁fewnd
▁nya
▁yuwi
▁tooñaa
▁wuddan
▁werta
cukuli
▁donk
oyde
▁jippinayno
▁fattor
arnooɓe
ttaali
▁mooɓondirii
mmb
eesi
▁dimmba
▁wurnitir
▁faatii
▁wenj
▁baɗte
▁belor
▁ra
▁cuɗori
▁ɗoftori
yeera
▁añaa
▁gil
▁jaasu
▁halku
▁njofooj
▁ƴaan
▁sinn
▁lollin
▁ƴentin
▁kecc
▁tinuno
poo
▁peewni
▁feɲɲinanoy
▁ɗuɗɗini
▁femmbu
▁pooɗata
▁poc
▁tooñɓe
▁welayɗ
▁ngannde
njo
▁jaŋtana
naynoo
▁serind
taagal
▁henan
▁Yaafano
▁njanɗi
▁jooɗaa
▁ñeɗ
tiro
ɗaaɗo
▁wujj
▁daas
▁balaaj
▁ñiiɓuɗ
▁yarnay
▁windiran
▁ɲawndee
▁taƴira
▁leptir
has
ttiigu
▁mehinɗini
▁ronkirt
sirta
▁ɓamt
aajuuja
▁wemmb
▁tammaa
▁peƴƴ
▁suuɗaa
▁seedintini
▁foof
▁hirsan
reeɓe
▁nanirta
▁hakku
▁hocc
▁subunhin
▁ɓurt
▁ɗuytan
▁yiidu
▁ñil
▁sellaa
▁tee
▁njanng
▁heɗi
▁Okkay
ttirtee
ɗoton
▁wonndii
ullii
eɗɗanke
▁rondita
▁saabi
▁Weltin
▁humpitoy
▁waawetee
▁hoɗɗii
kisɗo
▁Ɓannginir
daande
▁woɗɗitori
mmeej
▁huɗa
▁rerɗ
▁aɲa
▁fukk
▁bewnu
▁turn
▁ɲaawirte
▁huɓindor
▁sikkito
▁teddu
ammba
▁waɗɗo
▁moosi
▁nanndinoo
▁artiran
▁ɗayna
tuugii
ttaa
▁faalir
▁faandan
▁liiƴi
▁haaɗuɗa
▁ƴoƴu
mmbu
▁Fensit
▁cukki
▁pooɗondiri
▁landotoo
▁bonay
▁cakkit
awƴugol
▁nanee
▁fuut
▁ufin
▁saaƴini
ttete
▁jalu
▁sankaan
▁iwlo
oddaandu
▁aroyoo
▁donkina
▁udditanay
pooru
ɓalew
▁halkii
▁Nguurda
▁moƴƴint
aro
▁wallii
tuɓe
ondi
▁mofti
▁naana
▁goonginɗ
▁miijiɗ
▁Jonni
▁ɓooyi
gere
▁hibb
▁Maaki
▁Hiwra
▁wurtata
unuub
awol
ntina
▁jokkiti
▁uuru
▁weeta
▁tottu
▁Senin
▁woonda
▁tooñir
uy
uurugol
▁cott
jogitagol
▁windito
▁sumoo
▁bugiti
▁hewtir
▁nju
▁sakkitii
▁accuɗo
▁yaltaa
▁weltorta
▁tottaa
▁feewu
▁heltu
▁eɓɓanaa
▁Ñaam
cee
elugol
▁darniraand
▁hawjir
ontu
▁Ze
▁njaltin
▁Ɓeydi
▁huutoraa
▁lanndaa
riijo
halkagol
▁mur
▁fawiiɓe
Joo
▁Ser
ammadu
▁paya
▁sacci
▁miski
▁foduɗ
▁ŋa
▁ɲembi
▁ɓesn
▁hikk
idaynoo
juutuɗo
▁toowɗ
iifu
▁wowlot
ac
▁boora
▁fewniri
▁raaɓo
▁rewayno
ooma
uma
▁ekkit
▁Go
▁munñ
nto
▁heɓiroy
▁ñuɗ
▁weltan
tayno
▁dilli
▁wulliti
▁ɓuuɓu
▁dakmitori
▁newi
▁tawdira
▁Waɗiran
▁mantu
mere
▁daɗnday
▁muñan
▁ommb
▁gollee
▁holliti
▁aaƴor
ltugol
yer
▁njarl
▁jin
▁timminan
▁foo
▁sahinbini
▁mutal
uynir
▁ɓoor
▁taskor
dun
▁ɓo
▁ɓatta
▁fotta
▁jarnir
anndaa
nanngee
▁wuurɓe
▁mbinnd
▁cataa
▁mooɓoy
▁ruttoɗ
▁waylito
▁murtan
▁andira
▁Yeesoo
▁werlor
▁yiiti
▁ommbi
▁lamndino
ppitagol
▁coom
▁Annde
▁Jippinee
▁mir
▁lumba
▁harmina
▁wowlirant
▁hollito
▁dandaa
▁njeddon
horɓe
beeli
▁bagg
Y
▁wurtee
▁lollu
▁cin
▁fenaa
▁ngoonɗina
▁serinda
▁laata
duna
llitaare
▁wurñ
▁kol
▁denndaa
▁Malk
▁wuj
▁Yuus
▁njipp
yamirde
▁tottee
▁muɲɲii
▁wuntin
▁haalani
▁kombo
▁okkorɗo
▁jertinira
▁ñaay
▁jokkintin
▁waq
▁ndaaro
▁anditan
man
▁eɓɓiran
▁horsu
▁hebbinir
▁Rewetee
▁tammbi
rtal
▁yaajuɗ
▁humpitor
▁ɲaawe
abaa
▁bonta
▁habr
aynooɗi
▁geɓe
▁jippiniraan
taaku
▁nguuree
▁taaqa
ajju
atii
ede
llo
▁harminan
▁hirb
▁Wasiy
▁weltano
▁Lannd
▁ndarndan
▁fonta
▁Fittaan
abada
▁waal
▁luggungo
ñere
atal
yɗi
▁huccit
jalbunde
▁woɗɗu
▁wurni
▁ɓokkit
▁njeɗ
▁honk
naɗon
wruɗo
▁kurkano
▁wayloo
basandir
▁ruttitoto
▁Mataas
▁habru
▁nanuɗ
▁yiɗira
▁haɓɓito
▁hibba
jeegaɓ
noyi
▁jicco
alɗe
▁anndit
▁fotu
ɗoode
wnugol
▁fodduɗ
▁tiiɗinire
▁gollo
▁fatt
▁tukk
▁?"
▁Haɗa
▁laɓɓiniree
▁yaafii
▁tuubaa
▁aanin
▁weliri
▁yiya
naango
▁nelaa
▁juuletee
ddugol
]?!"
▁yamirir
▁pottine
sta
oɓeteɗon
▁salanaa
▁fenan
▁innoy
▁ƴettindir
▁jalbirɗo
▁tampuno
▁Sen
▁im
▁ɲawndoo
▁maɓe
royi
▁muncira
▁ñalla
▁meeɗu
▁jooɗoto
▁sendit
itani
▁laamoy
▁fewnii
▁jattini
▁Nikola
fayɗi
▁yami
▁seytaan
▁nawna
▁rerɗi
luyee
tini
▁yewtiray
nɗi
▁ferta
▁Ndaarnd
▁yeƴ
▁waajito
▁ɓoro
ayma
wru
▁foolee
ubba
▁sunninee
▁Ah
▁ñiiɓni
▁insinanoɗ
▁ɓurta
▁Yaltina
toytaa
▁fellintinan
toree
▁jiw
▁faaɗ
▁ɗay
ntooɓe
amen
lal
▁hormortee
▁nanditaynd
atooɗi
▁adduno
▁ɓanginira
▁saatinan
▁jaati
▁tutuno
▁Darja
▁ɗuɗɗin
▁lorray
▁Ƴ
▁accitira
▁wuurtin
royay
▁jaɓɓo
▁fodee
ttiraama
irɗe
orgal
▁Hing
▁windo
▁waɗidan
▁lancit
▁Yewt
▁rayt
▁Hunn
▁jull
▁soɲita
▁jinnaa
▁ƴellito
▁ndaygin
▁Um
anoyta
▁lelor
ndinay
▁mbaɗata
▁wurnita
▁fodanoɗ
ñu
▁pik
niranta
lkugol
▁naay
▁hayfinir
nooɗe
aandeeji
▁ɓuutu
Meeɗ
▁mawnungo
▁ooño
▁tabituɗo
abbagol
▁seedaa
rnugol
fuyee
tinir
endu
▁iwataa
▁halkay
▁Maaɗu
tintaa
▁miil
dar
▁ɲawnday
▁raɗotoo
▁hii
fu
▁ittin
lagol
▁ɓiɗ
▁Kulo
▁ndol
▁tillisa
▁ɗeɗɗ
nal
▁huuɓit
▁hald
teeru
oje
▁laɓɓinano
der
kkaama
▁siwri
▁tottira
▁anniyaa
▁taaqan
iy
▁jolkee
▁jonnita
▁ñiiɓir
▁mutu
▁yaltinoyte
▁AlQur
▁luutu
▁Heed
▁wujji
atta
▁sokee
▁murti
ukkii
nira
▁Nj
▁waajoraa
▁beytira
Won
▁hakindii
itoyi
▁jattinaa
▁duñan
den
inir
▁yet
▁naatayno
▁ɓanginiran
▁taƴay
▁wattida
▁ñeñaa
▁maayir
▁Wu
▁Sii
yngol
ggoton
ida
jaac
▁joltu
▁rinɗini
▁ngant
rnde
▁Ron
▁ƴawoy
▁feeɲir
▁fawɲaa
▁lobbo
▁ɗaɓɓitoy
▁yaaduɗ
ntee
▁hiwitor
▁sudda
▁reenir
▁sowan
naani
uɗam
▁sincan
▁njagg
▁komi
▁ɗonka
daama
▁Sow
mmital
aɗaali
▁tooɲa
▁lorl
▁demmb
▁wayliti
▁fillitanoɗ
▁yilta
▁ɲaawo
▁tikkini
kanŋe
▁hawtit
▁ɓatti
▁nafod
▁accana
▁yacc
ƴ
▁teddinir
T
▁mandiloo
▁Ndun
▁feɲɲinanɗ
ntinii
▁gayni
aliba
oda
▁nawrayng
ndiree
▁fera
▁subbunhinano
▁wiiray
▁folt
▁ɗaay
▁yurmuɗ
▁yotti
▁sooɗ
▁immitot
▁ful
▁faasiqii
pu
▁rerɗin
▁ñaaway
▁halkira
▁bii
▁qirrito
kuu
▁wowlanayno
ndan
▁kamm
▁nawru
▁aynitu
▁sirkana
▁haalir
diya
bojji
▁adduɗo
▁saccu
rgal
▁Suɓ
▁seeditanto
▁weeɓu
▁neɓ
▁ɗaɓɓitir
▁nguur
▁halfi
ungol
eɗaa
▁newan
▁bammba
▁ñaml
▁feeñan
▁bark
ane
▁basa
▁ndarndi
▁fonndoo
ilaa
▁nandintina
araa
▁Joomiraa
▁ƴee
ccee
▁mas
q
▁momt
awrugol
ettaaɗo
▁ñiiɓa
▁jaɓiri
okkunoo
▁sikkit
▁yaññu
▁addoy
wani
▁bonne
▁pottiti
▁tindini
▁ɲawli
▁haanuno
▁seedintin
▁farliiɗ
▁Kanaan
▁hayf
▁nawy
▁yejjitin
▁yirbin
▁ɓatt
▁ardoyt
▁hatta
▁tippira
▁hippi
▁aybinir
ntin
▁fellintinana
▁hulaa
▁lontin
▁nennana
▁fontan
▁Lisi
seedataa
▁Muñ
▁Ŋa
▁jogan
▁ɓittin
▁lab
totoo
▁hal
▁hayni
▁yewtida
▁heɓoyi
▁saatini
enɗe
▁yanata
jj
idaama
▁Mu
▁jaŋtor
▁Timm
▁hisu
▁faamin
▁ɗiɗ
▁saakita
▁imminaa
▁yoɓii
saabu
▁ƴo
▁mut
▁gerd
▁toppit
▁ɗofte
▁duñir
▁car
kagol
▁Fodi
▁fanɗu
▁laaɓana
ngot
▁ɓooyu
Yilto
▁wontani
▁utta
wuɗo
▁wuurnitoo
▁wontanoy
aaba
▁welsinda
▁san
▁haan
▁ɓatto
▁lann
▁ƴaway
▁tanƴina
ƴƴude
orana
▁yankinoto
▁kurkod
▁Hawa
▁alɗ
▁artiree
▁ɓeeɓi
▁gard
hakkunde
▁waylata
liiɓe
▁heertinan
iiɗi
▁anndita
ɗaade
▁hocca
▁faalee
▁hik
ggere
ajji
▁mulu
▁mettuɗ
▁ɲaawi
▁wowlana
▁Faa
▁yiir
▁heyɗintini
▁Okku
▁seeditora
naangal
▁uggin
▁fempa
eege
▁sendir
nditagol
▁mbara
iroyta
▁urɓ
▁fan
ikkere
sabu
▁ardinan
▁dunnd
▁mutir
▁hunnuɗ
▁q
▁rewoy
▁yoɓira
gee
▁wonduɗe
▁fensitir
iŋtin
▁raaɓ
▁niɓɓita
▁meerente
▁jaɓɓaa
▁jogora
iire
▁caal
▁noddoo
▁lootor
▁yonu
▁ɗaɓɓaa
▁wurnu
rri
▁hiil
▁laak
▁faggito
▁yeƴa
▁Zay
aŋke
▁wonirɗe
▁Je
▁yela
▁wupp
▁sara
eweteeɗo
▁yooma
▁jiiɓi
▁arat
▁wirt
▁ñawli
▁tawdee
▁tuun
▁Naad
andirta
nɗun
eewuki
▁ɓiɗtor
▁mbaɗaa
▁feɲɲinira
▁soɓɓind
▁andirɗ
▁winndi
koor
▁surri
▁hammir
oyayɓe
▁Barki
▁ɓurtin
▁mbelɗ
▁cuɗ
tiiri
dduɗo
▁gunndo
▁rondi
▁ɗaɓɓitoya
▁naw
▁maandin
▁Ra
miraaɓe
▁gal
ɓataa
▁dimmb
▁naatiroy
▁limu
Nde
▁torori
pellet
▁longina
▁mantii
▁hey
ak
itaaki
▁felaa
▁harmund
▁yer
▁mawninaa
▁yim
ewol
▁faggitoto
▁ƴawna
noyay
▁taab
okkete
▁Lamnd
▁feewa
▁eɓɓindan
▁wikk
▁yaafoto
▁liɓu
▁bako
▁wasiyan
▁dan
▁renndi
▁hebulaa
▁werti
woowo
oday
▁yoɓitira
▁eltira
▁weltiniri
▁jil
yankeej
▁dawr
▁waram
▁hikka
▁Ad
▁mandili
himo
ndaa
awi
▁liddii
▁luutondirɗ
▁tampinaa
▁Woɗɗi
▁pottina
▁tilf
▁jow
nkooɓe
▁saaƴin
iɓaare
tinooɓe
▁Yaaj
▁hatonji
loyteeɓe
▁adunayanke
▁natt
▁sikkuno
▁wewlinirt
▁andiree
laajo
mbaa
▁Ñaawa
iyaasa
▁raɓɓiɗ
▁yurmini
ottiigu
ttol
gir
oyaagal
▁jeena
▁aa
▁majja
indiran
▁egga
▁lancu
▁timmina
▁jibinii
▁hunt
▁yeli
▁lootiraɗ
▁hawtu
▁Yilt
▁jannira
▁tedd
▁anndinɗo
▁jikk
irugol
▁tamma
gomɗimɓe
▁nangaa
▁kule
▁teŋ
▁haqiiqaw
▁fattin
ukketeeɓe
▁ñor
▁nodditir
ayngii
tawi
▁Winndan
▁happi
▁mart
ujo
▁farli
▁cee
▁ƴettod
▁daɗira
▁jillondir
▁haaja
▁lanndoto
▁baɓɓ
tiɗon
ŋii
▁ɓuttin
naŋteeɓe
tunoo
aake
bee
▁mara
▁mbum
lɗi
iyee
ellal
uɗɗugol
ewe
kamɓe
aangal
▁jaabinana
▁saaf
▁Yeeso
Kaaba
ewu
▁yaaɓ
▁yang
▁deeno
▁jonnira
▁okkata
▁wewlinira
▁huuɓ
▁waɗirno
▁duñira
niraaɓe
▁jooɗoyo
▁yahra
▁saawu
▁yeeyu
▁eltir
daaka
aarata
hiɗon
nngol
nwol
▁waajino
▁Dal
▁ardira
▁naamne
oyteɗon
Maaku
▁Jibriil
▁Wahayina
▁yettu
▁inne
ɓiiɓe
▁woota
▁ƴettita
▁firli
oomugol
▁yaafe
aandi
▁makk
▁tiiɗinir
▁aaƴ
▁waɗire
uu
▁yul
▁taama
ooɗiiɗo
▁mantori
▁Hoy
▁faljinoy
iraaɗi
laamu
▁meereej
roytee
uyaagal
inɗo
▁goop
mbugol
etenoo
▁jaggi
▁maafe
▁qirriti
▁feeñana
▁njedd
▁hendoy
irɗi
▁yelino
▁yaltinana
▁gannda
▁iwruk
▁njeɗa
amiyon
▁ɓannaa
mbajjo
▁okkira
naaru
jaa
ondirɗi
awle
aŋt
▁daditi
nndi
▁yurmir
ungo
▁jaŋ
ippataa
itu
▁warra
▁Ƴi
kammuul
▁duwaa
▁Jaa
▁sudd
ɗiɗi
▁hiɓɓu
▁gatt
aandu
▁ɗoftino
ɗay
ntaake
▁sappa
▁imminir
anaani
▁ñiɓ
▁jantaak
▁heefer
▁gomɗinoy
yedduɓe
▁seli
▁jonnir
▁tello
▁sotta
▁janngata
▁waawete
naana
naare
▁hawji
▁piɓ
▁yiida
Laat
▁koɗo
▁ɲaawetee
▁nawnuno
▁njippin
paas
▁newaniiɗ
▁fill
▁ƴelliti
adotooɓe
okkuɗe
▁baaw
ɗɗagol
▁tinu
▁liddoto
kapo
iɗtinana
ihu
▁Iisa
▁laawoto
▁yawti
▁funs
Ibraahiima
siyee
Jogit
▁heɓoyto
oyre
▁naamnaa
Baaba
ccun
daw
▁loowa
▁talla
mini
▁komin
igi
▁huccitir
ɗinɗo
▁baaru
▁ɓaar
▁muusa
ɓur
▁aynit
▁hulɓini
▁ɗaɓɓiray
▁yaɲɲa
▁tommb
ɗɗii
▁ndaɗɗ
▁fefindo
falta
▁taƴoo
▁ɗiɗaɓ
awugol
faamu
ɓɓ
▁joga
▁bonno
amu
▁lollir
ondiro
▁heɓida
▁hersi
▁nootaa
▁ɗigg
▁yarata
ɓude
notooɓe
Jipp
mawɗo
▁hoddira
▁ɓan
▁fata
nokku
▁Okkaa
▁Wahyini
▁holti
cciri
▁gomɗiniri
Darngal
▁jonne
laakara
▁haɓira
nti
moolo
▁yaccinan
▁tolni
▁hasboo
Nge
▁nela
itorgol
▁fels
aagal
▁sikkat
juula
jam
▁jogorii
eylatu
uttu
▁Tabi
▁njula
iltitoɗen
▁cattu
kisiyee
▁fuɗina
Ibuliisa
▁toln
▁welsindi
▁wippit
▁noddit
ndiiɗo
▁sul
▁takku
mida
▁feewn
▁Ñaawi
▁fowto
▁Juulir
aɓ
wonirta
▁faaboto
▁wallitoto
▁hiitaa
▁faɗ
▁honnu
▁ardiran
▁tummbe
konngol
ynooje
llaare
ɲɲ
bitugol
ño
▁Wakkil
fiiltii
▁waañ
nirani
rsingol
battane
▁lammini
▁heyno
▁ardirana
▁kard
gude
leƴƴi
baaba
rayɓe
nafqe
tanook
▁happana
ɓɓere
▁Waɗti
iigu
ngaaru
ccoo
dete
▁mbaɗat
▁Doo
jiri
▁raɗoto
ñanne
▁woonduno
▁fawtoto
▁udditu
▁ƴettan
neemaaji
Bugo
▁noot
tinan
▁haɓat
▁fittir
▁Soo
▁ndeey
▁sunnina
▁karha
sanamuuji
▁aditii
▁saaƴi
yaadu
Hinnorante
keeferaaku
Aadama
Sulaymaana
Yiil
jebbilanii
Habbitee
runtiima
Haaruuna
▁taƴe
▁fell
▁werlo
▁yanir
▁tiggaa
▁henda
fulawaa
▁resondir
faama
Lam
▁bante
▁ndaɗ
▁heed
▁Lu
iilayank
▁felli
naafiqiiɓe
unotaako
▁sogg
▁jogorta
junngo
▁pam
Gooto
▁yed
▁hollira
Yahu
▁jibintin
▁baas
▁yurmete
jahal
moƴƴal
ulay
▁heba
iilayanke
▁murt
haqqillaaji
Ibliisa
mpe
ɓadondiral
yottagol
pular
▁waajotono
▁niɓɓa
Diina
▁wow
awaa
eral
pertuɓe
pecce
leɗɗe
ruttoo
nanngitir
Maande
ibi
▁ɗoftotoo
ttin
Enen
maayo
Wonaa
gunndo
▁Newinan
oli
▁naatirɗo
saaku
asamaa
▁yaññ
hoɗa
▁woɗɗaa
Reweteeɗ
▁jaɓirta
gitugol
alal
▁wowlanay
sara
asaara
daasu
é
▁roŋku
▁waɗɗi
ippugol
Nenn
hinɗingol
nooɗi
▁Mb
▁fuy
jeertin
peƴƴ
Alaa
▁wiŋt
pel
Wahayinaa
mbile
▁peeñ
koyngal
▁cukkotono
▁goonɗ
maayi
▁yiltoo
▁ngara
ɓɓugol
▁jiɓ
▁kammba
gguuji
▁fellit
sans
▁waɗtitirt
▁dimbo
tinɗo
▁duŋino
otoɗon
▁wahyin
poro
munne
▁linngi
Ars
▁ɲaawiraa
ugu
▁hoynoo
▁sokolin
▁faljinir
▁gure
▁mbeɗ
ɓagol
▁wennjiroo
▁Ne
▁Jahiim
Nanng
ɗɗuɗo
ntotaako
rgu
▁janngay
▁mowl
▁sell
▁leeɓ
awnugol
▁yottoto
baat
deeji
R
jurmotooɗo
aaƴagol
▁nafka
▁ƴoogu
▁suuy
▁ronina
▁seedoto
▁jangir
quraana
▁addoraa
▁malayk
tondiral
▁kooho
▁ruuhuyankee
▁ɓoora
▁manndik
▁Waajo
▁Jakariya
▁Maryam
oolorde
▁ƴoog
naajo
ulaaɓe
▁keew
▁juura
▁wuurniti
itata
▁moolo
▁Kiris
▁suppit
yoɓ
oolnuɗo
▁juɗaa
▁asama
▁tinnd
▁cuɗini
▁hottoll
omoojo
hare
▁immintinoytee
atnooɓe
▁subuhin
Ɗo
▁sakkotoo
nantaa
▁paggi
▁hettoy
▁luttintee
▁basan
▁lannata
Naatu
▁bakkatu
▁okke
▁ñem
▁wallina
ppe
yel
▁Saalih
▁resindir
ttane
▁bakkadin
intaa
▁hawta
▁duhii
▁Hinnotoo
ynoɗon
▁kaliif
▁jippinay
▁Mbaadi
kul
ippoodi
guurndam
▁muuyu
uɓɓunge
▁Jat
▁sooyi
urkantooɗ
▁raa
▁diisondir
ttitugol
▁linc
motoodo
▁jaɓanta
ooreejo
1
‘
▁Jurriiya
▁ciŋko
▁kumpa
▁pepindaa
▁suuperefe
▁Tellinir
)°
Seeditee
bibje
bumannoo
lliyyiina
ngoolwa
sollaaru
uyaŋko
▁Dulbunge
▁Heefanay
▁Idriisa
▁Jertnir
▁Jillindira
▁Luqmaan
▁Miijondirane
▁alkamisa
▁basagaare
▁baymaanaa
▁bufenri
▁collaari
▁demokaraasi
▁depans
▁donkaafele
▁doosɗe
▁doroogu
▁faasoqin
▁fulfulde
▁fuuyoore
▁humambinne
▁jahatnama
▁kikiiɗa
▁kirndol
▁kiɓɓal
▁kolommbooje
▁kolɓule
▁lislaamiyanke
▁manndariini
▁ndolinwal
▁ngaameelo
▁nofambar
▁oornoton
▁pamarel
▁pamarun
▁soottaade
▁taariixayanke
▁teddeelo
▁teeleende
▁tintiire
▁tuuyetee
▁uturner
▁uɓɓitoo
▁videwo
▁wartindirtaano
▁wolodaabe
▁yottondirtee
▁ɓanndinnke
▁ɲirɓin
haa
▁goognuɓe
▁talifon
▁ɗurnike
jobdi
▁Subunhina
▁aawateeri
▁estaadi
▁fiiltarii
▁goyaabe
▁heydintin
▁kawtital
▁saggoy
▁subhin
▁yalage
▁yaŋkin
▁ñirɓin
▁ɓannganduyeeji
▁ɓaŋngannduyeeji
▁Kurkaadu
▁Lagine
▁Ndarnd
▁denɗiraawo
▁dulɓay
▁geegere
▁mboɗeeri
▁monñitor
▁nguurandam
▁saffewol
▁Ngoonɗin
▁dulboowe
▁nurɗund
▁Newanii
▁ferñit
▁joloko
▁waacta
▁Tarif
▁dulb
▁kakkilantaa
▁Ñeeñƴu
▁ɲiddu
▁kuɗdi
▁mbaalaandi
▁ndenndaandi
▁rocci
▁sanndalɗii
▁woofordu
▁Hormantee
▁tekkeendi
heskey
▁Hebbin
▁cowirgal
▁daŋk
▁famɗungel
▁mbulmbuldi
▁ŋabbirɗe
▁lookoƴe
▁albarka
▁geenal
▁ñaagatoo
▁saffiniiɗi
▁ƴeeŋ
▁kaakaaru
▁ñaagataak
▁maniyyu
▁kanndidaa
▁Nafq
▁inabeeje
▁jowlol
▁karooti
▁tuuyate
▁dukkal
▁sutura
▁tabatin
▁woŋtir
▁bakkondiŋta
▁mbuso
▁ñiwre
▁ƴiiƴiiri
▁Aabirayanke
▁Joɗɗin
▁biidaande
▁hucciŋtin
▁ronndoytoo
▁teddeele
▁welsandii
cokotaagal
▁Keebu
▁yaramnde
▁weertaandi
▁ñentint
▁fiyakku
▁Yañña
▁fewtondiri
▁kiriso
▁Corte
▁ammbasa
▁hesiɗan
▁horminii
▁keetn
▁mbuɗu
▁halorgol
▁huɓandiin
▁ɲobbi
▁tintid
▁nduluuru
atoobe
qarn
▁jurol
▁buret
▁alkol
▁cakkatii
▁taayinaa
▁jukkini
▁mbatulayaagal
▁sehilaa
▁marijaawowal
▁ndukƴ
▁fulkuru
▁heedaango
▁jaɓaŋtaake
▁perefe
▁nimsuɓe
▁ñeemt
▁ceeɗu
▁yaafnano
lekkol
▁Heeranii
▁huuɓunde
▁pinka
▁qarnu
▁nguddam
▁buubii
▁mbeeta
▁sowonsin
▁tokoraajo
▁Fawtiiɗo
▁aawasaaku
okkitan
▁fatinaaɗ
▁horminaaɗ
▁mbilɗaaɓe
▁saayannde
▁bareeru
▁darajaaji
dintinantaake
▁ferlitora
▁curbaajo
▁jarabii
▁joopagol
▁goyki
▁fahmu
▁mbaylaandi
▁Masedoniyankoo
▁laggor
lee
▁sagari
▁maarasi
▁Dulɓoowe
▁Ñammin
▁curbaaɓe
▁ndanka
▁ommboode
▁Ɗannin
▁tekkundi
ukkinɗe
▁happaangal
▁ndayngu
▁lamminoy
▁sulhu
▁yiltondirgol
ulɓoowe
▁ñallirde
▁korndolli
▁ruuga
Maayee
uwerjo
▁ɓargal
▁lonngin
▁apar
▁ngawluuji
▁fultagol
▁puɗol
▁ɓaɗtorɗum
▁suntuure
▁jaagor
▁faraango
▁yunngugol
▁honcin
▁doose
▁mbordi
▁hoolniiɗe
▁laɓɓindino
▁paso
▁Fuutanke
▁fooɗondir
▁battiigu
▁dammbugal
▁morloo
▁yurminoyte
▁waaloto
▁feleteeɓe
▁jaleeɗe
▁fanɗungu
▁ƴuug
▁deeƴinay
▁Mawngu
▁Tuwaa
▁kammbanaa
▁setotooɓe
▁ñaawinora
▁famɗu
▁pellte
▁nenniranta
▁boroos
▁aaƴiɗon
▁mbarba
▁Jahanna
fqat
▁Rinɗ
▁cowtii
▁saññ
▁demal
▁njaatigiyaagal
▁cowanɗe
▁ɓaɗtiiɗe
▁jortagol
▁dandirte
▁yuwugol
▁duɗɗugol
▁ɓuɓinti
▁Haɗtanɗo
▁coongil
▁ñoƴƴin
▁hebilaare
▁goongunɓe
▁saɗnee
▁suynira
▁leeɓol
▁moƴƴiŋtin
▁Nafaani
▁Bilgi
▁bukkol
▁faditii
▁lurraynoo
▁baagi
▁ɓeeɓuɗa
▁jilɓuɗo
▁hebbinaaka
▁sincooɓe
▁funnaangeyanko
▁ƴamaaɗo
▁mbowdi
▁ŋalli
▁njeyaak
▁hokkere
▁piyahi
Eeyoo
▁biskitugol
assalaamu
▁weldital
▁hoɗɗagol
▁coñal
▁Artir
▁busal
mbaango
▁jibinegol
▁ŋurŋurtugol
▁deppitoo
▁nukku
ihaadi
▁durngol
▁ñawndugol
▁doolnuɗo
▁wattinirnoo
▁heɓɓita
▁Pullo
buusi
▁Ruumi
▁winndaaɗum
▁kosewii
heftoowo
▁waynondiri
▁fampagol
▁ɲaawindir
▁wajibi
▁yeƴƴitaaki
▁faɗɗaa
▁masara
▁rewnindiral
▁azan
▁ñamaku
▁fecco
▁ñaaƴoowo
▁woɗɗiinde
▁carmalal
▁heltii
▁allaandu
▁faljere
▁laten
▁Rabb
▁jonmbu
▁dagita
▁laaɓuki
▁cikkaana
▁tamaati
▁kiitinor
▁soktitor
▁hoykinan
▁sikkitiɗon
▁tamarohi
▁woɗɗungol
▁njupp
▁ƴamuɗo
wimmba
▁Hasboore
▁ŋakkuɗu
▁ɓiraaɗam
▁taƴontinnde
▁senndoore
▁neɗɗaŋke
▁newiingu
▁lonngal
▁baharank
▁Ɓadiiɗo
▁yiinagol
▁haawi
▁woytaango
▁hunitoyto
▁eggunde
▁luttineede
▁teskuy
mbedde
▁karheede
▁ɲakk
▁ɓiirugol
▁mbajju
▁taariika
▁Sogg
▁ɗaytin
▁haakooji
▁Pelet
uuhu
▁jeyduɓe
▁danndoowo
▁ooñaade
▁juuloton
▁ɓiɗagol
▁pulf
▁duumintee
▁rentagol
▁Golleeji
▁yiltoto
ɗerol
▁ɓuut
▁Jib
titori
▁sirkataano
▁yannji
▁bifi
▁faggitagol
juuteendi
▁Mawngal
awnoode
owoye
▁tutiiɓe
▁wiige
▁Goonginani
▁faggitiɗon
▁gilli
▁ɓeyduru
▁hiwrondiral
▁ahodal
▁piɓle
▁faggitaade
▁jarribagol
▁ɗoworgal
▁sunaare
▁farlaangal
▁njankin
▁siɗɗuɓe
▁yoftoto
▁muuɗun
▁feññinton
▁newiiɗum
▁njarata
▁yankiniiɗo
▁balansi
▁ɗuytaare
▁waɗtinirnoo
▁hajjunke
▁niiɓn
▁Mbaadini
▁wint
▁ɓanngungu
▁miijitoɗon
▁mbilɗor
ellifaa
▁zu
▁biiniiri
▁lomtin
▁ahodude
▁jaggitere
▁dillannde
▁joloyay
▁sunotooɓe
▁Daalunoo
arjaan
▁moƴƴintinida
▁laɓɓinaandi
dentoy
▁woɗɗuɗe
▁fennirnoo
▁ndureejo
▁suɓiɗaa
▁yulugol
▁suuɗaynoo
▁ngawlu
▁ɓaarugol
▁Nualaa
▁cap
▁Jaabina
▁darotoɗaa
▁kaafuur
▁baafata
▁luumo
eemoraaɗi
▁gabbii
▁gatal
▁jebbilike
▁sukkunde
▁wureere
Ɓaleejo
▁seeɗaaje
▁feɲɲindina
▁callu
▁yoɓetaake
▁yakkiiɗ
▁fiɓugol
▁yiltotaako
▁tafsi
▁yananaaka
▁muumi
▁poliisi
▁duŋanii
▁ƴawra
▁ndaarndo
Holl
▁tabitungol
▁faŋti
▁ɓunɗo
▁wujugol
▁tampoton
araha
▁ferlis
▁ngaccan
▁ooñinoo
▁munyoowo
▁fokkitugol
umbit
▁piyaaka
▁suniiɗo
▁tiɗn
oɗeejo
▁bakkadinɗo
▁jaɓetaake
▁taskagol
ibriil
▁sikkitaade
▁yurmondir
▁misku
▁njaggu
▁duhiiɗo
▁jalkitooɓe
▁majjaani
▁peeje
▁faajir
▁waɗat
sutu
▁ɓeyditane
▁dankata
▁fawondirɗe
▁seertuɗe
▁gollaaynoo
▁waawnu
▁barmeere
▁howru
▁Naahuu
ƴal
▁nunɗataa
▁jumpugol
ukalel
▁kaliifu
▁jarib
▁jebbilagol
ejjutu
▁Dag
▁anndoton
▁waajitoɗon
▁ñeñƴa
▁mugaa
▁ɓannginoowo
▁feletaake
▁njarib
▁formaa
▁Moƴƴinan
▁ñemtin
▁henndoto
▁tambor
▁yawtiran
▁enɗammaaj
▁sollit
▁haldigal
pirin
▁fukkiim
▁taaniraaɓe
▁kewe
▁huccintina
▁ñaawirton
▁arsuka
▁peeñɗe
▁mawnuɗe
▁sowannde
▁tefangol
▁laaɓungol
▁townitino
▁funsugol
aransi
▁Ñaawoowo
tinora
▁urnor
▁newiingol
▁hooloraaɗo
▁sunagol
seede
▁seŋ
▁halkorde
▁pees
▁eɓɓindirgol
samaan
▁Muny
▁ngardin
hol
▁ɗewluɗo
▁Ilyaasa
▁barmingol
abi
jjiti
▁leptoyteeɓe
▁ñinnu
▁poocciiɗo
▁nennitana
col
▁wemmboo
▁daroytoo
wanaa
▁fensitaande
▁yaawuɗ
▁sunaaki
▁faytu
▁feewnira
jaram
▁bewnooɓe
▁tawnetee
▁tuugino
▁miliy
▁ɲallid
▁ɓillina
▁tampayno
▁laaɓanoo
▁seeditani
▁jakatu
▁tenƴingol
▁riggor
▁tappindir
▁waylaaki
▁heerer
▁Def
▁iirotoo
▁faamondirir
▁moltagol
▁fooloy
Fooloowo
▁ndiya
▁konng
▁cooy
▁yergi
▁wewlir
▁heɓanoytaa
▁kaaws
▁sowndondir
▁wullata
▁laɓɓinotooɓe
▁wullooɓe
▁lahay
▁huuɓinana
▁hunnata
▁weleeɓe
▁ɗarl
▁newɗin
▁Ñeñ
▁gollirton
▁gosto
▁baabun
▁habbitiiɗo
▁hollaande
▁gilaasi
▁koolaaɗo
▁cuur
▁ummine
▁allondir
▁lamdo
▁ɓowr
▁wowru
▁fennoowo
▁ɓilliiɗo
▁jeejugol
▁Bela
▁Yalt
accii
▁hakkiltaa
▁bamban
▁aditiinde
callalle
▁foolaama
▁sabbitii
▁ñaaki
mbuubu
▁eɓɓaande
▁Yawtana
▁dimboto
▁ɓanngundi
▁Huudu
▁muññee
▁hoɓɓitugol
▁mijito
▁woowunoo
ubuuru
▁jawɗe
roodu
▁Meem
▁seekike
▁puri
▁hettit
uturoo
▁newnana
hoyri
▁tuuman
▁nafitor
▁suuɗora
▁dense
▁fattoy
▁norngal
▁dogooji
▁yananaaɗo
nin
tefooji
▁faaminay
▁gasugol
▁fillitagol
▁hollitugol
▁Bil
lleejo
▁jinngo
▁wallindirgol
▁cuɗiniri
▁foygitii
▁njeego
▁maayndi
makki
▁yamirton
▁birin
▁feewooɓe
▁cuura
▁fenannde
▁fantingol
▁jeyaɗaa
▁nayeeɓe
▁eɓɓananoo
▁ɗaɓɓita
▁pottitee
▁weetugol
eƴƴugol
▁huuwunoo
▁jaaliiɗ
▁suuɗiray
▁sirkanta
idho
▁asamaa
▁Naadoy
▁notira
▁jalkitay
▁Golle
▁weeɓitanay
▁ƴurina
▁Janngira
▁hulaynoo
▁fewjata
deestoo
aŋtaake
▁yeddira
▁jaɓɓoroyt
▁hoynaaɗo
▁mortagol
▁kaccu
tooɗi
▁faɗɗee
▁tedduɗe
▁yettuɗo
▁ɓanngingol
▁Jarribor
▁ɗannini
▁weerti
▁jaggitugol
▁ewnal
▁ɗowugol
▁duumal
▁sunnugol
▁sujjane
▁ooñ
▁aret
▁jaɓɓoyto
reft
▁ndefu
▁jilɓ
▁hottollo
▁sortoo
▁iwloto
▁mammba
▁ilaynd
▁firtagol
▁mbertu
▁ɗomɗ
jje
▁humammbinnee
▁ɓannginɗo
él
▁hiitino
▁Ɓeydan
wiye
▁taarii
kkitaare
▁Danko
irbin
▁hoɗere
Jalki
▁faljiniraynoo
▁Haforo
▁ŋaas
▁ayb
▁ɓannginnde
▁nyaawa
▁peññin
▁lorrugol
▁ñif
▁ƴentiniraa
▁aaƴoo
▁Wallitotoo
▁peese
▁woodndiri
▁bugortee
inaare
▁ŋabb
▁yerondiraa
▁manngol
▁goongunde
▁wurtaynoo
▁heyɗintinaa
▁lee
▁njannge
▁ɓilla
▁okkitira
▁Nafataa
▁ruttata
▁tagata
▁wancina
huda
▁duŋii
▁faggitori
taho
▁denn
▁accuno
ateeri
tirana
awral
▁xa
▁wintotaako
▁faabotooɓe
▁Fillan
▁manngo
▁mooɓindiraa
▁majjaaɓe
▁tawtoy
▁humpitugol
▁fatuɗa
▁faaɗuɗo
▁ƴawugol
▁uuyung
▁mbile
▁jaggitant
▁mooɓindiroyte
▁Eliy
ruɓe
▁luubor
▁ɗayɗo
▁ndanndi
▁nangir
▁mbaylit
▁duɓɓe
▁muncaa
▁Ge
▁soccondir
▁Wennj
▁caatngol
▁duŋanaade
▁molto
▁tinayno
▁bis
▁haɓude
?...
▁ranewo
▁giteeɓe
▁toori
▁potndaa
tirte
▁golleteeɗo
ttagol
▁yarlondir
anñana
▁bonnoowo
▁daaloyanke
▁Faand
▁seedoytoo
▁haawet
▁piyira
▁hollirte
▁Subbunhin
yatiim
fuña
qut
▁ŋalɗude
▁anndinnoo
▁hommb
▁toroyto
▁jokkondirɗi
loosi
▁horm
▁wiɗto
▁maapin
▁majjooɓe
▁yirbu
▁beere
wel
▁weema
▁sikkitoo
▁paggiti
▁ɗeɗɗi
▁yannkin
▁wennjondira
▁cattuɗi
▁ɓannan
▁ñaawugol
▁iwroyay
▁faaso
aɗum
▁Loot
▁tut
▁lewndu
▁jalkitde
▁muusude
▁juɗaaɗe
ntere
Dakmitir
▁aaƴino
▁fuɗɗaade
▁sabb
▁kuljira
▁ɗuurni
▁welaɗon
▁seeɗaaji
▁nduttee
▁peewnat
▁maayoowo
▁Beyt
▁fef
▁hiɓɓ
▁yawit
▁aɲindir
▁ƴeewa
▁keblaa
▁naayii
ngantinagol
▁tuubgol
▁ñaakii
▁linngii
▁miijito
abuya
▁fefindoo
ndintini
awnungo
▁fensitude
▁warirte
▁heddodu
▁nafaani
indiree
▁dakmu
▁tataɓo
▁ɓulay
▁arduno
as
yanko
▁halkike
▁fokkituɗo
▁kutub
▁hecci
siwram
▁naam
opag
▁yeƴƴito
▁Ɗaɗ
▁humpitu
▁bok
▁Fecc
▁ceek
▁labaaɗo
rba
▁warunoo
▁Aarabee
▁ndayginana
▁yewtidaynoo
▁ndeeyd
▁buumayn
▁Ɓanngu
awdi
arñite
▁tampay
owdi
asliij
▁ɓittinayno
ruus
▁Abi
▁waado
Rewe
▁eggi
uluuj
▁ɓadani
ap
▁fensitan
aatunnde
▁firlitor
▁bewaa
▁yoɓirtee
▁jertingol
▁fussa
▁jiiɓindir
▁sakkatii
▁didiraa
ƴirta
yaltirngol
▁wac
▁jonnitu
▁goongaare
uɓɓaynge
▁halkiiɓe
Nennitana
▁halketee
butaali
▁naayan
▁Hunnan
ɗaanii
▁bakko
▁foɗɗ
▁ngoopata
▁juulɗo
▁-"
isiyee
▁kallaa
▁suw
▁feeɲa
▁roŋk
▁Ƴaw
▁kunndu
▁ahod
▁konuuli
▁ƴagg
nennintin
elo
▁suuɗiiɗi
▁danndal
▁jalbude
▁Jertin
fergit
▁fadd
▁Haaju
▁gollunooɓe
▁montor
▁Moƴƴin
▁Sey
▁seekoto
ditu
▁Faabo
▁caga
▁mberl
▁jokkoyay
diire
▁wuɗɗir
▁sattinir
goro
erjo
▁eltii
▁laawo
▁timmundi
▁torotonoo
▁mawnuɗo
▁Ɲaam
▁ɲaamidaynoo
▁Mah
▁ten
▁ɓaŋngin
▁peewon
aabudda
yngu
▁gomɗinnooɓe
▁yeewuɗ
▁gacca
▁Newinanaa
▁nafqa
▁yanunoo
▁meeɗen
▁majii
▁buroy
▁ŋaaɓ
▁Nelaa
▁heñora
▁dilliniraa
▁nennani
▁wattod
▁ŋannan
Jagg
▁Jaŋta
▁hiwrondir
▁moƴƴintinir
Israa
▁kappe
▁janngaynoo
▁golliraynoo
▁Wuurɗo
▁lombi
▁sammin
▁mahaaɗ
▁kalin
iranhun
▁coowo
▁tiiɗnod
▁wurnitid
▁Ib
▁rawna
▁alyahuudaa
ake
yonii
▁bol
▁murtannoo
▁rajmete
waɗon
▁huɓɓuɗ
▁sowondir
nornoo
▁yewtay
▁muloy
ittugol
▁rawninaa
yoolagol
▁moftataa
▁waylitoto
▁fakko
▁kippug
▁gomɗinira
▁toŋuɗ
▁yaltirde
▁liw
▁limo
▁sada
▁ñii
▁yamirtaa
▁coodir
▁Tasko
▁mbulla
▁jaaw
▁Acca
▁meha
▁haasbe
anduɗo
▁ardirannoo
ux
▁ɓonnd
▁hawniin
▁gadan
▁waɗɗiiɓe
bugol
▁timminoy
▁bah
▁cinnd
▁ngadda
▁tolna
▁nanngay
▁bugaade
▁lelli
▁bonnitir
idoye
▁Jango
▁ƴoogir
▁cikkiti
ɓɗ
fsa
▁Baara
▁rerɗii
▁waɗɗoto
▁por
▁Wowl
wdii
▁Waajor
▁Feññinan
▁tuug
▁cum
alɗi
▁Selu
▁aadaa
▁jogo
▁Habbitee
majji
▁fontaaɗ
▁immintinteeɓe
▁jattu
▁seppay
▁hirsetee
▁yaggina
▁wonanoyt
▁rentinir
▁Ɲawndo
▁yottinoy
ŋtor
▁ɓadoo
▁mballa
▁runtiima
▁ɓattin
▁ngenndu
▁binnga
▁wojjin
▁Ur
▁Wewlin
▁yoɓirte
▁kaɗoowo
▁Tam
Ndiyam
▁wallude
anngiri
▁tuti
▁fillan
▁hebl
▁soñaa
▁Tol
▁ɓattaate
▁salligii
▁weeɓitoran
▁kaawase
▁heef
▁Sellin
▁ɓittorɗo
▁kaalana
▁Addoy
uto
▁maapii
wuya
▁Sunnin
▁faggii
▁nanditayn
▁toony
ilaasi
sewee
▁piɓt
▁ñammina
▁suran
▁Sal
▁Harminan
▁Hawri
▁woɗɗitiinde
▁yooruɗi
▁hoyɗo
wen
▁noddeteno
Maa
▁ɲaamir
▁habbitan
▁furo
lajo
mmbi
▁ɗaana
▁weertu
▁ƴenti
▁wipp
ayniiɓe
▁ooñor
kaango
uggu
▁laba
▁saggit
▁wattitan
ati
▁hattanɓe
ltegol
▁feron
▁tawir
tenoo
▁roondii
▁fottaynoo
▁hiima
▁waroy
▁waylitu
ññina
▁aybini
▁iirin
liwal
nateeɗo
▁carii
▁kafidii
▁fawt
▁moƴ
▁tuubay
koyɗe
▁takke
▁juhir
▁aamin
▁ndapp
▁gomɗim
▁ɓittii
▁haaniina
fiɗay
▁ŋarɗi
▁kafu
▁dañata
afata
▁finaa
▁ɗalii
goroore
▁newor
▁saafaa
▁tekkuɗ
▁ronndotooɗ
▁nanditir
wataa
▁nokkure
ndeeydat
▁ɲiiɓin
▁didir
▁jiccino
▁wattiti
▁landotonoo
kurtu
▁muynuɗ
▁yiltitoyi
▁tellii
▁fennude
▁hulɓina
uri
▁Waɗtin
▁woopi
▁sowanoyte
▁okkoyta
▁nangannoo
▁beltiiɗ
▁neem
▁fawondirnd
▁fiilto
▁yamirɗon
▁bewir
arata
▁Seer
▁imminoyte
iniraa
ituɗo
▁ceerii
epandii
▁feera
▁nafqee
▁njalt
▁tuunu
Yiltee
▁anndaaɗi
▁Saaki
▁hoyde
ndoore
▁ndunngu
▁tuunintino
▁ɗuurii
bakkalii
▁lamminir
▁yanganii
Dogu
▁feetu
▁eɓɓiino
reweteendi
▁meeɗaa
▁foolaa
▁tiwe
Ba
▁jogortee
▁Wirn
Saar
▁Nenni
▁firlitir
▁laamodoya
▁ƴellitii
▁nafoda
inkino
ondirane
▁ñawlii
▁baj
▁Wer
▁ceerndata
▁Miij
▁ɓillin
▁simoore
▁Hal
▁kawru
▁Moƴƴe
▁Daaloyt
▁hayrude
▁awƴi
▁daakinoo
notaako
weltanir
ortaako
▁koɗanɗ
▁ceerndoo
▁Ñiiɓir
▁ɗowir
▁faaminan
▁Barkini
▁habbitani
▁Tippir
▁tell
▁siŋo
armalle
▁fawtotoo
ymaan
anooɓe
▁gum
muyɗe
▁woɗɗund
▁jaroo
▁naɓaa
nnjon
▁moƴƴinoo
▁duŋinor
aɓiri
ndinee
▁tuuninir
heddagol
▁did
▁yaɲɲ
▁sanke
▁jiiɓaa
aharu
▁fukkin
llitike
▁torotooɓe
ndolɗin
▁hawniiɗe
▁njogiti
▁ruttodi
pere
uttugol
▁weltini
iraaɗe
▁kasiya
▁Yewtir
▁debba
rd
▁ɓattii
bin
▁kinal
▁waɗtiri
▁jalbinana
hisnii
dimo
itana
idaa
▁fottuno
▁funsu
▁ɓoos
▁wemmbii
▁yawtin
▁tanƴinaa
▁heefan
soñugol
▁sooyu
▁jogitino
▁jibintinee
▁amɓɓe
▁faabinora
▁catal
▁ɓuran
eltanii
▁bewinir
▁Mbi
af
agal
▁tijjinoo
▁yiira
▁tiiɗn
▁soƴƴaa
▁Tagir
▁ardoto
iliiɓe
▁luubaa
▁yeddaynoo
▁huncannoo
sungo
dateeɓe
▁suuɗon
▁wallintini
▁hawkoy
▁Mooɓit
irna
▁suuyir
wndo
tafugol
lliŋt
▁termu
ahodin
▁Ƴettaa
oodere
▁suut
▁woote
tanee
▁sawti
ñaa
▁woodaniima
girayɗi
yaggingol
▁jip
▁teddiraa
▁reerɗi
▁killi
▁waajotonoo
▁weldit
▁Resi
▁udditoy
▁yeɗoy
darii
ntah
▁lollinir
▁yonugol
ɗaango
▁lanndee
▁poti
emmbe
▁halko
▁mbatird
▁ŋalɗin
▁hiitor
ktii
▁soggee
▁arduɗ
)"
▁wallon
▁fewnu
iŋtinaa
▁jattinoyt
Naate
kis
ondirɗo
▁Woodii
▁eɓɓugol
ttoowo
▁duncana
▁kiit
▁parir
heyr
▁kurkoy
deer
▁hollitaa
kiti
▁moɗugol
▁seedintinan
▁nanngiree
bajjo
▁tampaa
▁ndutt
▁ɓiɗtee
▁yaafoyt
wonsin
▁jokkindin
▁hawre
dewal
▁ronndi
▁meemayno
▁farlan
▁kaŋj
▁sunnini
toɗen
▁huuɓitir
▁ñiɓn
▁ekkiti
▁hingo
oliwal
▁ooñii
▁rimii
▁piil
▁huccituɗo
▁feeɲannoo
▁fuɗnir
▁faljini
▁darne
▁waalida
▁kippudi
ŋtinaa
▁mball
noytoo
▁Ce
▁ferid
▁gedd
▁sicc
▁muuyana
▁tagaaɓe
▁Ƴa
▁wewliniray
▁ronndinaa
▁ɓaŋng
▁bewinno
▁sarb
▁ur
▁arsika
▁Tefoo
▁Sari
▁dewa
▁Saala
▁faggitotoo
▁haawnu
eltinoowo
doron
▁dogaynoɗ
▁ɗonɗ
▁ruu
▁cow
▁naamna
▁yew
▁kammuyankeer
▁ŋat
ɗiraawo
laaɓe
doo
▁teddud
▁sooditiri
▁saatina
ulde
ndiyan
▁Ngon
▁qad
aŋtaak
ciim
▁ɓokko
▁sikkaa
mmbata
ll
▁goy
▁feeɲirta
▁jooɗano
▁cemmb
▁sertee
▁tawtindir
▁meke
▁duŋano
▁faamirta
pit
▁jorto
▁hiwroy
▁sooyin
▁sifanaa
▁ɓalewo
ttan
▁jokkan
▁junnit
▁yaaja
▁lontini
▁ɗayɗ
▁wengaa
▁subbunhinod
▁yamirɗo
▁sonjan
▁habban
▁nelti
▁jogorte
▁remoto
▁ɲaawanta
▁alɗinori
▁semba
▁andinaa
▁ɓangina
▁mooƴ
▁wondir
birki
▁haqqilir
▁waɗito
iɗude
▁fotondirɗ
▁weeɓita
▁muɲɲani
▁ewnort
yaaji
▁laɓɓintinee
▁ɲakkini
▁immindinan
▁Teddinaa
▁wojjiri
▁Wurt
▁fitn
▁tawru
wnoowo
▁addanoy
▁ahoduno
Halk
▁jah
▁ngawl
yal
▁fefindii
▁ñolu
▁ɲawndor
▁yollii
▁werle
▁beɗo
▁feddeej
▁ustan
▁wirninoo
▁wewlin
▁ɗiɗe
azi
▁jalkitu
▁Halka
▁yarde
ɓerndeejo
aŋtaa
▁yeewtida
▁Ɓor
kiima
▁soke
▁yaltiduno
▁sirkunoo
ɗɗugol
▁wulloy
▁holloye
▁Ɗem
▁ndimɗi
▁fenii
▁majjitori
▁Meeɗi
parñite
▁ganngu
nndugol
▁tufir
▁majjani
]"
▁liddondirtee
Ngard
▁ndayginor
▁nyaamir
▁Woɗ
▁sacc
▁feta
ngur
▁mbonni
▁dogataa
▁lesa
iyyu
▁soruno
▁hiwri
uwal
▁Ɓannginani
▁huɓt
ulugol
▁Ñee
▁ɓadiinde
saajo
▁njeeg
▁ɓuɓɓinir
▁falju
ntii
▁lammina
▁ngoonɗinta
▁roond
▁boy
▁teddina
Ka
ulaaɗo
▁windaak
▁Malayka
▁jeyaaɗa
▁wullitoto
imol
▁keewɗ
▁loll
▁ruttitii
joddi
▁mbiino
▁ŋanaa
▁Anndita
▁camp
▁mool
arɗo
amaruyee
▁funtu
yaafuya
▁handunoo
▁bewr
▁sokoy
nuɓe
▁sonjir
▁yewtidata
▁Ef
▁wewliniraa
▁feeñiri
▁pos
▁yamirayno
▁foppo
▁fennayno
▁suɓani
▁battin
fooɓe
pp
▁suuɗoo
▁saasna
▁giray
▁jolku
efa
ndirnoo
aboo
rano
▁ɓawl
▁Annda
▁yaafatoo
▁wikko
▁handuɗ
dotooɗo
▁wal
▁suɓoray
▁naadoy
▁deftu
▁dariiɗo
▁Dema
▁hawtoto
▁nganndin
▁fula
▁yaawir
oyteende
▁timminanee
▁liɓir
din
▁Yurmee
▁sil
▁accira
et
▁metteend
▁ñaamii
▁nulɓe
▁taganaa
▁maha
odnira
▁udda
▁ndannda
bolol
uje
▁muuyiran
▁Hulɓin
▁hawto
▁holtini
▁waawayn
▁añini
eletaake
▁sunninira
▁paran
▁sembata
▁Ɓeyngu
▁heddinoo
▁ñalora
▁pan
▁suuɗuɗo
▁marɗ
▁uyt
▁darnete
▁yeeyoo
▁lurru
▁ɓurnitii
idugol
▁addora
▁ewnoto
▁Her
▁duncata
ccataa
▁Ɓanngannduyee
Add
▁wellitaa
▁kawri
▁yeddondiroyta
▁cikkita
ollan
▁yondinii
▁ɓanginanaa
▁wallitii
▁tottit
]?".
▁pikk
▁tufun
▁Jog
uynin
▁rufu
▁carmal
eya
▁seeditorani
▁entugol
feeji
▁bakkondin
▁jalbin
▁annduɗon
▁bugoy
▁giit
▁nangunoo
▁tutu
▁ɓuttinaa
▁hayri
▁Hinn
▁ndeeyde
▁ɗuɗɗinir
enee
olle
▁Mur
▁hoddir
opp
us
▁suddaa
▁ɗoftinoo
▁neɓɗɗ
▁Yiil
ɓirta
▁lanca
▁firtaa
▁hikkornoo
▁paasu
▁ngaada
awru
yooru
lude
▁lunni
orotoo
▁Ann
mpule
▁iwd
▁neld
▁sunina
hè
▁jokkon
▁rugg
▁ɓuuɓund
▁fotoo
irayno
oye
▁himmu
De
▁heɓiraa
▁yeɗoyte
▁gollat
itaare
▁addira
▁ardoree
▁suuyira
▁huntan
▁muuyanno
▁feññinir
▁jenn
binii
ondirɓe
▁ɓadoto
▁sagata
▁fewju
ggitii
▁z
yaawira
wiisi
▁uuyu
▁fiɗɗ
▁fillayeej
▁dutt
muruu
▁kosan
▁firtor
▁newni
▁Suri
▁taskoto
▁feƴƴiri
alkira
▁aynunoo
▁ɲaawiroya
▁haɓataa
rike
▁wowlayno
itiree
▁seniind
ooleteengu
▁aami
▁taƴindir
▁nafkud
▁muncii
▁bugor
▁hoɗn
▁moƴƴintiniri
▁ƴettodi
▁jaaborta
tante
Win
▁tum
▁ninsu
▁gollidir
▁jogoto
▁Ɗal
▁piila
▁finndi
▁nebb
inɓe
adagol
ŋtina
▁falj
▁haɓu
▁wahayni
▁defan
lirde
▁hammira
▁fewjira
▁naɓayno
ccitee
mɗi
nitaa
Acce
▁dirti
▁gaynata
▁ndarnde
▁ngart
▁dillata
ujjatah
ulude
hor
nir
▁humpitaa
arabuujo
eeter
▁happii
▁deenoow
▁sakkiti
▁suuɗor
▁saanir
▁tigga
▁wuuraa
oytoo
aabaaɓe
▁fet
libaa
rgel
alaama
▁jippinɗ
▁Walli
▁tawtiro
danyata
boomi
▁ɓiɗtori
▁laatoyo
rli
▁bonnir
▁sigi
▁diisi
Jogitor
attudi
gel
ogugol
▁woondan
▁njedda
alkaare
indinee
▁sincu
oytooɓe
▁ɓurnondir
▁ndey
▁buutu
▁tora
▁tikkanɗo
▁wallir
▁goongii
▁laɓɓinira
▁hewtan
▁hayfinaa
▁Mawn
▁ɗuur
▁wirnato
▁ɗiɗaɓo
▁yottoyi
▁moɗ
▁yulat
▁Feew
▁winndirta
toyo
▁ñaaƴa
▁hayrina
"...
oynoo
▁lontina
▁laƴ
▁binnd
unnaaru
moowo
▁hebbinira
▁ɗowira
▁faɗɗe
yto
▁Humpitir
▁bappit
mooɓe
▁waɗe
▁tall
▁tinndinay
▁lolliri
sarin
otto
oondu
anndal
▁momto
▁sottira
▁ɓokk
▁fuɗinana
▁rewteeɗ
danii
▁rane
uuli
▁feñ
▁Ngoo
▁ƴettit
▁feeñii
siira
▁par
▁Suuɗ
▁jertinirno
▁bir
▁ardinaa
wost
▁hod
eri
▁felataa
▁lootoo
yuu
▁surii
onon
▁haaside
▁saakitaa
▁lunndi
ppitoo
aɓun
▁yuɓɓindira
▁okkiraa
▁habrii
▁ɗaɓ
▁ndaarira
teeriij
▁penuu
deele
▁beeli
▁soll
▁heertinani
▁wuɗɗ
▁nandollaa
ngi
▁ɓaɗtor
▁tommbii
▁hersiniiɗ
tanji
▁wurtuno
▁njofo
▁jiɲo
▁haaje
▁meemondir
▁faaɗuɗ
lɗere
▁haldid
heewundi
iimaanu
añini
▁jeytan
▁jarribotoo
▁jojju
▁rokk
▁leptuɗo
▁heɗitotoo
▁njaafo
▁sembi
▁haɓidu
▁yottano
▁ɲembin
saata
ayndi
▁jumpir
▁ker
▁Noddi
tuɗan
ɓaama
ataama
law
▁wuug
▁Nula
innugol
▁feeñira
▁naninay
▁Falta
▁riw
dd
▁salor
▁yaafora
▁majjunoo
▁sifora
▁limoto
▁Bala
▁kafida
ondiraynoo
▁luggu
▁seedin
leeti
▁tammba
aloy
▁boro
▁janngataa
▁kurkoto
▁lootora
▁daginanaa
▁hiit
▁jokkuno
▁adito
▁lurruɗ
▁mbe
▁mayno
▁tampuɗ
rlal
bir
▁Goongaa
▁sokolinir
▁hina
▁wadd
▁yankinani
oopal
▁ripp
▁hariir
▁maccin
yaafeede
▁Moƴƴir
▁tumba
▁wokki
▁kammbirana
waar
▁Fewnay
▁Fill
▁yuɓɓondirɗ
▁falji
oragol
▁nawyi
nanaa
▁ombo
▁woowiran
mmbe
▁ruttor
rti
▁seedan
▁wallitee
ekapo
polii
▁haqinqina
alle
▁kaaw
▁wujjit
awuɗo
▁sag
mude
eteeng
tiima
U
▁yaltinnde
Inn
▁waajitorta
▁ardiranay
▁waranoo
▁ñiiɓaa
torii
okkee
▁tottire
▁Ŋ
▁raɓɓiɗu
▁pooɗor
▁ɓattor
▁newnane
▁hoynee
▁ɓullit
oɗe
▁ñinnan
iren
▁yoomu
▁yeetotoo
▁fottan
teteeɓe
waama
▁ƴettuno
▁kurkoda
▁ɗayniree
▁tong
▁wayni
iim
▁windir
▁sowto
ren
▁=
▁jertinanoo
▁naɗe
beeje
urmotoodo
▁ɲaamid
▁fewtata
▁hattuɗ
ttere
ggii
▁annditi
▁noddiroyt
▁fokkit
kaas
▁tuuta
nunoo
▁jolkit
▁Timminan
uya
▁hittin
▁sakkoray
▁juulii
▁mbobo
▁mala
▁Hikk
▁daɗndu
laynoo
▁derfu
noongol
elenru
▁Nuliraa
▁waccoo
▁moolii
ahi
▁naatitu
▁andanooɗ
▁heyn
▁Winndi
▁mayr
▁suuɗo
▁duumor
▁yaccin
iyanke
▁tampidu
▁ɗonɗa
aawata
▁haananɗ
▁nandintin
inanii
ndiraawo
bulan
▁daɗi
▁hulirta
▁rutte
▁Ƴe
rannde
▁ngudd
▁hiitani
▁fawɲ
▁mutira
luwal
ordi
▁jarribi
aborii
▁faabee
▁weeɓitu
▁luggin
iroyay
▁ɓurnu
waaɗe
tete
sondiral
wti
▁Hoɗu
▁gaynito
ttu
▁sownd
▁pit
▁fitt
▁mbod
▁pert
▁heddina
▁Ndiy
▁muññori
▁murtunoo
oro
▁yankina
▁sunninan
▁ngañan
▁Almasiiyaa
▁Ri
▁fensitiri
▁Maw
iranoonde
hon
niiɗo
rte
▁usta
▁njuu
▁heewung
ñore
▁Wone
▁cuɗinan
iiƴan
▁njoɓ
▁jonnoy
▁cakku
▁nanditay
▁ɗahu
▁cuɗaa
▁fewne
▁fidde
▁humpitoyi
▁Faal
▁townitora
▁lootira
▁jomb
▁denndin
▁moƴƴintini
iroyte
ttaandu
▁yejjitaa
▁ñaawirta
doyta
▁ball
owtu
▁ndarndora
▁nangii
▁fowt
▁suni
▁jonnitata
▁goongi
▁soppu
aniiɓe
▁tiiɗundi
amere
▁loo
▁serindi
▁winndit
yank
▁muññotoo
▁pooɗu
▁moƴƴinano
▁nanngata
▁Kadi
▁Bak
▁diwnu
▁kaala
▁hiwira
edduɗo
▁huɓindi
▁laamodi
teeɗ
▁Yoɓa
▁moɗa
▁Yii
▁cujj
asugol
▁yoomoya
ggotonoo
▁tagud
▁kisi
▁arta
oowal
rirde
▁hunndit
▁noddeteɗ
ɗɗunde
▁faggitan
▁lannoowo
iinde
▁hendino
▁bugan
Kon
▁Haaj
▁wiira
goopi
abbata
▁tawta
▁taal
▁huɓɓat
▁halkata
▁daginan
noytaa
▁noddire
Daa
▁mbaɗɗ
▁pewja
▁marana
▁toownu
▁ñaaƴ
itorgal
aayi
▁wuurata
▁sirkoo
▁selna
hoyi
tuɗi
innaaji
▁Naafiqi
▁Fewj
▁ɓattaa
▁memiray
akamme
▁dir
▁Jippina
▁woow
kkere
▁Mooɓ
▁Hare
▁wurn
▁Jogi
aapu
▁ndarta
▁rimoo
▁bugi
▁lumbu
▁taƴinoo
▁maako
▁darnir
▁Maako
▁nelir
▁seeɗaa
utuɗo
▁mantotoo
▁siwtaa
▁niɓɓiti
▁sahi
▁fennata
▁bugita
▁Koo
▁woondani
▁tampinta
▁fiil
daano
▁fillo
ddu
▁jokkoo
▁ɓamtayn
▁Watti
udiiy
▁fawoy
▁hafora
▁ɓoyla
▁ñi
▁Wurn
▁Neeɓ
▁ɓin
▁sor
▁Ab
▁tefu
▁leptu
▁taƴiiɗ
aŋ
nkee
ttii
▁joop
▁fensitaa
▁luutnd
▁welɗ
▁nandu
▁beytiran
▁gasin
▁saak
abiil
▁hajor
awnuɗo
▁welti
▁foolu
irata
tutta
▁Makka
▁pennat
▁faltaa
▁yiɗata
▁daasir
▁jindidu
tondira
▁Sek
tefa
▁sertuɗ
▁tinndinaa
▁tillis
▁daɗd
daade
imo
▁weltaa
torde
▁neluno
▁etugol
edde
▁buɓɓ
▁hakindiiɗ
▁caroo
urnagol
▁yiitoy
▁Leggi
▁wintaa
▁Sum
aanin
▁darnani
ahanam
fin
reeti
aaluuta
▁soɲitu
▁ñobbaa
nngo
▁taƴotoo
▁Siri
Ja
giriij
▁muluno
uña
▁nafki
rik
▁ninsi
▁taƴoy
ndirɗo
nngugol
Yaltin
▁ɲiddina
▁nelda
ltii
▁il
▁Huɓind
▁saffin
▁wert
▁wonuɗo
▁ñalormaaj
▁yahoy
idaaɗo
▁weltorayno
▁meeɗinoy
▁yejjitir
▁Timmi
▁maayani
▁nganndina
kkuɗo
▁eɓɓata
▁ñamminay
emp
▁wuurnituɗ
▁dam
▁laɓɓinanaa
▁tindo
▁wallire
▁sottiraɗ
res
▁duumaa
toore
▁ombu
wje
▁hawtoyt
Ya
▁tertot
erlii
▁yiltori
▁hunti
▁kulj
▁caraaɗ
▁fenñin
mbe
▁yoɓi
aawataa
▁huliree
▁heddi
▁fiira
▁wattini
▁gomɗine
▁luuɓ
tinira
▁naatit
ayra
▁huuɓita
ndindiraaɓe
mbii
▁gomɗinirɗ
▁jonnoyt
▁huf
▁gir
▁fawoto
urmotooɗo
▁mulata
▁Sul
eddo
▁waliyaa
eedo
▁wajit
▁"(
oron
inndi
▁manto
▁innata
▁wattinir
▁yeƴan
▁yawi
▁jantoo
iwal
▁majjir
oɗɗee
▁To
▁fewjii
▁ndaariri
looɓe
▁wattit
▁hoɗini
ista
▁buuse
▁daraa
▁wurtan
▁iwl
▁laatoda
▁soktori
▁jonbindire
▁ronirte
ooñorgal
▁muñi
▁Tama
unu
▁fellitan
▁gid
daaki
▁kammbiran
itee
sann
▁senndu
iroyi
nat
fagol
▁ñiiɓata
▁darani
▁seeda
▁bappa
▁farju
▁muti
ntino
▁wiiraynd
nder
▁caam
▁noddaɗ
▁Reenoɗ
▁yur
▁Jaɓana
▁meer
▁sut
▁yeƴi
▁fuɗɗani
▁Muññ
turu
▁ɗaɓɓayno
▁miijiti
▁addantaa
▁winduno
▁ɗaynu
▁naadoya
▁njii
▁Neeminii
▁reenira
▁ummin
▁seeduɗe
▁tuuninira
▁tawtin
▁tuf
▁ƴettanoo
▁fit
inugol
▁yarit
▁seeno
▁ƴenta
rdaŋt
▁yaltinirno
▁Sah
▁jibinnoo
▁mulee
ran
▁jonbindir
▁hoɗe
▁wuddu
rtol
▁bonnit
▁hendo
see
▁yamirno
▁ɓantoy
▁nennitan
▁fewtiniri
▁ɓul
uruuji
Waɗ
▁salo
▁fusata
▁Ɲaawu
▁meeri
irante
▁waɗit
▁hippii
ottinee
▁saɗti
▁haynin
▁Jaɓɓ
mii
▁roondi
▁ronkina
▁huɗu
awere
▁kecco
▁Moolo
▁newano
▁addiran
▁naadir
ɗirɗo
uɓɓinanam
▁laɓɓint
▁jannay
▁huntu
▁fillita
▁haɗitoto
▁maayid
▁And
▁tambi
▁faama
▁anniya
▁piyee
arru
itannde
▁ƴelli
▁qirrita
▁dumbe
▁juh
▁yil
yuunu
▁ŋermu
▁wennjay
▁fempu
▁muuyan
▁kuljuɗ
▁daña
▁ɓoorno
▁ɗuuɗiroy
▁Mis
▁anditiro
▁liɓayn
▁yaltinte
▁Ndu
bili
▁ciikuli
▁wernuɗo
▁bur
▁Laaɓa
▁kufu
▁duɲ
▁huuɓi
▁ɓallinaa
▁Land
eedi
▁hebbiniraa
ten
▁seeduɗ
bel
▁fenñini
▁wakkiliniri
▁remi
▁sattina
▁immintinid
▁jaar
▁rerɗu
oñorgal
oñiiɗi
▁hisna
▁waylitii
▁firtan
▁nootaak
▁wonnooɗ
▁eɓɓanee
▁dirtu
▁nannguɗo
▁anndataa
aɲi
waɗ
▁ƴakki
awaseej
▁haaɗungo
alil
aafotooɗo
irana
▁yiltitaak
▁fempo
▁Umm
▁hikku
▁sellun
▁daroy
▁feññini
ɗaama
▁sinnd
▁lande
uɓindiiɗo
▁wajita
▁laɓɓino
▁runt
▁ɗuwir
▁arsikaa
▁Mataa
▁hippo
▁surra
nndaari
▁woondi
▁himmiran
▁feppit
▁nanngiroy
taaɗo
▁jaas
▁jogiɗ
▁haɓi
kin
▁Aynoo
▁fewtinira
▁ɲaawan
nanoo
▁gaynir
▁sincir
▁garda
tiwol
hab
▁warj
mol
▁pottitor
itude
▁wumiɗ
anoytaa
▁May
▁darnan
▁sutan
aɗa
▁mawninte
ojji
▁marto
▁bapp
▁sakkaaɗ
▁wuttee
▁seeɓu
▁weltinaa
▁marirno
idra
▁dannd
▁Werd
▁hom
▁tiggu
awal
▁sabondira
iɗuɗi
▁weltoro
▁ndon
▁dari
▁ndewa
tefon
▁janngira
▁jaɓiraa
▁tete
madu
▁wawti
▁Ɗat
▁muncir
▁wurna
▁Maj
keere
▁ngoop
abaama
fotooɓe
ŋtin
ewje
▁potti
▁andinoyo
bul
▁pennatn
iin
▁tokke
soowo
▁wuurti
▁fontii
▁yeɗanoo
▁soodita
▁welɗa
▁kawroo
▁halkee
ñaade
▁feewung
ensita
▁moƴƴinire
▁kuɓe
dimɓe
▁nunɗi
▁monta
eggal
ttaaɗo
ntini
gannde
▁ƴawu
▁wot
Haa
▁ndarndore
lanna
▁aroyayng
▁daɗirt
▁dees
▁luttina
▁halkiri
rin
▁Tikk
▁yeɗoya
▁uuy
lon
▁meemir
▁fempee
oroyo
diiji
▁Ark
anɓe
ccata
qat
▁jiidaa
▁daako
tawɓe
tanagol
▁seeko
▁holn
ccoore
wtii
▁jaɓɓ
▁qirr
kooji
▁bunn
ananaa
▁maandine
otono
▁fewt
agu
iroyton
dini
eddoowo
▁woniranno
▁nafir
▁suɓee
▁ɲaawoy
Ta
▁tiime
idu
▁fawaak
▁resee
▁ndo
▁ittat
▁ahodaa
ɓita
▁wifir
▁waalo
enke
▁waajee
hen
▁buɓɓa
▁accitata
ndanta
▁hoose
▁dakm
▁datt
ereesi
ndiren
coto
▁ñiiɓira
▁lannda
aɓɓi
otiiji
▁noddoyte
oogugol
▁sujju
▁waɗtay
ilayɗi
nanaama
▁nodditaa
▁tabituɗ
▁mehu
▁nooti
▁fuɗɗora
▁rentu
▁yoɓu
allugol
▁jumpo
▁hawtidu
▁jalɓund
▁ñe
▁lesaa
▁ƴeen
▁Uk
▁ɓurdindini
llere
nande
▁hunnir
ndirira
orugol
▁ɓittan
rangol
▁jertinooj
yata
froowo
▁faabora
▁ɗuu
▁nennit
▁wirnani
▁buu
▁Faam
▁foocci
▁ɓanginno
▁yuli
ndintin
▁ewnor
▁hewtuɗo
▁tampiniray
▁dab
▁liɓ
▁hibban
▁ɲaame
▁waɗinkino
▁yirbini
▁addete
inirte
▁wir
▁coodti
mooje
otiro
▁Ɓaŋngina
▁heɓunoɗ
▁andintina
▁ŋu
▁rus
▁ɗaɓɓiraa
▁Seedi
ddere
asataa
▁jaaboto
akkiltah
▁hoolorɗo
▁njaafa
▁ñapp
anngal
▁hollata
idayno
roton
▁ɲaawiroyte
ab
ayanɗe
▁fuɗɗan
taande
▁yawa
rnii
▁sifana
▁Daran
▁ukkit
▁cikkinoo
▁kipp
▁huɓɓa
▁muɲɲi
▁naatne
▁alɗu
▁seeduno
▁woy
▁toƴƴin
▁neeɓoy
▁danndu
▁mooɓindirt
odoya
oytaaɓe
▁noddayno
▁fott
▁laatorno
▁nanndin
▁wakkilinay
▁haɓɓit
ɗini
▁yamirɓe
eccere
▁wirnit
▁keɓat
▁dagina
▁fotin
▁majjaa
odi
▁ngonti
naange
▁ɲaawirteɗ
ahaabaa
▁aadan
▁luttinoy
▁alɗir
oƴƴi
▁defi
perdu
▁dunca
waɗaaɗi
▁waylitan
▁tabita
▁wattiri
▁noddete
▁tamƴin
▁pii
▁duumiiɗ
▁suppu
▁fon
yeruuji
▁heɓirnoo
mbiri
▁limi
▁yarni
▁maandinira
▁Sur
foor
▁lorraa
▁derf
▁fawto
eereeru
▁Ayn
▁ɓamtira
▁yottana
▁fulawa
▁njana
▁hentini
nŋe
▁sariyaa
▁Hak
▁lesu
▁lannditete
▁fann
▁ɓannd
▁gaynu
awgol
uyee
▁renti
▁seena
ddo
▁tooñata
lloo
▁nanguɗo
▁haaji
▁waɗtitiri
yirta
▁qi
tuuni
▁harman
uuɗi
▁Hann
▁hayrin
▁mawninan
▁baɓɓit
amaanu
id
▁waawot
ŋtee
▁cattuɗ
soro
▁junn
▁memoya
▁jaɓanay
▁muliri
▁enndu
muuji
▁wontid
▁jogitorno
ayde
▁feƴƴitu
bare
▁huɓɓir
▁ekkito
wtunoo
guurdam
▁ñamak
▁yung
uyeeji
imuru
▁newina
seere
aamugol
oora
oori
▁yankinana
▁saako
▁fayti
Wone
▁Nanng
▁suusaa
▁lasind
aawoore
oraare
ɓɓitagol
▁ɓaa
ndirɗe
▁dartod
mutal
ttinee
▁ɲawnda
▁halfinoy
ninta
▁malira
▁bada
▁sert
▁ɓuuɓuɗa
▁saakitiiɗ
ing
▁Makk
ñal
▁mbeɗo
▁Ii
moo
▁jalɓu
▁landa
abii
▁nangan
anon
biir
▁dandiraa
eele
▁taam
niino
naneede
▁karhu
▁juutu
▁ndaygina
▁suɓay
▁haddi
untu
▁haɓɓaa
▁njofi
nnagol
innaaɗo
▁faandor
▁dirtinaa
▁hersinoya
muusu
▁Daɗndi
kkal
rayti
taɗon
otoɗaa
▁alm
▁firlit
▁hulirt
▁Yer
▁Hab
▁Fensiti
▁sattinaa
▁nedd
Laator
ukkugol
iyankoo
bbuuli
tungal
▁yunngo
inaaru
naaɗe
aree
▁duncanaa
▁ɲaawiroy
za
▁ɲoli
amiroore
mmingol
▁fempata
▁lontiniri
▁ɓanginɗ
doy
▁feññi
▁timmund
ilaare
▁fiɗu
▁ɗimmitu
▁ƴoƴ
intino
▁huccitu
▁wayn
▁ɓiƴu
▁Jannt
▁janngin
ndam
▁ɓeydita
inno
▁warirɗ
▁darniraa
▁yahan
▁jebbilani
acca
▁cog
nirte
▁terta
doya
▁ɓantir
▁sonkay
▁wuurnu
aamuɓe
▁jon
▁ndaarirt
orte
▁ɓeydira
▁fotana
▁jettoo
▁duɲi
▁sali
▁Gala
ndaari
▁ɲaamunoo
▁ɓeydanta
▁townata
▁eɓɓira
▁pooɗondira
▁soodu
▁fayi
ju
▁muy
areeti
▁for
▁cakkiti
iran
▁ngonaan
▁Hoɗo
▁darjun
ikii
C
aɗan
▁toŋa
▁dirt
koosi
kkay
eɗɗere
▁baɗt
▁sooro
▁huɓɓung
▁imminoy
▁coda
senina
▁ardana
nkeejo
▁hippay
▁ñinna
▁Janngo
tiraa
atooɓe
aɗtanɗo
▁noddiraa
baaɗe
yu
▁yottotoond
▁joy
▁yoɓitu
▁lamndite
▁jokkondirn
▁sod
iite
▁fotondirɗo
▁ɓat
▁sowa
▁newin
kooɓe
giiru
▁miijit
▁palan
ees
▁kepp
Jokk
▁hollayno
yirbii
itoyo
▁wattoy
▁kafiday
cc
▁wudda
nnd
▁Salmin
miroore
bal
ooloowo
▁suusu
▁wuttu
faaji
▁mooɓu
ubi
▁fiju
naaka
▁ɲaawiray
▁artu
wooɗa
▁ndayginan
▁etir
▁ilayɗ
ditee
▁ree
▁seedata
aymaa
ɓaani
aɓɓe
▁fefind
omɗimɓe
▁mettini
wano
▁tentina
▁wewliniri
▁haqinqini
▁fitint
▁ɓut
lirgol
▁hulnoo
baɗɗu
▁wallint
▁bagge
▁jokkondirɗo
▁feƴƴin
▁Yett
inta
▁maapo
▁wontana
ŋti
▁hatonjinɗo
lewal
▁yeebi
iɗaa
Haana
▁Bakka
ƴƴe
▁jaɓiran
▁hiwi
▁ñobb
malaa
taandu
▁liddo
▁yawtani
▁maand
▁ƴettani
▁ɓaw
▁denndaan
▁hunni
▁Haɗi
yliti
▁Ki
▁ranee
▁hendort
▁mandilu
▁yonant
▁qu
elduɗo
]!"
▁tippina
▁firti
▁yuɓɓondiri
ondiran
▁himma
kkitaade
▁ronirt
▁saɗtir
▁jogitaa
▁hormorteen
▁kaalata
▁nane
iyan
▁wenji
biti
▁Yawt
▁ronir
▁iwuɗ
▁jebbila
▁hersina
holliray
ppaaɗo
taba
iroya
▁i
nngu
▁nafat
itoo
▁lepti
▁ɲaamete
tteteɗon
▁jiiɓir
▁ɓanngani
▁Ɓanngin
▁fallu
▁hormorteeng
▁muloo
▁dandoy
▁Ɗaa
niiyu
▁yanat
ftere
▁jiɲ
ɗagol
▁hayfini
cu
uñal
▁yona
nnaa
tiiɗe
▁sellinir
erɗe
▁ann
▁tatte
aroowal
janana
sar
▁janntoo
▁Wurti
duuna
▁laɓɓiniri
▁janngaa
▁jattint
▁Mant
anoowo
tali
▁feƴƴit
▁ɲaawaa
Makko
▁Jippinana
▁sowndi
▁sela
ɲi
▁weeɓite
janngin
unnugol
▁ɗuurnotoo
▁reenaand
dayno
▁hootid
▁ɓullita
▁accata
▁mooɓoya
unñiiɗo
▁wowlanaa
▁alka
rma
uunaango
▁ɓora
dinaa
▁dolnund
▁ɗoftor
it
▁peewɗ
▁barkinaa
▁jilli
ntinir
▁awƴin
aɗtuɗo
▁gomɗingo
▁yurma
dhè
onndi
▁wontida
▁rinɗi
▁ɓeydiray
▁cukkete
▁Api
▁ɓurnd
▁njalta
▁yewtuno
▁Ɓannginann
nen
▁sokolɗo
▁timminirt
yataa
niɗaa
▁memina
njor
daango
nduɓe
woodani
▁ŋatindiri
▁neeɓa
▁tig
lay
▁Maak
▁yottino
▁hott
▁dull
▁disaa
▁haacu
▁hippaɗ
▁kas
▁hunƴ
▁wulɗ
▁poomu
▁Ref
▁ndaaruɗo
▁wallete
▁Tippi
oɗɗiniranoo
bun
tiigu
▁Sir
▁fonndu
Ñiiɓin
▁moƴƴoo
nam
▁maandini
▁feppi
Kafid
▁ɗuuri
▁ñaawoy
▁dol
▁nje
▁geeƴ
▁ref
▁tab
▁memu
igiire
amugol
inira
▁immintinir
▁gasi
▁laañ
▁jinng
eesoojo
ñoowo
▁wifa
▁weeɓitir
▁Balla
▁landit
niiɓe
▁surre
ntu
tim
mersa
▁yolla
▁hotto
poor
▁munciiɗ
▁jaɓitu
Bo
ite
▁Jan
▁yon
▁feƴƴina
taaɗe
▁ɗawa
▁hoyf
hino
▁ngoonɗ
▁cuuɗo
▁henani
ppa
aɓɓugo
ɓaawo
ooni
▁Ɓurni
Yupp
pot
▁ñaawo
▁jullu
▁poomayankee
Anndina
Kanko
eddondiral
jowaɓ
▁Ñaawaaɗ
▁farill
had
▁kuɓɓa
▁goon
▁jig
▁tuɗi
▁Daalana
ultunooɓe
▁Ɗaɓɓi
ttoto
▁jaɓuno
buldi
ruuna
Ha
oɗen
▁iwta
gaɲ
▁hiita
▁ŋalɗina
▁habba
nje
▁wirnanaa
▁dah
▁ñaawoya
▁yelo
▁seeditano
▁poor
▁Okkiti
taaɓe
ƴƴu
▁suutu
▁ɗuwira
▁mayd
▁yoolu
negol
▁Yaafi
▁hoɓɓ
▁jokkam
yn
Nanngir
▁montir
koode
▁Malaykaa
▁bens
▁welta
▁naɓana
▁hak
▁subbunhinor
▁faas
▁Jippinanoo
▁dañu
▁baar
▁sonji
aawoytaa
aawe
laaki
▁naɓir
▁siif
▁pooɗir
wnitani
▁andanoo
▁toɗɗora
▁Munñ
anki
▁tafa
looti
▁hoynata
▁allu
▁maraniind
ad
▁suti
▁warraa
waaɗo
▁ñobba
▁ɗaɓɓire
▁tok
▁tampind
mb
Da
ngon
ɗenɗe
▁Tawreet
▁Nim
odata
▁Tedduɓ
▁hendin
▁dimba
▁tijja
dirton
ynge
tiika
▁warnoo
aɓɓir
▁yinoo
▁parñit
▁kuɓ
▁keefe
▁hawk
cuɗo
▁toɓaa
▁jokkinaa
▁tini
▁Aad
▁gim
run
▁Hon
▁yeesooj
▁huɓindoraa
▁warete
ili
▁laatodo
▁Mooɓi
gawlo
▁ƴantu
royii
gin
ndunoo
▁Mba
lkira
▁fuɗnu
aran
wota
▁ukka
▁adotoo
▁longinay
▁farla
ittaa
▁waasa
▁accan
▁waɗiranoo
sakkitan
▁fukka
▁ardinii
▁yahr
▁dandir
goɗɗo
itortaa
raŋ
▁irtaa
▁wanng
▁toɓɓa
▁takka
▁Se
▁nann
▁yuɓɓo
▁heɲ
▁sowinsini
▁laatinan
▁jinnanoo
boro
ŋu
▁bakk
▁fenaandee
ongu
▁dunk
▁ɲakkin
▁dara
▁Toor
bbugol
Jogito
hude
ttoo
rayɗi
▁Antipa
irri
▁Co
niraaɗi
▁hodii
▁ɗaɓɓoy
▁ƴogga
▁feññinant
▁wallitora
▁alind
▁lonti
aabe
▁eɓɓindaa
aray
▁tawdir
wna
addude
▁felee
▁alɗinor
Koohooɓe
▁meeɗata
▁jeeɗi
ntineede
ewtoyta
spoor
▁sala
▁Baal
aha
gge
▁hollindir
rnude
▁cakk
▁hooru
tungol
aɗaa
kili
nafkoo
▁tuta
▁yewtidan
ŋŋe
▁feƴƴoo
ontataa
▁weldi
▁soggira
▁nooto
▁fontoo
atteende
▁muññor
▁falta
▁wugg
taynoo
▁mooɓir
▁ŋalɗir
▁gollira
▁Naam
artugol
oɗ
▁suɓira
▁lagga
▁Yeɗe
▁ɓurnaa
▁mawnikin
buru
▁suba
▁weeɓitira
▁kooti
▁jarribe
▁yeddondiroyt
▁luund
▁jogitorɗo
▁eltiraa
utti
▁ndenndina
▁laatort
▁weddi
▁wuurirɗe
▁seediti
▁yuɓɓi
jamɗe
▁ukketee
▁sooditir
▁hettoya
▁mawniniro
▁faandanaa
▁sowo
▁kee
▁buumaa
wtagol
jude
kkuɗe
iɲ
▁Jaɓi
▁ɓannginani
▁Ɓannginira
lankaaku
▁kar
jeyaa
▁hetta
▁Yaafan
▁Yurmi
▁yooɓ
▁wojjir
▁mbaawa
▁waajoto
▁laɓɓiniraaɗ
▁heftu
▁juutuɗ
ɗungol
ynoɗaa
aranaa
▁winndana
▁kos
notoo
▁ɲembir
▁ɓoru
▁bonata
▁Walla
ndaangal
▁tasakuy
▁para
▁yarnu
▁hoyfi
▁ŋo
▁jeyir
▁feeña
▁Annditu
Allaahu
▁ɓale
▁wonirana
▁ndarndoran
▁yooletee
ngurndan
ruuru
▁debb
▁Rokka
▁gollani
▁ruuhuyanke
▁Res
cco
co
▁dek
▁tute
▁majjuɗ
▁Nafa
▁woɗɗin
▁dummb
duuma
▁lun
ttungol
▁haɓɓu
ɓora
▁fenu
▁Jaŋ
▁faabinor
▁hor
▁Jogitoɗ
▁seppo
▁juɗa
oono
▁weltoraa
▁werloɗ
▁janngetee
▁kumm
▁hettaa
irdu
▁donkine
lah
▁immintinoyt
▁mettee
may
▁jalbung
▁paand
▁temm
▁teddun
▁adoyt
yugol
muɗo
▁muncita
▁jaŋti
▁mbuu
nirde
acc
▁gimɗ
▁faggo
▁hafran
▁ndarnga
▁nafo
iwrugol
▁wirn
▁moƴƴinay
▁wud
otti
ntiir
▁njogi
▁nanguɗ
uuje
▁barkinaang
▁ɗunɗ
duuda
▁heɓuɗo
peewal
▁tooñirta
▁mber
aar
ubbu
finde
▁hibbaa
tinana
▁Dok
▁haawn
▁Winnda
▁jalɓun
muusa
kor
▁hab
▁muyninan
▁ruttaa
inirde
▁Alma
alɗinira
▁ferg
▁cala
▁yejjintin
gaa
boo
indiraaɗe
▁mbayla
▁jii
▁wuli
aaniyanke
kitugol
▁terɗ
▁ittani
nndaa
▁teddintoo
▁weltoda
▁siiru
Fil
▁ceedi
weteeɗo
oor
▁ɗowdii
finii
fanee
iise
toton
▁tooña
▁beytu
ttanagol
▁holluɗo
rtu
umaa
ppotoo
▁rondan
oranee
nafqa
▁weƴƴitaa
▁wondani
▁newinan
▁barminaa
▁wer
▁ɓurdi
ooliwal
im
taynge
▁mogg
▁marn
eereero
ate
▁huɓinda
▁kapit
▁yeƴƴit
▁welsindino
junuubu
▁jatti
▁ŋakkire
▁hebbinora
aɗ
uumi
▁piye
▁Farla
atteeji
▁junni
▁Ngo
aaniraaɓe
▁haɓana
rawol
▁rut
tirno
▁yarira
lunndotoo
haru
▁ɓuuɓuɗ
bone
▁hunca
▁kelɗu
▁fefindoto
▁gasoo
▁Haw
▁yonndi
▁andinoya
wonkii
▁tageef
▁tommbi
▁nuloy
aylu
tornoo
▁jertina
▁waɗiti
dooɓe
▁laamod
nasaaraajo
▁iwrungo
▁ŋakk
▁reenti
▁cok
▁ŋakki
ntingol
▁Haaɗt
▁sikkiti
▁mantort
▁wuurirno
mmeere
▁yaadoy
ƴƴiri
▁Ap
▁nanata
▁gollitiro
Ɗun
ayɗam
nguujo
▁yal
▁farj
▁half
ddangol
▁feroo
▁ceed
yoga
Reft
urnii
heeferɓe
▁saggi
▁ronndotoo
▁daginana
▁ɓoorn
▁Harmi
▁nelta
▁kammuyanke
ongal
▁ɓatte
▁ƴuu
ƴira
▁aranu
▁yiilotoo
rufaa
abbaaki
balɗe
▁taali
worɓe
▁hakind
ceedn
lat
dooru
▁ɲiddi
▁Jaab
▁yiidaa
lenru
▁laatodaa
neɗɗanke
▁muyni
▁barkina
rn
▁dingira
▁sorta
▁nennanaa
awre
▁Dog
wude
▁ɗuurnoto
mmbiiɗo
▁Daalo
▁Jalb
gomɗii
indi
▁tooɲiri
▁soƴƴ
▁darnit
▁ndunndarank
▁diis
beede
doole
▁laaɓata
▁jum
hommbo
uttinoyte
ujjo
▁okkoray
▁ɲiiɓi
ɗingol
▁ndeente
▁wattaa
ɓuttu
▁sottir
eynguu
▁hooloraa
▁werlora
▁waawiray
fte
ɗitii
toy
▁kuru
▁lorrir
▁Feññin
ɗimɓe
duuɓi
▁fempida
poomaa
Yaaquuba
arki
tinaa
▁aynira
▁wattu
▁heñii
▁duŋan
▁haasb
▁nag
▁ñaawiraa
▁toroto
yumma
▁wallindira
▁wooɗuɗ
▁njejji
yaaɗo
fir
wɗe
▁Jippa
Daawuuda
▁ƴette
▁nennoto
inndadii
▁poodo
Ben
diraaɗe
misal
ɓoowe
Hol
▁damb
▁ɓanginana
eldigal
▁batt
▁dahaa
arduk
▁sak
yalt
▁Wewli
▁Insin
Wi
kara
▁rajm
laamateeri
ooɗe
meere
toraynoo
jooɗii
uɗugol
▁luuti
mayɓe
niinde
ram
yalti
▁Jippi
kka
▁raɓɓ
ndiraa
gito
ccii
▁luutondi
dara
▁fett
ndiyam
▁ŋanna
▁daginti
ñandir
▁jiccoto
kaŋŋe
ɓadii
paa
▁addat
Wonu
aggiti
tanoyta
anndon
nc
Imminan
▁jarna
tooɗe
oreeɓe
diren
ajan
▁saff
ittaandu
▁jeyno
▁dig
noone
▁hoɗɗ
▁ammbu
siis
wootere
Nuuhu
pelle
Naa
ddiiɗo
▁eɓɓindirt
▁arsikoy
▁weeɓitora
▁bugotoɗ
Defte
tule
▁sakkito
▁wowliray
▁Horm
hoolaare
Goonga
lewru
▁wonoyi
▁meminira
▁sowu
wowlan
deesti
huli
loow
tati
liyaas
▁yahe
suno
▁bakoto
heewi
▁dillinta
reweteeɗo
▁keed
ngetee
sikke
▁windane
▁yelin
oroo
▁sernd
kaafa
bonɗi
▁tonnge
ƴam
▁toroɗ
▁wowlini
▁fetta
▁daha
yni
dolokke
eteeɗ
bitir
tteende
jibini
ondirooɓe
lajal
haaju
allu
▁wattito
▁miijitot
▁salli
jook
fahin
fiyaake
mbarjaari
▁nuluɗ
Ɓural
▁ɓuɓɓ
reweteeɗi
aggittono
soojo
maggal
ngesa
▁sakkati
▁warooj
▁jay
ben
▁yiili
taƴa
moodi
waɗana
woto
werle
ñaawoore
colli
▁kurkanto
▁haawna
adiiɗo
tawata
Seytaane
▁kebl
▁sannd
pucci
▁hulɓinirta
muuɗum
Ndun
ooñii
ɓɓagol
faandii
▁goonɗina
suddiiɓe
bomɓe
Annabiijo
bonɗe
▁taƴitoy
Dakmit
callal
woondoore
ital
ndaara
ddani
heɓay
▁ɗigga
▁maj
▁Alm
▁warta
danee
defte
rteeɗo
fete
▁yanuno
takko
Ndaar
lampu
▁biski
▁heɓoo
nkinanii
▁Wahy
subaka
Annabaaɓe
sifor
rewoton
Yaafano
nnasaara
ddirooɓe
▁ndaɗɗana
ƴayno
ɗoftagol
▁rewat
▁muyninaa
duule
▁naniray
tiwe
weeti
baafal
Mawɗo
jom
hikkii
ñaaki
Neema
warugol
abiraaɓe
▁hebulin
ubbunhinor
kay
Annd
ncay
tuuyo
ccintin
mawngal
yewtere
muñal
jikku
cemmbe
sonnaajo
tiggu
lotooɗo
pankare
anngeede
goɗɗum
faloto
▁waylaa
▁hakkila
penaale
limoore
▁docot
tooñude
heblan
Gollu
killi
heedo
yahdu
llindiree
yeddugol
happu
▁hawka
firtugol
Laakara
Ganndal
▁jatte
firo
▁hebbi
baasal
wtugol
bakkatuuji
junuubi
wowl
sanamu
Wennj
▁laamino
soccondir
caatngol
cakkit
heddanii
duŋanaade
nebban
sunna
juɗaaɗe
tamaro
▁luutondira
▁cood
halakuyee
yanata
Wewlin
yunng
lewndu
sikkitaare
Rutt
Annasaara
▁heɗino
ota
Ƴettu
juhal
cortewol
haforanal
itotooɓe
fonngo
▁wanngin
Eeh
faddii
toraare
lept
yaajeende
daabeeji
Nokku
jihaadi
Fewtinir
wallitagol
Laamɗo
Muhammadu
Saamiriiyu
jayngol
ormaŋteer
Qaaruuna
faddagol
yumeende
▁ngantina
Faransi
ŋunu
konhoyri
▁ɲaamidayno
Annabaaku
jipporde
Wurin
mawnintiniiɗo
joolol
kuɓeeje
akkee
Accu
Daginan
Lislaamu
uɗagol
njuuri
ltiraa
▁memin
teŋe
paŋkare
ngaari
Teddin
gelooɗi
pooɗugol
wurtugol
njooɓa
bakkaat
▁sallig
Alyahuuda
ɓannguɗi
rliri
peesirɗe
ynugol
yananeede
caate
▁waɗuɗ
yantay
lepteteeɓe
jarra
▁tagana
junnit
fennooɓe
juulugol
▁hawra
Huudi
kuɗol
bifte
▁ruttir
hanki
añaani
▁wancin
tuubugol
Insinan
bolle
njaare
niraynoo
tonngi
▁kakkil
weltina
eftuɓe
▁woɗɗita
fiɗugol
nayeejo
danki
▁doc
▁ɲiiɓ
▁firlito
▁taƴoto
fewjoo
ɓaɗto
wona
Anndal
▁luut
ooñorde
yir
▁mbatula
▁humammbinne
▁banti
eeñuɗo
hettugol
daɗugol
▁ngaddan
njamndi
waq
ummital
naɓa
▁bonat
ndirtah
▁huncanno
G
focc
aton
▁sikkata
arsik
kisal
Jibriil
▁Yurmete
▁firliti
perat
▁rawnin
Wer
bete
nguurdam
faasi
dnir
▁Jarribo
Jippinii
▁Miran
▁sirkuno
▁hajj
▁Wallito
▁feeɲanno
deyel
▁Ñeeñ
woodanii
Mbaa
ttorto
teddi
▁gomɗinnoo
lintaak
▁bonnee
▁dakmito
▁pagg
tantoo
Heed
hebbiniraa
▁Nel
laamagol
▁naatn
woɗɗit
▁lannditoyte
iiri
joomi
haanu
▁feññ
▁Yahuu
▁sendita
tuub
▁dennd
arankeejo
▁seeɗ
ƴiri
majjina
nkugol
▁Sujj
▁bewa
peew
ondirteeɗo
fewtinir
▁Waɗuno
qiijo
▁imminay
▁foygiti
yalta
▁ɲaamiday
▁Yaaquub
▁yurmeend
▁ƴuunu
aynireede
sonjo
▁wojj
▁majjinte
▁faaya
▁immitoyt
sum
ndintaako
▁Juul
bonii
jomba
ondirngol
Rent
▁fotondi
▁fiyakuuj
ggaa
▁naafiq
▁halket
▁yawiti
▁duncanoyta
Ngol
tantaa
▁huuɓiti
▁cup
irniiɗe
ɓitagol
yalton
wuura
ytaa
jango
ñam
sakkiti
▁elt
looru
▁eɓɓuno
▁yeddayno
▁sant
Tefoo
jaɓa
▁Gannd
yaaja
▁Haforoow
cantaa
pertu
▁fooletee
fij
faami
ɗuɗe
▁Ber
▁Yewti
▁ooñoto
▁hebuli
nafku
▁puɗ
ggin
▁keef
torɗum
ngam
▁mis
▁dunndar
▁ƴeƴ
ummboo
dakmita
jalki
▁wallind
▁yejj
▁Aadam
▁wurtay
▁teemeder
▁eɓɓinda
deft
▁tuubuubuy
aɲ
▁Ilyaas
uf
okkoy
▁duŋaye
▁ñalawm
▁Far
▁immaa
▁fennay
▁walk
jjit
▁pankar
▁heerani
diine
ruttii
▁happaa
Golloo
fiya
▁saɗteend
▁feewnir
▁jebbi
bis
▁leptoytee
toɓ
odu
▁jeyti
aytuun
▁ligg
▁Nelaaɗ
▁pahiɗu
▁sakkora
Iis
yoori
▁sifoto
saŋ
▁huɗir
ngadda
nirɗi
▁naaf
▁gabb
totooɓe
niraawo
▁arsuk
nelda
▁wahy
naatugol
▁poocciiɗ
▁loy
▁fiɗ
▁maloy
Jurm
mpitiiɗo
▁iwayno
▁weln
Jooɗo
▁fefin
▁hafra
▁neliri
▁Hebul
▁yaadayno
war
▁faddi
aawirteɗon
ɓindirta
ttirde
▁laɓɓinotoo
▁daroyto
ynirano
Hoot
rluyee
▁tuubuubuye
▁ruttete
▁ardinir
ngil
ɓiniiɗo
anga
▁faggiti
yaajna
▁wonirɗo
jalkita
▁halkete
hottu
▁Tas
ɗirani
▁weƴƴit
raaku
ɓani
jarrabo
lomtina
▁soyɗ
▁nayeej
ngaluuji
seedit
ditetee
▁piyirt
islaam
▁fowtin
▁yarnaɗ
bintaa
▁poocci
▁futu
ylugol
▁ɓittor
▁ɗaanot
inabu
bonnan
▁yoɓita
▁Muhammad
▁taƴontin
▁sokira
rmanteej
akkiti
janngo
▁ngantin
Dama
jamndi
▁hunito
laawi
▁rewnindir
▁lannditoy
▁wonirno
▁mbajj
werla
barjaari
▁Habbit
▁winday
▁Yettinii
▁hefto
Heew
keteeɓe
holl
hinor
▁fampa
▁ngeloob
▁Wahay
▁ŋurŋurt
per
▁feññinana
▁okkuɗo
jotooɗo
Ibr
uccit
ɓutti
▁kaaƴ
Wallin
▁Jibrii
iikiiɗe
▁nims
▁ɓuɓin
▁Hafo
▁inab
▁huuwondir
▁siyaakee
▁cattung
aqiiqa
ebbini
▁ronndoto
alakuyee
▁naawir
anndakke
▁ŋoŋ
▁bamb
▁nelaaɓ
▁curba
▁korndol
ngannduyeeji
uccitiri
untuure
aasiqiiɓe
weltine
shaaqa
bliisa
irngallo
abord
buliisa
▁hoykin
▁marijaawo
wern
oggeeli
rribor
ŋkare
Annaba
▁Aabira
geefo
▁Muhamm
ownitiiɓe
▁conken
▁daraja
oomayankeej
3
5
9
à
ï
ô
“
”
Alyati
̈
▁Dulɓ
ntinantaa
▁seytanuu
laamiyank
mmintinteeɓe
▁alyati
▁Annabi
▁karaha
▁tokora
JJ
▁deleg
ñotoɗ
▁jurm
▁Yaafotoo
hiitino
▁Kula
todano
tondirno
oŋre
aɓaŋ
▁bippoo
oŋkii
eemed
▁subbu
▁Maadi
waɗanaa
▁Subb
▁bajj
▁Huɓɓ
pporde
▁gollug
mpiri
▁dummun
umpatiiɗo
rnaɗa
eedat
ampidu
▁nafoyt
▁coña
ggaande
▁dammbu
▁Annasa
pinay
asiibo
sigar
abbitee
▁haacaang
Jant
ella
anndikir
▁danɗ
▁suufa
nkiniiɗo
▁miic
oggi
▁muuyantee
▁Newii
abante
▁yewtayno
idoodi
rsini
gayuuri
▁bonnug
▁toti
ytaane
▁Haaruu
▁wartind
ggiton
dimmbu
ggana
▁jonnete
ewtid
▁tabitungo
ajitoto
▁wallifa
wart
ddeendi
▁mbobooj
▁jem
oñiri
njari
ñaawoo
feraaku
▁teew
aqara
ppitu
nsinirt
▁newiingo
▁muññino
nortoo
iriyuus
▁Alyah
ullugol
ito
irniiɗi
nulaaɓe
mndaak
▁harm
▁Harmin
▁dakam
onndiniiɗo
▁ombe
fak
ntoori
tondirta
ñinton
ditantono
fiy
baɗat
tateeri
uɓeeje
oofoya
▁añu
tigir
▁ooñotoo
taƴaad
▁Daawu
aaw
lamɗo
▁Haf
ddotooɗo
▁ñawnd
eebataa
wdini
rtotoo
▁jarriborta
Tum
eeƴaa
▁maap
eebur
Arsi
▁ñamminta
iliije
▁ŋiñ
▁Nguu
olondaa
▁buuto
▁fop
eɲɲinan
hiilu
▁ngurn
eweteeɓe
▁Huuɓ
▁karamb
indiraama
uudiŋk
▁jukku
Ɗu
▁lakke
▁runti
iraasi
mette
▁cell
▁fawete
uubuubuyee
citee
geeli
▁Darnga
pew
▁gelo
salii
▁nebbante
▁heyɗi
▁yaajung
haf
▁cukkoo
hoddi
▁faanda
▁cof
▁pul
shir
kkangol
▁Jip
ttuɗe
▁suj
aqin
▁yeewte
unnaange
▁jiiɓa
ynitu
liis
▁bakkatuu
bbere
▁rewnindira
▁okkayno
daaraa
Sunn
atnge
▁Jaha
hoɗo
▁tamƴini
▁duku
▁hoolni
▁welira
Lont
▁pellit
▁Seedii
▁jeyano
▁homm
▁jonmb
bileejo
ubaka
▁dikk
uway
▁huuwuno
ttotaako
eddoton
rtinoo
ruttor
▁solu
halal
▁lamndito
▁jokkoy
▁Jakari
daas
braa
olokooje
doton
▁aljan
qawa
ncantaa
▁fewjana
▁sunninano
ɓabb
▁njalti
Lu
▁fooɗ
tigiri
orrata
▁haangaa
▁heɗotono
oliisi
kkiri
kkude
▁Gannda
▁Ger
▁leb
diyank
sere
rib
Aara
rmeen
manaaku
noyteeɓe
▁yerondir
uudiya
▁damm
▁Toowu
oranay
▁laja
▁Ɓanngan
rtolo
ujjaa
▁Baj
▁ɓunn
▁fin
aajireeɓe
inan
▁haasbo
▁dandire
▁sowndo
faat
mbay
▁ndarndit
▁muuɗ
Mun
ñunde
amuuda
▁tel
▁fokki
boto
anndi
Kaw
ƴitaak
▁tinndina
Yah
fati
ɗanii
qee
Kun
llini
coo
kindirgol
▁bunɗ
loonde
keeru
▁weng
▁Accaa
kammb
nkinaare
▁Naas
ƴƴir
hinora
▁jalkitano
esira
▁wommb
▁ƴoy
▁Faab
desal
Sab
ƴini
enaale
Anndaa
▁ooñu
▁Diin
tornde
▁Ƴet
eltaare
Isma
dube
▁mojob
daaɗi
▁yaltinoy
▁aaye
awnuɓe
▁nodduno
iskiino
▁hakkun
kkidi
▁Jippinano
irteɗaa
st
ppet
▁waɗunooɗ
▁bus
aɓu
▁fillanaa
▁wurnitu
▁kelle
rniiɗo
▁yankinii
▁saɗta
ncoo
taƴe
▁koohoo
▁laakar
▁jorti
uler
▁Yaafa
▁pigg
▁manndikir
Annde
fotoɗon
uttataaka
▁eɓɓanan
alayk
▁heɓiran
▁ɓaɗtii
wliniray
kaadu
▁Aayee
▁heedi
joldu
pule
gidi
rnet
foton
saada
dditi
haalu
▁hebi
owanoyte
▁feewata
▁naafi
▁woopu
muuru
▁jantan
nnga
▁Alj
nayndi
▁Bug
▁ewnotoo
irkoo
▁naɓora
bol
▁warjo
elnir
▁teddint
arans
entinaa
▁fewnayn
▁laaɓuɗa
▁wonanta
renndi
▁eɓɓana
▁jonnuɗ
▁rigg
▁sap
Goɗ
▁cowan
bbal
ɓirɗo
▁Moƴƴu
▁itte
▁malkisa
ikkoy
▁fasaa
▁ɓantu
▁resindira
▁cif
ykinan
▁lettee
▁ardir
uq
▁qa
▁hib
ortoo
▁mooɓoyte
sondir
ft
diyanke
▁callal
mmbinir
▁jaraa
▁ndoli
titagol
jomb
daaru
▁seedotoo
yanay
▁nunɗir
▁ŋakkira
▁sulm
masii
ɗɓe
▁addant
ŋal
▁pomp
ƴuɓe
ulf
oorugol
▁muga
▁Saak
jowo
▁inabu
▁tutaa
▁honnd
▁hulata
buuji
▁ɓalew
oolal
llina
▁halkor
pal
llooɓe
▁mawniniraa
girgol
▁Tuubu
▁Udd
▁janfoyt
▁biskit
jun
▁okkorɗ
▁wallaa
Ngee
aqiijo
▁top
eeɲo
raaka
ankuɗo
nanugol
jugol
▁ŋalɗuɗ
faajo
▁dumunn
▁mac
▁yoɓitirt
foowo
firu
▁neeminaa
awda
▁ƴettite
bobin
▁cift
yahi
iñere
peesir
tiiɗa
manii
ɓeen
See
▁haforanee
meende
▁Yurme
ɗuka
▁Njo
▁buum
▁Gere
▁sifoo
ondo
▁tekk
▁funna
▁nguurt
▁jaɓantaa
▁tele
▁geree
ccu
dinɗo
ariire
ayna
oomu
▁sunnete
foolu
juulaa
▁wonany
inorgol
ttina
ajora
gollugol
konngu
ninireede
horma
ribi
oddirɗo
▁riiw
oowol
▁Piy
aamataa
anoyte
ɓɓon
▁heeda
ondirɗe
taynooɗi
▁kiiti
▁bag
▁Teddina
▁jahan
▁coongi
bra
guɗo
appana
▁hulɓinire
▁lanndito
ɲɲe
uuni
▁mooɓoo
▁fari
▁mawninoy
teeri
▁Hinara
pugol
▁jibintine
yruɗo
▁den
▁naang
▁woɗɗini
luuka
▁coko
hina
▁jokkina
Yeddu
▁kuɓeej
▁Sira
▁memira
▁con
ubuyee
biini
▁bannda
ttuɗo
Waɗɗ
aam
▁heefe
▁wifu
kum
ntum
borii
▁reenta
tinaali
gaajo
riya
sada
taane
gunɓe
▁lora
▁sownda
ddiri
reyaagal
pala
▁Humpitii
indirnoo
kito
▁Sakkit
▁jiñ
▁tedda
rkawal
▁ɓanngana
▁feewni
▁dowdo
eeñe
▁ɗimmit
▁hendora
leeɗe
▁nawl
dorgol
uwaar
▁jonnite
▁nyal
Jippo
▁weera
aɓugol
odal
oraaɗo
▁ɗaɓɓiti
ndinaaɓe
rku
aazi
oɗiiɗo
▁wattoo
banndiraa
▁tabitan
▁iwroy
▁Toowuɗ
▁Rewa
andirɗo
▁focci
lto
yog
▁ɓow
awlii
▁anduno
▁ombira
uluɗo
▁naatoya
jokkay
▁newani
▁deppit
▁tuuninaa
▁tawoya
▁jalkito
santi
▁kong
▁yamar
anndugol
▁bugod
Toran
▁mbay
▁Abii
eeɓit
fuɗo
▁Goon
like
▁say
▁heɓuɗ
aamna
liig
Fay
aɗtanii
Fili
ñɗo
▁fawondirɗ
tinoɗo
eeɓungal
▁ɗuytaa
diyankee
▁fawɲi
▁keɓi
maaje
pota
▁gund
ttiraɗe
eeƴu
▁dum
ɗata
▁ɗewluɗ
▁jalee
▁hawkuno
Fe
efooji
ooɓindiroy
ubaa
▁duumoɗ
▁moƴƴinira
▁mbabb
▁hersira
aakun
▁Yurmo
nasaara
cun
▁pooc
isɗo
▁cukke
ilaton
eññi
gay
bdi
ttingol
▁humpi
▁heɗoyt
tiin
inanee
▁tewt
eɗɗa
jonnee
▁feɲɲinanno
riire
gitike
oɓete
caw
uuniri
annditetee
▁reed
ndenndi
▁neemo
oƴƴe
▁hirse
rngal
▁andani
finn
olla
▁aditiind
akko
Dan
▁woot
▁weerta
▁fefi
▁lamndondir
Siin
uuɓuɗo
▁accitana
▁taaniraa
aaƴoo
ginnde
▁Luut
▁raɓɓind
▁heɗa
ondirta
nirayno
anndintinan
▁fela
eewuɓe
▁huuwa
▁jaabo
▁mooɓindira
▁senditan
inaaɗe
Laata
kil
▁noo
albeendi
▁pent
entini
tik
gen
▁seh
anoya
Habb
▁weey
▁mawninor
▁jawl
rsi
▁notay
ɗondir
tinta
nirɗo
biraa
▁seertuɗ
▁waɗanno
▁Sif
Ng
▁pell
▁nanina
cal
Duŋan
▁caaki
Sir
▁himmana
uyantee
▁ngari
▁siwra
empo
▁majjunoon
▁sowon
sakk
ɓuɗon
mawnin
aadu
ntiri
▁caraa
▁Damaa
▁taƴondirta
▁mahay
anude
awitiiɓe
lmaami
▁dina
dondiro
tanɗo
▁fij
▁yeeyir
▁duncu
▁baabi
▁fenno
▁nota
▁mbow
yirb
▁piin
▁sunne
ppee
▁gollay
▁cuɗina
ampere
▁suud
▁Gom
jal
▁lumbo
otiraa
ndiiɓe
ntora
▁Heer
▁ñiiɓuɗo
▁sifori
▁mahin
ggol
▁Dam
jey
▁tabintini
ffaa
▁yewte
bine
uraani
ehre
anamuuji
yul
ayinir
teen
▁ay
▁deest
▁hollan
noytee
akkilan
waañe
▁jina
atngal
▁yirbinn
fawii
▁Fen
▁hollitoy
Fel
ayinaa
▁tijjan
intinorgol
sun
▁jarriba
▁Ruu
▁fati
mar
pell
oynantaake
yeeji
ynaaɗo
▁waɗirɗo
ib
ayiin
▁adun
uɗnaange
▁binng
▁fittaa
▁annditaa
fali
ttini
ulirde
Ho
▁wasiyaa
kkondirɓe
renti
ajjii
▁yant
ssaa
Potti
▁Seede
itorɗe
ɓo
sikku
▁mooɓindiroy
▁huy
▁fodo
erji
▁salon
motooɓe
ulfu
liir
siti
Neɗɗ
Waɗe
▁hattaa
▁Duŋa
▁fult
dewol
gawal
▁wonoyt
▁faasiqe
ɓunde
▁Jal
▁piyon
ttiɗo
▁finn
▁Fari
▁yungu
▁warno
▁yeeyaa
▁winndat
▁sendindiri
amaana
▁njal
elat
opal
Almasiih
▁denndi
doowo
▁nda
uulirɗe
▁ɗoof
pte
▁meemaa
▁ñale
Ji
▁Yuusu
▁tiiɗinaa
▁ñalaa
▁yamiro
▁wem
utori
▁capp
yaaɗe
▁deena
eeƴe
▁kunna
▁peesir
▁Wara
▁buru
▁lunndaa
isii
atna
▁kurkor
ajam
▁macc
▁walloyta
tiinde
▁ɲaawira
▁ceernd
binɗo
aɲɲ
▁Golloo
indii
pital
▁ngayn
▁ƴawaa
itantonoo
tire
▁ɓillu
▁woyt
▁maayayɗ
nngal
jillu
▁ñaawirt
▁dele
▁tampine
▁heblan
▁tawr
indaare
▁jiido
ñun
▁Sag
▁dogo
ƴagol
▁remo
ɗuɗi
▁heɗan
▁toŋ
itoore
Adi
▁wiiwa
▁feññino
▁biti
fat
ummu
otonoɗon
andingol
ɗanɗo
urta
▁fewjo
Ñi
yira
▁wiŋto
awee
laato
beɗo
eewuɗo
korɗo
ttoyte
▁cur
▁jante
▁yeewt
emmbu
oƴƴina
gina
ynii
▁peeñɗ
oranaa
ranwal
annji
rutti
▁Siina
▁Ɓannginan
▁Ɓann
salon
▁noddiro
intinir
▁hollon
inirana
▁battan
isiide
▁tago
▁nguure
joowo
orɗo
▁naatiraa
ƴii
uunusa
nko
▁laya
nduyeeji
▁aynin
unca
pol
▁sattini
▁ɗofta
antingol
aac
eddoo
▁ɓuuɓe
kire
ynooɗo
▁mbaadii
▁cari
▁mooɗo
▁fubba
itaynoo
▁qirri
▁waɗt
▁daɗndoo
▁Ɲaw
▁nafqe
▁fok
aawugol
▁Sakkitii
Hann
▁fodir
eɗɗan
llii
hiiɗe
▁senndir
▁jiiɓo
▁njoɓd
▁yoɓitet
▁key
▁udditir
▁potnd
yaltu
▁Ɗan
soode
▁senndin
▁tafiraak
▁arayno
▁ɓalee
hakk
▁taƴon
▁jaɓit
▁ni
ɗtiiɗe
teengu
irannoo
gaynoɗaa
▁sunii
baabe
yaad
Tor
▁hirsete
▁kaalat
▁feetuɗ
inoongo
arannde
naŋtaa
orndi
eɓuno
▁jaro
▁ɓaleej
▁jaabort
▁leptata
olii
▁hiiri
▁weert
goot
▁Nik
▁ren
▁bumɗ
▁hitaa
adike
owru
▁kod
seej
▁karhe
▁hakindi
▁goog
tiingal
▁yoɓaa
▁pota
nneejo
ygol
aɗataa
appe
ufaaɓe
▁mus
lori
▁jeeɗiɗ
▁Ibraa
uttee
itotonoo
▁immori
tinayno
▁Gollee
▁sakkitora
tindini
nndinaama
▁gennd
▁Waɗaa
maan
fer
ijitagol
▁tikk
▁salmina
▁tinaa
▁wallan
▁juulu
▁Neem
▁tamarooj
pine
baha
leeɓe
▁ñalo
▁Welaa
nooji
sop
▁fankini
▁Ɓale
▁saato
▁salt
uran
▁ɗuyto
konii
▁tooñee
▁qirritaa
▁hesi
ɲiti
▁mbu
▁noddaann
▁Kisa
▁woofo
duu
mɗuɓe
elto
cogguu
aylitira
▁urn
▁mawninire
nndin
ƴotooɗo
▁Nulid
▁sol
▁hoyne
▁yurmeen
▁fefindotono
inaaɗo
uwa
▁seyta
▁hirsir
tindiraaɗe
▁feggi
Li
arooɓe
▁jokkondirɗ
hal
▁saatine
▁warire
afi
urata
▁junng
Haan
▁jillaan
▁lorrirt
paasu
▁beni
▁pertu
▁hunduɗ
eteno
▁daɲa
▁feƴƴitun
▁dewn
▁Hafor
▁feloor
▁juɗaaɗ
yan
▁ukkito
▁naatiran
nɓe
▁tamaroo
oƴƴud
appa
▁huɓ
▁tokk
▁ombir
▁meeɗini
ɗim
▁fowtii
jeeɗiɗaɓ
ayn
▁hippir
eyɗo
abbee
▁Dan
litugol
▁tol
ardi
▁makku
▁Muññii
eewngo
▁Gomɗinaa
eewunde
▁rewiroo
▁Maand
▁kiiki
maaki
▁hafor
▁cuu
ummbunoo
▁Rod
ɗinee
ayruɓe
▁humpite
▁andiraa
deedi
▁surru
▁toowa
nsa
▁gonɗ
eltugol
▁ronkaa
aqu
▁seertu
▁Gomɗina
▁ƴellita
▁tuubaan
▁hoynoy
ewnoowo
▁keefer
mali
sen
▁keyn
urtugol
▁furi
amaasi
▁ñen
ttondir
▁all
▁Kar
itayɗ
nguure
▁maam
boodo
▁immint
▁sukku
▁ɗaɗ
uuta
▁hattanta
▁Farli
▁wakkilaa
onndugol
▁innu
▁neɓɗ
▁muññoɗ
monee
▁hollaa
▁bewnoo
▁fil
▁yiltitin
umondir
jee
▁ittoy
alfini
oɗa
imse
▁naamnan
nayno
orayɓe
▁Goo
▁tiind
ndirtaano
▁waɗinkin
▁ɓeydaar
Piy
▁jonno
sr
▁ɓeynguu
tiyuus
▁daalan
iwrondiral
▁Wonnoo
annd
▁jertini
▁jett
▁feeñun
▁tal
aseeti
dirɗo
▁Heɗ
apolii
▁Sib
▁jibinir
sewe
sor
aaloy
▁yiitidu
awaaki
jokkaa
▁Nya
inna
aƴugol
▁hakki
▁elta
▁seluɗ
▁tooñat
anaaka
aden
aŋteeɓe
ebbe
tinirde
otta
▁weltoy
onɗo
iru
sina
▁Barkin
▁tedduɗ
▁kafiduno
iwtaaɗo
ttinoo
amaru
▁tekku
▁torana
iisa
ant
▁tina
ɓɓugo
iraaɗo
▁Ɗa
▁cati
aaquu
itor
Bon
ataaka
bata
nngi
▁lummba
taasa
▁wattin
mmer
tinde
ertinoowo
▁wak
▁nanayn
▁siwru
andaa
▁daka
▁suuɗiiɗ
▁tambita
lere
▁accaan
▁laatoy
▁sowi
ndanii
▁aroo
udda
▁Reeni
▁ɲaa
citaama
▁tottiraa
▁Fot
▁renndu
▁barkinaaɗ
iitagol
▁Harm
awaali
kur
aburu
▁kaak
▁okkore
uñoowo
▁ñaamaa
diyan
mor
▁holluɗ
▁peewa
litaa
▁poom
▁laɓɓinoɗ
▁cod
iiki
uutor
attaa
▁yaroow
ndotooɓe
▁wallindirt
▁laaki
ranaa
▁heb
▁seertaa
ertee
ndinoo
▁Amm
usi
riiya
▁sembu
▁dandoyt
▁Immi
tine
kol
▁miijoto
▁Tedduɗ
ootoo
▁iwruno
iyagol
intee
▁waawe
nkiniiɓe
▁momta
ahugol
nnduɓe
▁maaɗ
▁heɗe
▁semmbin
▁toko
innay
▁mahd
ahude
▁ferlit
marii
rnay
▁neemina
nnora
iman
▁lummbu
▁salaa
otooɗ
▁townir
toonde
▁monti
jito
▁Oto
digal
▁haɗtanaa
anan
awataa
▁hajo
tindir
liki
ippagol
Su
▁laatini
▁ɓey
attani
En
▁Nu
goll
▁tilfa
ruɗe
▁waɗtin
▁ngey
▁kulaa
rna
▁welsindin
skin
▁waylitor
ooɗuɗi
eɓugol
▁faggi
iroytee
eddu
ƴƴii
naata
ndiraaɓe
▁wasiyi
ot
▁sonnaa
stu
limaw
ncan
▁jeyaand
▁tooñaan
gollot
awnungal
▁mbert
▁ƴakku
▁hiɗo
▁hattana
▁ndikkin
▁Sala
miyon
illaaji
ennugol
▁wowle
▁jippiniraa
▁Rewi
▁tes
▁fuɗa
inɗe
▁handun
▁lumbiti
▁cotti
nooma
▁muññoto
▁jonnito
▁wirniiɗ
rtinoowo
aamude
huun
uuya
▁ngeen
▁Mawɗ
▁sakkor
oɓdi
ddaa
▁baɗ
aarugol
▁Sell
anɗi
ennetaake
ɗaaɗi
▁bun
ɗorɗe
▁humpitoyo
▁nanaa
▁ɓuuɓa
seri
urmaa
▁leg
ahun
lirton
awaama
▁faggitotono
yde
jja
▁rondit
▁Suɓaa
▁darj
▁jokkit
▁jayng
jeye
aanndude
▁wayli
ento
▁hiiti
▁jalɓ
netaake
ayrude
▁Dilla
▁hersinoy
▁fennuɗ
oolugol
wtirtaa
▁ndaarir
▁Neɗɗa
wgol
▁malkisaa
▁Woodano
▁ngacc
rdi
ftaa
Sid
mmbug
aragol
ntinira
ngude
▁soɓɓindo
anditee
▁feeɲid
mal
▁kabii
▁yette
ɓɓoo
▁yedduɗ
odiyuu
▁yeddo
▁iid
▁lin
▁Kiri
tam
▁huɓindo
lunoo
rtoyay
▁waraak
ñoore
aaɓu
▁heɓan
kos
▁reenaa
▁Wuurn
efugol
uppugol
intin
bunde
oolaare
▁hele
▁mawnung
yli
▁feeñund
Cu
itotoo
eƴ
raawo
▁yuppo
bila
agugol
▁jeyaaɗu
▁jolkan
▁eɓɓii
▁tambiti
▁dogooj
▁jinoo
sell
▁fele
ɲaa
asii
kawal
▁huccin
iroo
ɲa
Noddir
▁depp
▁Nulira
inaama
iiɗ
▁seeditorɗ
▁yawt
royte
buu
▁Jaŋtoɗ
▁hunnan
▁fennanoo
Winnd
▁añana
onki
ig
▁heewun
ld
ankun
iiwaaɗo
▁sawr
▁in
attanɗo
eewu
oon
boni
lanaa
▁ɓernd
▁runn
▁kaal
▁Fee
▁del
▁yeeyita
noton
▁mbatti
▁hayl
▁meerentee
Jaɓ
▁puyɗ
▁tawtindi
▁cerg
▁Muññi
Fittaan
anu
▁ɗuuɗuɗ
▁fopp
▁wuurirt
▁gui
hooree
Aadi
▁wulɗa
ɗitee
▁soƴƴa
▁haforoo
galle
▁toɓɓ
▁mott
▁yiito
▁mbilɗ
ɗungal
tingol
alkii
yfunde
▁jebbiliiɗ
▁wellita
▁njaat
ottotooɓe
ateeɗo
▁seekit
▁wonnoɗ
▁waawirɗ
▁tow
▁ɓoo
▁mutin
▁saani
▁naan
▁gann
mborɗ
▁aranɗ
▁jiiɓe
▁yañña
▁sukkun
▁mbilaa
wat
tto
eeba
▁mbaadin
imminiri
sata
ollo
▁fewno
yankee
▁tewi
▁dumb
noode
▁mawnintinor
ngee
ndon
acaango
▁majjitor
▁seeditoy
andirɗe
▁cikkin
▁dakmi
▁soñu
▁halkoo
▁koola
▁Darng
▁yawta
rtude
▁ɗim
ondu
▁haalayno
▁nopp
yaare
▁nawa
ntuma
▁lootant
▁bann
eɲi
landiri
rsa
▁jippoto
ndara
wuurnita
▁waajitort
▁wuppo
eltiiɗo
▁jarribort
iŋtee
tigii
ranii
norɗi
geɓe
abbi
▁immintine
tindirgol
awreeta
rten
▁njaa
aɓude
▁kaaf
▁miijita
toowo
itoree
asa
ugginta
▁Ju
▁yurmo
▁waj
▁hit
War
▁waɗtitu
▁janfi
▁kawr
tte
rtagol
▁him
ellitaaki
oññe
▁yeeba
▁yeddant
alkat
▁mooɓuɗ
piy
fotoo
aɓee
▁jeyaak
uuqa
▁rewet
ecce
uka
enndaangal
▁Nas
aɓɓugol
mmbir
▁has
▁luutin
esi
▁ngolla
jetaake
entinira
▁perɗ
woton
uncaa
▁win
iirugol
▁Yon
ose
▁maran
ayko
lindir
▁ɓanngann
▁saam
alagol
aawi
aƴƴere
uluuru
▁fewjoda
ownitaare
anndee
eks
ato
eɗi
aaden
oow
nn
▁yarli
▁fiy
▁laɓɓine
▁Iw
siidaa
▁tesko
▁andina
▁hulo
riiɗo
▁paɗa
▁neldaa
▁ɓanngun
▁arsikoo
antorta
▁tinn
aak
▁imman
iniraɗon
iftortah
dotonoo
▁miija
▁wontant
▁wakkiloɗ
▁geɗ
▁dimar
▁mehiɗ
▁Geree
amme
▁sin
▁faljing
eewa
ewnoraa
▁soy
ɓanayno
attan
eɓii
aɓɓu
eewii
onti
▁yalton
ntoo
▁mbonn
oggu
▁rennd
▁sinca
yati
naw
sam
▁Ker
▁weeɓitoto
▁suuɗir
▁yottoy
aangol
enagol
intiniri
iraɗon
▁tuut
oogu
ulo
inanayno
▁heñi
nane
uuj
ami
idii
okkaa
nunooɓe
inndo
▁immintinta
Nd
▁Hita
inke
▁raɓɓinɗina
▁jenti
giya
▁townitaa
kare
Ii
ooɓiiɓe
anndin
▁yonuɗ
▁was
▁kodd
annaa
lummb
▁ooñan
oƴƴude
▁yeddoo
▁yunng
ditor
▁tamƴina
▁jinne
▁aadee
▁jokkunoɗ
▁haaɗ
lɗe
notoɗon
iido
arkii
lande
▁halfinaɗ
▁moɗu
yaaw
irte
▁lummbi
undi
▁fun
attanaani
▁windira
▁Qu
eso
andir
iyaama
toroyta
iraynoɗon
▁feggaa
maru
okkoyay
▁daga
ɗor
▁maccinɗina
iingu
▁Ɗuuɗu
▁happ
oowa
muru
▁ƴantiro
lataa
▁naɓid
onaa
sindaare
aggit
ytooɓe
▁Ɓurn
ifugol
▁naatidu
▁mooɓondir
dondiral
aakoy
▁ɓam
lete
awo
entiiɗo
ertagol
▁ayr
ɗtanɗo
nki
▁cujja
ural
urtani
▁Woo
aɓoowo
▁laɓɓinaɗ
ban
inannde
iwri
nditoytaa
▁luubo
oñi
▁barkinaand
attee
▁haac
▁Ɓiɗt
▁jamma
eetuɗo
▁tammb
Aay
iɗugol
uusiya
aynu
unagol
▁hayfi
aranii
mm
bilaa
rt
antee
ditii
▁eewn
▁juuta
oƴƴinano
▁saɗtuɗ
▁yeew
dokk
oppi
▁feeti
▁wuurid
enta
ayaa
unke
nj
▁ayru
ɗinɓe
onda
ppudi
toyto
▁Dii
ndirtaa
▁waɗano
litaare
oom
oɗii
daynoo
irtaake
▁woɗɗint
uytugol
ipa
▁hewtoyt
▁tewti
oral
Ye
ƴƴugol
▁fotayɗ
neeli
▁fennir
▁jeer
▁noddaan
titi
fanaa
▁fankin
ɗuum
ŋt
▁noddo
▁teddinoy
▁yiiloto
▁jantor
ndondir
occiingol
▁hannd
dand
iidi
atooɗo
yay
▁firlita
inay
▁Duñ
gataa
eɗal
▁fuutin
aayaa
sifa
▁ukkaa
ytaake
itora
▁gomɗint
▁fas
▁ñama
iniri
waɗt
▁huutorte
fag
▁hebula
▁ɗimmu
eel
ooñuɓe
bil
▁Nafata
rtina
▁feeñuɗ
ttani
arnee
▁hann
▁buga
deteno
jon
onga
inayɗi
▁heeran
eltaa
▁Honɗ
▁ah
ale
atto
▁roninaa
▁ɲama
ruure
▁fol
▁njagga
ayngol
sokoy
▁tellinn
▁ɓern
onnuɗo
▁mbileej
▁hormord
▁laatiɗ
▁ngollatn
dda
▁ɲawndaa
aawaama
saama
▁yoorun
ippotoo
sakkit
meelo
▁gol
▁haqqilta
▁danew
▁ñiiɓund
nndinke
enii
▁ittird
▁subbunhin
foo
aɓɓ
iɗ
▁Ngaa
▁Aay
uulirde
uufugol
▁cuɗan
urɓe
▁haara
ñiiɗo
▁jaaba
eƴƴi
iƴan
▁aaw
▁Baabi
nduɗe
▁waajoɗ
kk
nnguɗi
▁kasooj
gulee
arluyee
Quraana
▁felira
▁doginoo
tanoo
Aa
▁feni
▁moƴƴereej
nndagol
kini
▁bala
nɗini
igge
▁yaltit
olaare
tiniri
▁nin
raaw
irɓe
owal
mondiral
oƴƴere
ett
▁barmee
▁canɗ
nooki
▁yanuɗ
ene
iko
beriya
tanta
▁liman
nni
▁ngonnd
▁ɲe
ujj
ngugol
atana
heɓiri
▁Amuu
▁salan
orma
irt
▁rewan
lanii
ewti
▁feggot
▁yuɓɓin
add
eɗu
oyteeng
▁caat
dud
eddandira
▁ñammint
«
ottugol
oyru
▁iwaa
ydi
▁ñee
ontere
▁neeminir
ltagol
dondir
▁toɗɗo
afroowo
▁tutat
oru
▁pel
kkitir
awɗo
Ɗ
arooje
▁sirkant
▁danndii
▁waɗo
gooji
▁naatuɗ
x
tt
nanta
rinoo
aaliba
▁tiiɗno
▁annab
▁neeɓun
▁hasbo
uus
wnitaare
Me
naar
▁ny
aabu
▁haɓɓo
raɗi
emii
wnu
aɲɲa
nditoyte
furee
iŋta
▁Tib
ob
▁njanngi
▁ɗenƴo
rkii
uutugol
uuyii
aletaake
let
ukki
▁Taguɗ
ollugol
▁hebulano
afuyee
oloo
Gomɗi
▁Ngu
▁arsikee
▁dennda
inal
▁yiilaa
▁kis
▁fiti
▁danka
▁Daɗ
▁Salmina
ifagol
olugol
▁Sak
▁muɲɲaa
oojo
llah
uulugol
▁lootiraa
onndu
▁senaa
hiim
▁waɗtid
elorɗe
dooj
awoy
▁fusu
▁wonirɗ
taani
wdi
rsugol
▁yacco
uggo
▁Por
▁sumu
▁Watt
▁kum
daar
Meeɗi
▁Yoɓi
enen
ayee
▁aal
ireeɓe
▁ñiiɓun
▁barm
ille
ɗidi
▁seeditoro
iŋtina
▁junu
een
odoowo
iteteeɓe
rɲit
royt
ooɗoo
▁farlaan
elnataa
▁bim
▁tabi
uda
▁hent
uku
▁tagaaɗ
naatir
ltindira
ikkannde
jere
tiniraa
oose
▁Selli
faan
imdim
▁filla
lun
▁hoɗuɗ
▁addanoya
leeji
▁Heɗi
orayno
▁tala
indirɗo
▁manee
▁cuɗi
abeede
▁jaɓant
▁Waaw
▁taggo
▁Daɗnda
▁Wuurna
Tu
▁gii
iteede
▁daasi
▁luuba
awoytaa
▁Hiwr
▁hawj
▁okkoraa
etaa
ental
poliis
oke
▁jippinaan
▁taskaa
▁konnaa
▁Aam
nanoy
gil
▁Do
gur
uuɓe
▁sikkii
▁Tiiɗ
arunoo
▁gollirt
▁ooña
immb
mborde
yko
▁hiwraa
inirii
waali
ooli
inee
▁tuuboo
enteeɓe
▁waawet
▁yol
rentee
▁tooñoo
▁toowund
lokooj
▁muynina
oƴƴugol
andeeji
eemaaji
darɗe
▁feɲɲint
musu
▁tampint
▁jaabaa
oolor
ƴude
°
Ŋ
Ƴ
Ɲ
Q
Z
Ñ
B
F
P
otaa
Ɓ
